{
  "version": "1.0",
  "truncation": null,
  "padding": null,
  "added_tokens": [
    {
      "id": 0,
      "content": "[UNK]",
      "single_word": false,
      "lstrip": false,
      "rstrip": false,
      "normalized": false,
      "special": true
    },
    {
      "id": 1,
      "content": "[PAD]",
      "single_word": false,
      "lstrip": false,
      "rstrip": false,
      "normalized": false,
      "special": true
    },
    {
      "id": 2,
      "content": "[CLS]",
      "single_word": false,
      "lstrip": false,
      "rstrip": false,
      "normalized": false,
      "special": true
    },
    {
      "id": 3,
      "content": "[SEP]",
      "single_word": false,
      "lstrip": false,
      "rstrip": false,
      "normalized": false,
      "special": true
    },
    {
      "id": 4,
      "content": "[MASK]",
      "single_word": false,
      "lstrip": false,
      "rstrip": false,
      "normalized": false,
      "special": true
    }
  ],
  "normalizer": null,
  "pre_tokenizer": {
    "type": "Whitespace"
  },
  "post_processor": null,
  "decoder": null,
  "model": {
    "type": "BPE",
    "dropout": null,
    "unk_token": null,
    "continuing_subword_prefix": null,
    "end_of_word_suffix": null,
    "fuse_unk": false,
    "byte_fallback": false,
    "ignore_merges": false,
    "vocab": {
      "[UNK]": 0,
      "[PAD]": 1,
      "[CLS]": 2,
      "[SEP]": 3,
      "[MASK]": 4,
      "*": 5,
      "0": 6,
      "1": 7,
      "2": 8,
      "3": 9,
      "4": 10,
      "5": 11,
      "6": 12,
      "7": 13,
      "8": 14,
      "9": 15,
      "a": 16,
      "b": 17,
      "c": 18,
      "d": 19,
      "e": 20,
      "f": 21,
      "g": 22,
      "h": 23,
      "i": 24,
      "j": 25,
      "k": 26,
      "l": 27,
      "m": 28,
      "n": 29,
      "o": 30,
      "p": 31,
      "q": 32,
      "r": 33,
      "s": 34,
      "t": 35,
      "u": 36,
      "v": 37,
      "w": 38,
      "x": 39,
      "y": 40,
      "z": 41,
      "": 42,
      "": 43,
      "": 44,
      "": 45,
      "": 46,
      "¡": 47,
      "¦": 48,
      "§": 49,
      "¨": 50,
      "©": 51,
      "ª": 52,
      "«": 53,
      "­": 54,
      "®": 55,
      "¯": 56,
      "°": 57,
      "±": 58,
      "²": 59,
      "³": 60,
      "´": 61,
      "µ": 62,
      "·": 63,
      "¸": 64,
      "¹": 65,
      "º": 66,
      "»": 67,
      "¿": 68,
      "×": 69,
      "ß": 70,
      "à": 71,
      "á": 72,
      "â": 73,
      "ã": 74,
      "ä": 75,
      "å": 76,
      "æ": 77,
      "ç": 78,
      "è": 79,
      "é": 80,
      "ê": 81,
      "ë": 82,
      "ì": 83,
      "í": 84,
      "î": 85,
      "ï": 86,
      "ð": 87,
      "ñ": 88,
      "ò": 89,
      "ó": 90,
      "ô": 91,
      "õ": 92,
      "ö": 93,
      "ø": 94,
      "ù": 95,
      "ú": 96,
      "û": 97,
      "ü": 98,
      "ý": 99,
      "þ": 100,
      "ā": 101,
      "ą": 102,
      "ć": 103,
      "č": 104,
      "ď": 105,
      "đ": 106,
      "ē": 107,
      "ė": 108,
      "ę": 109,
      "ğ": 110,
      "ĩ": 111,
      "ī": 112,
      "ı": 113,
      "ĺ": 114,
      "ļ": 115,
      "ľ": 116,
      "ł": 117,
      "ń": 118,
      "ņ": 119,
      "ō": 120,
      "ő": 121,
      "ś": 122,
      "ş": 123,
      "š": 124,
      "ũ": 125,
      "ū": 126,
      "ŭ": 127,
      "ŷ": 128,
      "ż": 129,
      "ž": 130,
      "ư": 131,
      "ɑ": 132,
      "ɔ": 133,
      "ə": 134,
      "ɛ": 135,
      "ɪ": 136,
      "ʀ": 137,
      "ʳ": 138,
      "ʸ": 139,
      "ʼ": 140,
      "ʾ": 141,
      "ˈ": 142,
      "ˡ": 143,
      "ˢ": 144,
      "̇": 145,
      "̥": 146,
      "̶": 147,
      "ά": 148,
      "α": 149,
      "β": 150,
      "γ": 151,
      "δ": 152,
      "ε": 153,
      "θ": 154,
      "ι": 155,
      "λ": 156,
      "μ": 157,
      "ν": 158,
      "ξ": 159,
      "ο": 160,
      "π": 161,
      "ρ": 162,
      "ς": 163,
      "τ": 164,
      "υ": 165,
      "ό": 166,
      "а": 167,
      "б": 168,
      "в": 169,
      "г": 170,
      "д": 171,
      "е": 172,
      "з": 173,
      "и": 174,
      "й": 175,
      "к": 176,
      "л": 177,
      "м": 178,
      "н": 179,
      "о": 180,
      "п": 181,
      "р": 182,
      "с": 183,
      "т": 184,
      "у": 185,
      "х": 186,
      "ц": 187,
      "ч": 188,
      "ш": 189,
      "щ": 190,
      "ъ": 191,
      "ы": 192,
      "ь": 193,
      "ю": 194,
      "я": 195,
      "ђ": 196,
      "і": 197,
      "ї": 198,
      "ј": 199,
      "њ": 200,
      "ա": 201,
      "բ": 202,
      "է": 203,
      "թ": 204,
      "ի": 205,
      "լ": 206,
      "ղ": 207,
      "մ": 208,
      "ն": 209,
      "ո": 210,
      "ր": 211,
      "ւ": 212,
      "ד": 213,
      "ה": 214,
      "ו": 215,
      "ח": 216,
      "י": 217,
      "ך": 218,
      "ל": 219,
      "נ": 220,
      "ע": 221,
      "ר": 222,
      "ש": 223,
      "ת": 224,
      "،": 225,
      "؟": 226,
      "ء": 227,
      "آ": 228,
      "أ": 229,
      "ؤ": 230,
      "إ": 231,
      "ئ": 232,
      "ا": 233,
      "ب": 234,
      "ة": 235,
      "ت": 236,
      "ث": 237,
      "ج": 238,
      "ح": 239,
      "خ": 240,
      "د": 241,
      "ذ": 242,
      "ر": 243,
      "ز": 244,
      "س": 245,
      "ش": 246,
      "ص": 247,
      "ض": 248,
      "ط": 249,
      "ظ": 250,
      "ع": 251,
      "غ": 252,
      "ـ": 253,
      "ف": 254,
      "ق": 255,
      "ك": 256,
      "ل": 257,
      "م": 258,
      "ن": 259,
      "ه": 260,
      "و": 261,
      "ى": 262,
      "ي": 263,
      "ً": 264,
      "ٍ": 265,
      "َ": 266,
      "ُ": 267,
      "ِ": 268,
      "ّ": 269,
      "ْ": 270,
      "١": 271,
      "٦": 272,
      "٩": 273,
      "ٰ": 274,
      "پ": 275,
      "چ": 276,
      "ڈ": 277,
      "ڑ": 278,
      "ڕ": 279,
      "ژ": 280,
      "ک": 281,
      "گ": 282,
      "ں": 283,
      "ھ": 284,
      "ہ": 285,
      "ۂ": 286,
      "ۆ": 287,
      "ی": 288,
      "ے": 289,
      "ە": 290,
      "۲": 291,
      "۵": 292,
      "۶": 293,
      "ं": 294,
      "अ": 295,
      "आ": 296,
      "उ": 297,
      "ए": 298,
      "क": 299,
      "ख": 300,
      "ग": 301,
      "च": 302,
      "छ": 303,
      "ज": 304,
      "ट": 305,
      "ड": 306,
      "ण": 307,
      "त": 308,
      "थ": 309,
      "द": 310,
      "ध": 311,
      "न": 312,
      "प": 313,
      "ब": 314,
      "भ": 315,
      "म": 316,
      "य": 317,
      "र": 318,
      "ल": 319,
      "व": 320,
      "श": 321,
      "ष": 322,
      "स": 323,
      "ह": 324,
      "़": 325,
      "ा": 326,
      "ि": 327,
      "ी": 328,
      "ु": 329,
      "ू": 330,
      "ृ": 331,
      "े": 332,
      "ै": 333,
      "ो": 334,
      "ौ": 335,
      "्": 336,
      "ॐ": 337,
      "।": 338,
      "ক": 339,
      "জ": 340,
      "ত": 341,
      "ধ": 342,
      "ন": 343,
      "প": 344,
      "ব": 345,
      "ম": 346,
      "র": 347,
      "ল": 348,
      "স": 349,
      "া": 350,
      "ি": 351,
      "ী": 352,
      "ে": 353,
      "ো": 354,
      "্": 355,
      "୭": 356,
      "ಠ": 357,
      "ก": 358,
      "ค": 359,
      "ง": 360,
      "จ": 361,
      "ซ": 362,
      "ด": 363,
      "ถ": 364,
      "น": 365,
      "ป": 366,
      "ผ": 367,
      "ฟ": 368,
      "ม": 369,
      "ย": 370,
      "ร": 371,
      "ล": 372,
      "ว": 373,
      "ห": 374,
      "อ": 375,
      "ะ": 376,
      "ั": 377,
      "า": 378,
      "ำ": 379,
      "ิ": 380,
      "ี": 381,
      "ึ": 382,
      "ุ": 383,
      "ู": 384,
      "เ": 385,
      "แ": 386,
      "่": 387,
      "้": 388,
      "๋": 389,
      "์": 390,
      "ჶ": 391,
      "ᄏ": 392,
      "ለ": 393,
      "ሉ": 394,
      "ላ": 395,
      "ል": 396,
      "ሚ": 397,
      "ም": 398,
      "ሞ": 399,
      "ረ": 400,
      "ር": 401,
      "ሮ": 402,
      "ሰ": 403,
      "ሲ": 404,
      "ስ": 405,
      "ሸ": 406,
      "ቆ": 407,
      "በ": 408,
      "ቢ": 409,
      "ባ": 410,
      "ተ": 411,
      "ታ": 412,
      "ት": 413,
      "ቸ": 414,
      "ቹ": 415,
      "ነ": 416,
      "ን": 417,
      "አ": 418,
      "እ": 419,
      "ኧ": 420,
      "ወ": 421,
      "ው": 422,
      "ዘ": 423,
      "ዛ": 424,
      "ዝ": 425,
      "የ": 426,
      "ያ": 427,
      "ዬ": 428,
      "ይ": 429,
      "ደ": 430,
      "ዳ": 431,
      "ድ": 432,
      "ግ": 433,
      "ጡ": 434,
      "ፔ": 435,
      "።": 436,
      "ᐛ": 437,
      "ᕕ": 438,
      "ᕗ": 439,
      "ᴇ": 440,
      "ᴛ": 441,
      "ᵃ": 442,
      "ᵇ": 443,
      "ᵈ": 444,
      "ᵉ": 445,
      "ᵍ": 446,
      "ᵐ": 447,
      "ᵒ": 448,
      "ᵖ": 449,
      "ᵗ": 450,
      "ᶜ": 451,
      "ᶦ": 452,
      "ḏ": 453,
      "ḥ": 454,
      "ọ": 455,
      "ớ": 456,
      "ợ": 457,
      "ụ": 458,
      "ứ": 459,
      "ἐ": 460,
      "​": 461,
      "‍": 462,
      "‏": 463,
      "‐": 464,
      "–": 465,
      "—": 466,
      "―": 467,
      "‖": 468,
      "‘": 469,
      "’": 470,
      "‚": 471,
      "„": 472,
      "•": 473,
      "․": 474,
      "‧": 475,
      "‪": 476,
      "‬": 477,
      "′": 478,
      "″": 479,
      "›": 480,
      "‼": 481,
      "‽": 482,
      "⁃": 483,
      "⁉": 484,
      "⁠": 485,
      "⁣": 486,
      "⁦": 487,
      "⁧": 488,
      "⁩": 489,
      "ⁿ": 490,
      "₅": 491,
      "₊": 492,
      "₦": 493,
      "₩": 494,
      "₹": 495,
      "⃣": 496,
      "℃": 497,
      "™": 498,
      "ℹ": 499,
      "→": 500,
      "↓": 501,
      "↔": 502,
      "↕": 503,
      "↘": 504,
      "↨": 505,
      "↪": 506,
      "↳": 507,
      "↷": 508,
      "↺": 509,
      "∘": 510,
      "∙": 511,
      "∞": 512,
      "≠": 513,
      "⊞": 514,
      "⋆": 515,
      "⌂": 516,
      "⌕": 517,
      "⌚": 518,
      "⏩": 519,
      "⏬": 520,
      "⏯": 521,
      "⏰": 522,
      "⏱": 523,
      "⏲": 524,
      "⏳": 525,
      "󠁢": 526,
      "󠁣": 527,
      "󠁥": 528,
      "󠁧": 529,
      "󠁬": 530,
      "󠁮": 531,
      "󠁳": 532,
      "󠁴": 533,
      "󠁷": 534,
      "󠁿": 535,
      "th": 536,
      "in": 537,
      "an": 538,
      "er": 539,
      "the": 540,
      "re": 541,
      "on": 542,
      "ou": 543,
      "is": 544,
      "at": 545,
      "en": 546,
      "al": 547,
      "to": 548,
      "ing": 549,
      "it": 550,
      "or": 551,
      "es": 552,
      "as": 553,
      "and": 554,
      "ed": 555,
      "ar": 556,
      "le": 557,
      "st": 558,
      "of": 559,
      "om": 560,
      "ch": 561,
      "you": 562,
      "wh": 563,
      "ic": 564,
      "il": 565,
      "be": 566,
      "se": 567,
      "ot": 568,
      "ac": 569,
      "am": 570,
      "ay": 571,
      "li": 572,
      "all": 573,
      "ve": 574,
      "id": 575,
      "ow": 576,
      "sh": 577,
      "tr": 578,
      "ad": 579,
      "for": 580,
      "ig": 581,
      "ol": 582,
      "im": 583,
      "us": 584,
      "are": 585,
      "ion": 586,
      "ke": 587,
      "that": 588,
      "ur": 589,
      "ir": 590,
      "op": 591,
      "el": 592,
      "ent": 593,
      "ver": 594,
      "ag": 595,
      "un": 596,
      "ut": 597,
      "pe": 598,
      "ab": 599,
      "ill": 600,
      "ck": 601,
      "ha": 602,
      "et": 603,
      "um": 604,
      "fu": 605,
      "ter": 606,
      "ith": 607,
      "de": 608,
      "out": 609,
      "ly": 610,
      "lo": 611,
      "ne": 612,
      "go": 613,
      "ist": 614,
      "we": 615,
      "fr": 616,
      "with": 617,
      "this": 618,
      "mo": 619,
      "pr": 620,
      "so": 621,
      "not": 622,
      "up": 623,
      "ther": 624,
      "they": 625,
      "ld": 626,
      "ant": 627,
      "me": 628,
      "he": 629,
      "do": 630,
      "ack": 631,
      "if": 632,
      "my": 633,
      "one": 634,
      "ust": 635,
      "ce": 636,
      "ian": 637,
      "ers": 638,
      "ate": 639,
      "ht": 640,
      "com": 641,
      "have": 642,
      "your": 643,
      "fuck": 644,
      "was": 645,
      "ra": 646,
      "ould": 647,
      "ation": 648,
      "end": 649,
      "but": 650,
      "con": 651,
      "ite": 652,
      "oun": 653,
      "peop": 654,
      "res": 655,
      "people": 656,
      "like": 657,
      "ere": 658,
      "no": 659,
      "who": 660,
      "au": 661,
      "bl": 662,
      "pl": 663,
      "man": 664,
      "fe": 665,
      "od": 666,
      "just": 667,
      "now": 668,
      "ia": 669,
      "ally": 670,
      "est": 671,
      "ma": 672,
      "ight": 673,
      "by": 674,
      "our": 675,
      "wor": 676,
      "ome": 677,
      "get": 678,
      "ass": 679,
      "ind": 680,
      "ity": 681,
      "su": 682,
      "po": 683,
      "white": 684,
      "ex": 685,
      "from": 686,
      "can": 687,
      "ct": 688,
      "will": 689,
      "ans": 690,
      "cr": 691,
      "ain": 692,
      "ard": 693,
      "ess": 694,
      "ul": 695,
      "art": 696,
      "what": 697,
      "wom": 698,
      "ge": 699,
      "don": 700,
      "about": 701,
      "ok": 702,
      "day": 703,
      "br": 704,
      "their": 705,
      "ies": 706,
      "ue": 707,
      "some": 708,
      "ell": 709,
      "ap": 710,
      "its": 711,
      "his": 712,
      "fo": 713,
      "ber": 714,
      "them": 715,
      "ak": 716,
      "ive": 717,
      "her": 718,
      "thing": 719,
      "ever": 720,
      "der": 721,
      "ump": 722,
      "ort": 723,
      "ie": 724,
      "bo": 725,
      "nt": 726,
      "co": 727,
      "ide": 728,
      "act": 729,
      "ame": 730,
      "igg": 731,
      "gr": 732,
      "ob": 733,
      "iv": 734,
      "gay": 735,
      "other": 736,
      "ment": 737,
      "trump": 738,
      "gh": 739,
      "way": 740,
      "ye": 741,
      "ast": 742,
      "how": 743,
      "any": 744,
      "has": 745,
      "20": 746,
      "cl": 747,
      "amer": 748,
      "kill": 749,
      "cau": 750,
      "own": 751,
      "when": 752,
      "tim": 753,
      "tor": 754,
      "te": 755,
      "ink": 756,
      "shit": 757,
      "sa": 758,
      "ev": 759,
      "coun": 760,
      "more": 761,
      "women": 762,
      "ick": 763,
      "ish": 764,
      "port": 765,
      "americ": 766,
      "nigg": 767,
      "url": 768,
      "cause": 769,
      "say": 770,
      "try": 771,
      "new": 772,
      "ace": 773,
      "itch": 774,
      "ball": 775,
      "war": 776,
      "off": 777,
      "would": 778,
      "black": 779,
      "ice": 780,
      "want": 781,
      "ous": 782,
      "know": 783,
      "she": 784,
      "got": 785,
      "qu": 786,
      "att": 787,
      "ip": 788,
      "af": 789,
      "red": 790,
      "there": 791,
      "ong": 792,
      "ine": 793,
      "every": 794,
      "uss": 795,
      "dont": 796,
      "than": 797,
      "sp": 798,
      "see": 799,
      "je": 800,
      "gu": 801,
      "because": 802,
      "pres": 803,
      "bitch": 804,
      "fucking": 805,
      "na": 806,
      "lim": 807,
      "dis": 808,
      "mus": 809,
      "being": 810,
      "over": 811,
      "sup": 812,
      "sel": 813,
      "think": 814,
      "ret": 815,
      "mar": 816,
      "men": 817,
      "hate": 818,
      "ho": 819,
      "iz": 820,
      "ound": 821,
      "des": 822,
      "let": 823,
      "ful": 824,
      "la": 825,
      "right": 826,
      "year": 827,
      "ci": 828,
      "ta": 829,
      "ro": 830,
      "di": 831,
      "ence": 832,
      "these": 833,
      "should": 834,
      "why": 835,
      "were": 836,
      "ep": 837,
      "need": 838,
      "back": 839,
      "age": 840,
      "ib": 841,
      "reat": 842,
      "pol": 843,
      "chr": 844,
      "ty": 845,
      "only": 846,
      "again": 847,
      "per": 848,
      "min": 849,
      "mu": 850,
      "ose": 851,
      "em": 852,
      "muslim": 853,
      "king": 854,
      "whi": 855,
      "fa": 856,
      "read": 857,
      "look": 858,
      "time": 859,
      "ase": 860,
      "lig": 861,
      "then": 862,
      "top": 863,
      "ree": 864,
      "christ": 865,
      "jo": 866,
      "ash": 867,
      "tw": 868,
      "call": 869,
      "did": 870,
      "ting": 871,
      "tu": 872,
      "play": 873,
      "ri": 874,
      "pro": 875,
      "num": 876,
      "ident": 877,
      "ild": 878,
      "jew": 879,
      "vi": 880,
      "ger": 881,
      "rac": 882,
      "love": 883,
      "ual": 884,
      "old": 885,
      "00": 886,
      "been": 887,
      "ach": 888,
      "even": 889,
      "attack": 890,
      "afr": 891,
      "him": 892,
      "ians": 893,
      "had": 894,
      "comm": 895,
      "leg": 896,
      "sy": 897,
      "irl": 898,
      "here": 899,
      "ah": 900,
      "ough": 901,
      "ath": 902,
      "ys": 903,
      "ism": 904,
      "good": 905,
      "ple": 906,
      "god": 907,
      "number": 908,
      "sc": 909,
      "world": 910,
      "ves": 911,
      "girl": 912,
      "gen": 913,
      "dr": 914,
      "ope": 915,
      "real": 916,
      "ary": 917,
      "afric": 918,
      "does": 919,
      "come": 920,
      "use": 921,
      "make": 922,
      "mon": 923,
      "bet": 924,
      "ser": 925,
      "igr": 926,
      "country": 927,
      "most": 928,
      "after": 929,
      "ts": 930,
      "tal": 931,
      "ender": 932,
      "ang": 933,
      "pp": 934,
      "19": 935,
      "sex": 936,
      "ens": 937,
      "ated": 938,
      "ks": 939,
      "fir": 940,
      "med": 941,
      "where": 942,
      "self": 943,
      "too": 944,
      "part": 945,
      "atch": 946,
      "pre": 947,
      "trans": 948,
      "fore": 949,
      "into": 950,
      "foot": 951,
      "cor": 952,
      "many": 953,
      "ign": 954,
      "gender": 955,
      "ists": 956,
      "ren": 957,
      "mal": 958,
      "ague": 959,
      "really": 960,
      "ud": 961,
      "mad": 962,
      "russ": 963,
      "ions": 964,
      "av": 965,
      "lit": 966,
      "spe": 967,
      "os": 968,
      "tur": 969,
      "league": 970,
      "migr": 971,
      "rap": 972,
      "oc": 973,
      "als": 974,
      "fer": 975,
      "never": 976,
      "ry": 977,
      "ote": 978,
      "stop": 979,
      "those": 980,
      "down": 981,
      "sho": 982,
      "going": 983,
      "bas": 984,
      "able": 985,
      "fl": 986,
      "happ": 987,
      "oll": 988,
      "football": 989,
      "lie": 990,
      "pu": 991,
      "urch": 992,
      "cho": 993,
      "ons": 994,
      "child": 995,
      "fag": 996,
      "against": 997,
      "still": 998,
      "ely": 999,
      "bt": 1000,
      "said": 1001,
      "church": 1002,
      "ving": 1003,
      "nation": 1004,
      "ms": 1005,
      "int": 1006,
      "may": 1007,
      "put": 1008,
      "well": 1009,
      "terr": 1010,
      "pers": 1011,
      "les": 1012,
      "take": 1013,
      "bor": 1014,
      "hel": 1015,
      "ins": 1016,
      "also": 1017,
      "ily": 1018,
      "mil": 1019,
      "isl": 1020,
      "ible": 1021,
      "life": 1022,
      "president": 1023,
      "ical": 1024,
      "relig": 1025,
      "hom": 1026,
      "under": 1027,
      "fin": 1028,
      "american": 1029,
      "upid": 1030,
      "stupid": 1031,
      "pt": 1032,
      "first": 1033,
      "ire": 1034,
      "tory": 1035,
      "col": 1036,
      "could": 1037,
      "pos": 1038,
      "ating": 1039,
      "woman": 1040,
      "killed": 1041,
      "immigr": 1042,
      "fam": 1043,
      "inter": 1044,
      "hum": 1045,
      "dead": 1046,
      "blo": 1047,
      "iss": 1048,
      "crim": 1049,
      "nigger": 1050,
      "bu": 1051,
      "ning": 1052,
      "fri": 1053,
      "sl": 1054,
      "ance": 1055,
      "refu": 1056,
      "much": 1057,
      "ght": 1058,
      "youre": 1059,
      "start": 1060,
      "friend": 1061,
      "ial": 1062,
      "que": 1063,
      "terror": 1064,
      "str": 1065,
      "igh": 1066,
      "thr": 1067,
      "stand": 1068,
      "ants": 1069,
      "mor": 1070,
      "unt": 1071,
      "head": 1072,
      "america": 1073,
      "kid": 1074,
      "very": 1075,
      "ways": 1076,
      "news": 1077,
      "while": 1078,
      "watch": 1079,
      "lg": 1080,
      "less": 1081,
      "tro": 1082,
      "today": 1083,
      "ket": 1084,
      "years": 1085,
      "amp": 1086,
      "ny": 1087,
      "mur": 1088,
      "feel": 1089,
      "show": 1090,
      "person": 1091,
      "cent": 1092,
      "az": 1093,
      "prob": 1094,
      "refuge": 1095,
      "african": 1096,
      "ious": 1097,
      "wr": 1098,
      "christian": 1099,
      "ug": 1100,
      "islam": 1101,
      "die": 1102,
      "won": 1103,
      "car": 1104,
      "og": 1105,
      "same": 1106,
      "jews": 1107,
      "work": 1108,
      "great": 1109,
      "belie": 1110,
      "lgbt": 1111,
      "tell": 1112,
      "support": 1113,
      "kes": 1114,
      "bid": 1115,
      "ates": 1116,
      "ship": 1117,
      "ft": 1118,
      "faggot": 1119,
      "shot": 1120,
      "bre": 1121,
      "outh": 1122,
      "post": 1123,
      "commun": 1124,
      "gl": 1125,
      "viol": 1126,
      "sin": 1127,
      "retard": 1128,
      "pect": 1129,
      "mi": 1130,
      "ph": 1131,
      "via": 1132,
      "reg": 1133,
      "thats": 1134,
      "soci": 1135,
      "racist": 1136,
      "cul": 1137,
      "fun": 1138,
      "ure": 1139,
      "ave": 1140,
      "iran": 1141,
      "murder": 1142,
      "inv": 1143,
      "keep": 1144,
      "live": 1145,
      "big": 1146,
      "care": 1147,
      "ces": 1148,
      "cant": 1149,
      "che": 1150,
      "which": 1151,
      "tle": 1152,
      "mat": 1153,
      "german": 1154,
      "long": 1155,
      "par": 1156,
      "help": 1157,
      "ved": 1158,
      "ought": 1159,
      "mem": 1160,
      "before": 1161,
      "oph": 1162,
      "ds": 1163,
      "ually": 1164,
      "wa": 1165,
      "hind": 1166,
      "bar": 1167,
      "human": 1168,
      "another": 1169,
      "ason": 1170,
      "nor": 1171,
      "russian": 1172,
      "always": 1173,
      "inc": 1174,
      "vers": 1175,
      "used": 1176,
      "bod": 1177,
      "sol": 1178,
      "ters": 1179,
      "yes": 1180,
      "state": 1181,
      "puss": 1182,
      "ics": 1183,
      "sm": 1184,
      "last": 1185,
      "umb": 1186,
      "dick": 1187,
      "ress": 1188,
      "biden": 1189,
      "har": 1190,
      "lear": 1191,
      "rem": 1192,
      "ise": 1193,
      "hope": 1194,
      "bi": 1195,
      "give": 1196,
      "someone": 1197,
      "uck": 1198,
      "hell": 1199,
      "ction": 1200,
      "ned": 1201,
      "dam": 1202,
      "ki": 1203,
      "ste": 1204,
      "better": 1205,
      "chool": 1206,
      "arent": 1207,
      "two": 1208,
      "acc": 1209,
      "ations": 1210,
      "aw": 1211,
      "bad": 1212,
      "little": 1213,
      "ban": 1214,
      "pussy": 1215,
      "mer": 1216,
      "muslims": 1217,
      "law": 1218,
      "children": 1219,
      "2020": 1220,
      "publ": 1221,
      "school": 1222,
      "ats": 1223,
      "oo": 1224,
      "male": 1225,
      "find": 1226,
      "died": 1227,
      "ites": 1228,
      "girls": 1229,
      "blood": 1230,
      "land": 1231,
      "cont": 1232,
      "lot": 1233,
      "syr": 1234,
      "jes": 1235,
      "team": 1236,
      "made": 1237,
      "destro": 1238,
      "religion": 1239,
      "sure": 1240,
      "hard": 1241,
      "ower": 1242,
      "sen": 1243,
      "game": 1244,
      "illeg": 1245,
      "family": 1246,
      "eur": 1247,
      "ted": 1248,
      "police": 1249,
      "face": 1250,
      "lead": 1251,
      "nothing": 1252,
      "lol": 1253,
      "body": 1254,
      "says": 1255,
      "destroy": 1256,
      "ll": 1257,
      "cur": 1258,
      "bur": 1259,
      "cer": 1260,
      "suck": 1261,
      "son": 1262,
      "lem": 1263,
      "gun": 1264,
      "char": 1265,
      "jesus": 1266,
      "cut": 1267,
      "ities": 1268,
      "ition": 1269,
      "ton": 1270,
      "vide": 1271,
      "ited": 1272,
      "aking": 1273,
      "cour": 1274,
      "nigga": 1275,
      "vid": 1276,
      "sing": 1277,
      "kids": 1278,
      "oup": 1279,
      "public": 1280,
      "national": 1281,
      "vote": 1282,
      "por": 1283,
      "please": 1284,
      "shoot": 1285,
      "abuse": 1286,
      "ff": 1287,
      "ture": 1288,
      "rest": 1289,
      "win": 1290,
      "around": 1291,
      "boy": 1292,
      "must": 1293,
      "vie": 1294,
      "hand": 1295,
      "basket": 1296,
      "sk": 1297,
      "left": 1298,
      "wee": 1299,
      "oh": 1300,
      "ina": 1301,
      "something": 1302,
      "10": 1303,
      "best": 1304,
      "du": 1305,
      "dumb": 1306,
      "vic": 1307,
      "polit": 1308,
      "guy": 1309,
      "ask": 1310,
      "mean": 1311,
      "getting": 1312,
      "set": 1313,
      "bul": 1314,
      "basketball": 1315,
      "dy": 1316,
      "violence": 1317,
      "dif": 1318,
      "fight": 1319,
      "sur": 1320,
      "americans": 1321,
      "high": 1322,
      "tru": 1323,
      "everyone": 1324,
      "isra": 1325,
      "anti": 1326,
      "istan": 1327,
      "lesb": 1328,
      "chan": 1329,
      "ards": 1330,
      "hol": 1331,
      "ss": 1332,
      "community": 1333,
      "ready": 1334,
      "free": 1335,
      "app": 1336,
      "bab": 1337,
      "ied": 1338,
      "uc": 1339,
      "demo": 1340,
      "ca": 1341,
      "uk": 1342,
      "def": 1343,
      "anyone": 1344,
      "home": 1345,
      "race": 1346,
      "refugees": 1347,
      "tow": 1348,
      "usa": 1349,
      "hou": 1350,
      "south": 1351,
      "cock": 1352,
      "death": 1353,
      "since": 1354,
      "comp": 1355,
      "ail": 1356,
      "ear": 1357,
      "non": 1358,
      "niggas": 1359,
      "cum": 1360,
      "offic": 1361,
      "contr": 1362,
      "run": 1363,
      "believe": 1364,
      "gover": 1365,
      "miss": 1366,
      "killing": 1367,
      "coming": 1368,
      "foll": 1369,
      "power": 1370,
      "book": 1371,
      "rights": 1372,
      "giv": 1373,
      "trying": 1374,
      "lat": 1375,
      "place": 1376,
      "europe": 1377,
      "ald": 1378,
      "bs": 1379,
      "retarded": 1380,
      "cept": 1381,
      "called": 1382,
      "ba": 1383,
      "dec": 1384,
      "group": 1385,
      "immigrants": 1386,
      "follow": 1387,
      "actually": 1388,
      "talk": 1389,
      "fi": 1390,
      "list": 1391,
      "month": 1392,
      "vot": 1393,
      "open": 1394,
      "clo": 1395,
      "far": 1396,
      "member": 1397,
      "came": 1398,
      "bc": 1399,
      "oney": 1400,
      "line": 1401,
      "ner": 1402,
      "democr": 1403,
      "fre": 1404,
      "gon": 1405,
      "ically": 1406,
      "ham": 1407,
      "pak": 1408,
      "kind": 1409,
      "press": 1410,
      "guys": 1411,
      "uring": 1412,
      "ors": 1413,
      "doing": 1414,
      "ene": 1415,
      "aul": 1416,
      "such": 1417,
      "ju": 1418,
      "sexual": 1419,
      "house": 1420,
      "cy": 1421,
      "naz": 1422,
      "sw": 1423,
      "**": 1424,
      "minis": 1425,
      "point": 1426,
      "etto": 1427,
      "cap": 1428,
      "ones": 1429,
      "tries": 1430,
      "saying": 1431,
      "ings": 1432,
      "ghetto": 1433,
      "friends": 1434,
      "through": 1435,
      "away": 1436,
      "mom": 1437,
      "differ": 1438,
      "bra": 1439,
      "ents": 1440,
      "fact": 1441,
      "cal": 1442,
      "pay": 1443,
      "things": 1444,
      "xt": 1445,
      "report": 1446,
      "covid": 1447,
      "led": 1448,
      "alth": 1449,
      "others": 1450,
      "vis": 1451,
      "stra": 1452,
      "ped": 1453,
      "base": 1454,
      "history": 1455,
      "india": 1456,
      "pret": 1457,
      "plan": 1458,
      "rape": 1459,
      "raped": 1460,
      "gener": 1461,
      "bible": 1462,
      "thought": 1463,
      "ative": 1464,
      "weet": 1465,
      "ream": 1466,
      "arab": 1467,
      "ness": 1468,
      "aim": 1469,
      "media": 1470,
      "money": 1471,
      "mass": 1472,
      "genoc": 1473,
      "ding": 1474,
      "nment": 1475,
      "ars": 1476,
      "hor": 1477,
      "happy": 1478,
      "21": 1479,
      "ya": 1480,
      "fil": 1481,
      "wan": 1482,
      "ele": 1483,
      "lad": 1484,
      "name": 1485,
      "pa": 1486,
      "xic": 1487,
      "full": 1488,
      "ict": 1489,
      "den": 1490,
      "damn": 1491,
      "idi": 1492,
      "side": 1493,
      "lion": 1494,
      "lgbtq": 1495,
      "next": 1496,
      "ots": 1497,
      "illegal": 1498,
      "israel": 1499,
      "maybe": 1500,
      "ade": 1501,
      "civ": 1502,
      "doesnt": 1503,
      "dom": 1504,
      "hon": 1505,
      "government": 1506,
      "yall": 1507,
      "mother": 1508,
      "ten": 1509,
      "makes": 1510,
      "form": 1511,
      "cath": 1512,
      "ago": 1513,
      "donald": 1514,
      "video": 1515,
      "happen": 1516,
      "hal": 1517,
      "anything": 1518,
      "lesbian": 1519,
      "else": 1520,
      "queer": 1521,
      "night": 1522,
      "liber": 1523,
      "allow": 1524,
      "itter": 1525,
      "bitches": 1526,
      "during": 1527,
      "until": 1528,
      "done": 1529,
      "wal": 1530,
      "whites": 1531,
      "unch": 1532,
      "countries": 1533,
      "ably": 1534,
      "wrong": 1535,
      "mos": 1536,
      "job": 1537,
      "week": 1538,
      "straight": 1539,
      "irus": 1540,
      "ophob": 1541,
      "eas": 1542,
      "enough": 1543,
      "ced": 1544,
      "cathol": 1545,
      "dan": 1546,
      "ality": 1547,
      "augh": 1548,
      "mid": 1549,
      "camp": 1550,
      "both": 1551,
      "civil": 1552,
      "pride": 1553,
      "genocide": 1554,
      "key": 1555,
      "prop": 1556,
      "ize": 1557,
      "pass": 1558,
      "tube": 1559,
      "sub": 1560,
      "ru": 1561,
      "gonna": 1562,
      "send": 1563,
      "kike": 1564,
      "mas": 1565,
      "times": 1566,
      "reason": 1567,
      "view": 1568,
      "light": 1569,
      "val": 1570,
      "pop": 1571,
      "ames": 1572,
      "ines": 1573,
      "using": 1574,
      "18": 1575,
      "without": 1576,
      "youn": 1577,
      "liter": 1578,
      "rel": 1579,
      "ik": 1580,
      "yeah": 1581,
      "youtube": 1582,
      "gree": 1583,
      "vel": 1584,
      "bro": 1585,
      "sat": 1586,
      "cons": 1587,
      "ext": 1588,
      "wear": 1589,
      "needs": 1590,
      "having": 1591,
      "vs": 1592,
      "yet": 1593,
      "march": 1594,
      "social": 1595,
      "move": 1596,
      "didnt": 1597,
      "days": 1598,
      "ps": 1599,
      "hes": 1600,
      "theyre": 1601,
      "selves": 1602,
      "sim": 1603,
      "asian": 1604,
      "yourself": 1605,
      "olog": 1606,
      "milit": 1607,
      "jan": 1608,
      "aut": 1609,
      "respect": 1610,
      "air": 1611,
      "trash": 1612,
      "twitter": 1613,
      "ital": 1614,
      "mind": 1615,
      "org": 1616,
      "dem": 1617,
      "claim": 1618,
      "wait": 1619,
      "thank": 1620,
      "ama": 1621,
      "crimin": 1622,
      "niggers": 1623,
      "matter": 1624,
      "making": 1625,
      "bom": 1626,
      "tem": 1627,
      "wo": 1628,
      "ops": 1629,
      "city": 1630,
      "lives": 1631,
      "few": 1632,
      "russia": 1633,
      "bus": 1634,
      "incl": 1635,
      "serv": 1636,
      "pray": 1637,
      "ult": 1638,
      "lets": 1639,
      "equ": 1640,
      "resp": 1641,
      "gy": 1642,
      "catholic": 1643,
      "understand": 1644,
      "hit": 1645,
      "ying": 1646,
      "oud": 1647,
      "looking": 1648,
      "found": 1649,
      "tf": 1650,
      "heart": 1651,
      "ven": 1652,
      "ile": 1653,
      "already": 1654,
      "da": 1655,
      "culture": 1656,
      "pris": 1657,
      "jewish": 1658,
      "probably": 1659,
      "acy": 1660,
      "ety": 1661,
      "remember": 1662,
      "mexic": 1663,
      "cted": 1664,
      "pie": 1665,
      "story": 1666,
      "contin": 1667,
      "blacks": 1668,
      "coron": 1669,
      "change": 1670,
      "issu": 1671,
      "word": 1672,
      "united": 1673,
      "quest": 1674,
      "cit": 1675,
      "whole": 1676,
      "shes": 1677,
      "terrorist": 1678,
      "super": 1679,
      "peri": 1680,
      "sad": 1681,
      "haha": 1682,
      "might": 1683,
      "deser": 1684,
      "baseball": 1685,
      "ns": 1686,
      "ized": 1687,
      "literally": 1688,
      "ble": 1689,
      "young": 1690,
      "boys": 1691,
      "ester": 1692,
      "15": 1693,
      "engl": 1694,
      "each": 1695,
      "30": 1696,
      "talking": 1697,
      "gress": 1698,
      "cle": 1699,
      "check": 1700,
      "pat": 1701,
      "ority": 1702,
      "least": 1703,
      "pakistan": 1704,
      "ann": 1705,
      "fat": 1706,
      "parent": 1707,
      "wanna": 1708,
      "isnt": 1709,
      "wonder": 1710,
      "ark": 1711,
      "joh": 1712,
      "speak": 1713,
      "ler": 1714,
      "tain": 1715,
      "mess": 1716,
      "arch": 1717,
      "sto": 1718,
      "told": 1719,
      "isis": 1720,
      "ared": 1721,
      "everything": 1722,
      "dog": 1723,
      "100": 1724,
      "sla": 1725,
      "ages": 1726,
      "cas": 1727,
      "beat": 1728,
      "true": 1729,
      "wants": 1730,
      "crime": 1731,
      "femin": 1732,
      "ling": 1733,
      "once": 1734,
      "gust": 1735,
      "add": 1736,
      "problem": 1737,
      "different": 1738,
      "gre": 1739,
      "ween": 1740,
      "gets": 1741,
      "bers": 1742,
      "bull": 1743,
      "hot": 1744,
      "wel": 1745,
      "cu": 1746,
      "mag": 1747,
      "health": 1748,
      "ont": 1749,
      "slut": 1750,
      "rid": 1751,
      "cra": 1752,
      "bring": 1753,
      "tra": 1754,
      "seen": 1755,
      "homophob": 1756,
      "sor": 1757,
      "hear": 1758,
      "between": 1759,
      "hu": 1760,
      "pal": 1761,
      "colle": 1762,
      "hy": 1763,
      "eth": 1764,
      "net": 1765,
      "solut": 1766,
      "hun": 1767,
      "shut": 1768,
      "cru": 1769,
      "sick": 1770,
      "leave": 1771,
      "peace": 1772,
      "clash": 1773,
      "ither": 1774,
      "pan": 1775,
      "ali": 1776,
      "stay": 1777,
      "hi": 1778,
      "citiz": 1779,
      "12": 1780,
      "sign": 1781,
      "cond": 1782,
      "half": 1783,
      "wish": 1784,
      "prote": 1785,
      "john": 1786,
      "tak": 1787,
      "class": 1788,
      "ank": 1789,
      "fort": 1790,
      "low": 1791,
      "lma": 1792,
      "though": 1793,
      "justice": 1794,
      "sun": 1795,
      "aint": 1796,
      "stud": 1797,
      "cover": 1798,
      "looks": 1799,
      "cunt": 1800,
      "fc": 1801,
      "cess": 1802,
      "belief": 1803,
      "female": 1804,
      "prom": 1805,
      "ility": 1806,
      "racism": 1807,
      "syria": 1808,
      "ments": 1809,
      "sound": 1810,
      "maj": 1811,
      "listen": 1812,
      "cre": 1813,
      "comes": 1814,
      "ime": 1815,
      "build": 1816,
      "ird": 1817,
      "ife": 1818,
      "christians": 1819,
      "party": 1820,
      "refugee": 1821,
      "republic": 1822,
      "lebr": 1823,
      "tors": 1824,
      "coronav": 1825,
      "jud": 1826,
      "pretty": 1827,
      "ris": 1828,
      "ord": 1829,
      "playing": 1830,
      "hindu": 1831,
      "baby": 1832,
      "beaut": 1833,
      "themselves": 1834,
      "ault": 1835,
      "military": 1836,
      "sand": 1837,
      "aust": 1838,
      "lies": 1839,
      "bal": 1840,
      "zy": 1841,
      "ier": 1842,
      "11": 1843,
      "coronavirus": 1844,
      "dle": 1845,
      "victim": 1846,
      "creat": 1847,
      "gays": 1848,
      "disgust": 1849,
      "idiot": 1850,
      "joe": 1851,
      "border": 1852,
      "plain": 1853,
      "fect": 1854,
      "brit": 1855,
      "ives": 1856,
      "sis": 1857,
      "vent": 1858,
      "eng": 1859,
      "mis": 1860,
      "nat": 1861,
      "sport": 1862,
      "inste": 1863,
      "ands": 1864,
      "born": 1865,
      "color": 1866,
      "went": 1867,
      "ional": 1868,
      "calling": 1869,
      "action": 1870,
      "hold": 1871,
      "vir": 1872,
      "pic": 1873,
      "sit": 1874,
      "threat": 1875,
      "theres": 1876,
      "sal": 1877,
      "ired": 1878,
      "treat": 1879,
      "teach": 1880,
      "parents": 1881,
      "celebr": 1882,
      "indian": 1883,
      "iness": 1884,
      "plo": 1885,
      "gin": 1886,
      "africa": 1887,
      "fac": 1888,
      "sent": 1889,
      "etc": 1890,
      "suprem": 1891,
      "fire": 1892,
      "stre": 1893,
      "deport": 1894,
      "nazi": 1895,
      "som": 1896,
      "pm": 1897,
      "tar": 1898,
      "poss": 1899,
      "ww": 1900,
      "china": 1901,
      "popul": 1902,
      "han": 1903,
      "io": 1904,
      "mir": 1905,
      "inst": 1906,
      "father": 1907,
      "piece": 1908,
      "gg": 1909,
      "syrian": 1910,
      "sec": 1911,
      "fake": 1912,
      "aid": 1913,
      "million": 1914,
      "ider": 1915,
      "hey": 1916,
      "season": 1917,
      "import": 1918,
      "deal": 1919,
      "religious": 1920,
      "ject": 1921,
      "guess": 1922,
      "middle": 1923,
      "become": 1924,
      "dou": 1925,
      "tweet": 1926,
      "front": 1927,
      "present": 1928,
      "turn": 1929,
      "bomb": 1930,
      "instead": 1931,
      "ech": 1932,
      "ater": 1933,
      "evil": 1934,
      "ator": 1935,
      "accept": 1936,
      "imag": 1937,
      "els": 1938,
      "uni": 1939,
      "break": 1940,
      "det": 1941,
      "states": 1942,
      "31": 1943,
      "count": 1944,
      "skin": 1945,
      "nice": 1946,
      "proud": 1947,
      "osex": 1948,
      "lmao": 1949,
      "dad": 1950,
      "ending": 1951,
      "eat": 1952,
      "ji": 1953,
      "ended": 1954,
      "defin": 1955,
      "iful": 1956,
      "commit": 1957,
      "watching": 1958,
      "brown": 1959,
      "osexual": 1960,
      "cus": 1961,
      "prot": 1962,
      "ef": 1963,
      "join": 1964,
      "educ": 1965,
      "mit": 1966,
      "foreign": 1967,
      "gn": 1968,
      "living": 1969,
      "agree": 1970,
      "means": 1971,
      "sorry": 1972,
      "adv": 1973,
      "pet": 1974,
      "transgender": 1975,
      "iranian": 1976,
      "vacc": 1977,
      "wont": 1978,
      "disgusting": 1979,
      "mouth": 1980,
      "marri": 1981,
      "immigrant": 1982,
      "either": 1983,
      "wtf": 1984,
      "zz": 1985,
      "attacked": 1986,
      "toge": 1987,
      "spir": 1988,
      "interest": 1989,
      "wife": 1990,
      "control": 1991,
      "together": 1992,
      "east": 1993,
      "west": 1994,
      "fully": 1995,
      "greek": 1996,
      "vil": 1997,
      "tom": 1998,
      "ster": 1999,
      "star": 2000,
      "beautiful": 2001,
      "ised": 2002,
      "dude": 2003,
      "gar": 2004,
      "inju": 2005,
      "wash": 2006,
      "bir": 2007,
      "bill": 2008,
      "ko": 2009,
      "allah": 2010,
      "ific": 2011,
      "exual": 2012,
      "rad": 2013,
      "injured": 2014,
      "ugly": 2015,
      "took": 2016,
      "asians": 2017,
      "14": 2018,
      "vo": 2019,
      "lost": 2020,
      "serious": 2021,
      "near": 2022,
      "absolut": 2023,
      "worth": 2024,
      "cuck": 2025,
      "force": 2026,
      "bis": 2027,
      "dra": 2028,
      "fav": 2029,
      "13": 2030,
      "ley": 2031,
      "destroyed": 2032,
      "nig": 2033,
      "sus": 2034,
      "ues": 2035,
      "ppl": 2036,
      "thanks": 2037,
      "pen": 2038,
      "bit": 2039,
      "pun": 2040,
      "ram": 2041,
      "hair": 2042,
      "lock": 2043,
      "army": 2044,
      "based": 2045,
      "cast": 2046,
      "saw": 2047,
      "bullshit": 2048,
      "cial": 2049,
      "16": 2050,
      "stem": 2051,
      "poor": 2052,
      "san": 2053,
      "sou": 2054,
      "terrorism": 2055,
      "case": 2056,
      "clear": 2057,
      "second": 2058,
      "three": 2059,
      "clu": 2060,
      "faggots": 2061,
      "wanted": 2062,
      "ond": 2063,
      "taking": 2064,
      "murdered": 2065,
      "ref": 2066,
      "2021": 2067,
      "society": 2068,
      "street": 2069,
      "lil": 2070,
      "tic": 2071,
      "whore": 2072,
      "learn": 2073,
      "pot": 2074,
      "stu": 2075,
      "prof": 2076,
      "experi": 2077,
      "hur": 2078,
      "lan": 2079,
      "single": 2080,
      "meet": 2081,
      "grand": 2082,
      "dire": 2083,
      "truth": 2084,
      "cou": 2085,
      "step": 2086,
      "cen": 2087,
      "tv": 2088,
      "exist": 2089,
      "sch": 2090,
      "del": 2091,
      "ply": 2092,
      "arg": 2093,
      "yo": 2094,
      "nam": 2095,
      "ief": 2096,
      "tax": 2097,
      "brain": 2098,
      "includ": 2099,
      "row": 2100,
      "thous": 2101,
      "music": 2102,
      "cially": 2103,
      "rich": 2104,
      "fol": 2105,
      "soldi": 2106,
      "throw": 2107,
      "beli": 2108,
      "conf": 2109,
      "funny": 2110,
      "gang": 2111,
      "met": 2112,
      "expect": 2113,
      "thinking": 2114,
      "joy": 2115,
      "pho": 2116,
      "aged": 2117,
      "soon": 2118,
      "div": 2119,
      "behind": 2120,
      "amaz": 2121,
      "fucked": 2122,
      "consider": 2123,
      "rent": 2124,
      "ately": 2125,
      "ense": 2126,
      "fan": 2127,
      "stor": 2128,
      "armen": 2129,
      "political": 2130,
      "oss": 2131,
      "minister": 2132,
      "arrest": 2133,
      "entire": 2134,
      "plac": 2135,
      "priv": 2136,
      "ders": 2137,
      "icul": 2138,
      "myself": 2139,
      "course": 2140,
      "50": 2141,
      "espe": 2142,
      "words": 2143,
      "hood": 2144,
      "leader": 2145,
      "town": 2146,
      "goes": 2147,
      "17": 2148,
      "bigg": 2149,
      "test": 2150,
      "rom": 2151,
      "business": 2152,
      "protect": 2153,
      "speech": 2154,
      "started": 2155,
      "question": 2156,
      "ee": 2157,
      "ention": 2158,
      "honest": 2159,
      "champ": 2160,
      "save": 2161,
      "pur": 2162,
      "room": 2163,
      "system": 2164,
      "small": 2165,
      "imagine": 2166,
      "canad": 2167,
      "college": 2168,
      "tho": 2169,
      "almost": 2170,
      "deep": 2171,
      "assault": 2172,
      "homosexual": 2173,
      "wer": 2174,
      "wed": 2175,
      "germany": 2176,
      "english": 2177,
      "ls": 2178,
      "order": 2179,
      "moslem": 2180,
      "bisexual": 2181,
      "important": 2182,
      "fut": 2183,
      "working": 2184,
      "posed": 2185,
      "democrats": 2186,
      "main": 2187,
      "strong": 2188,
      "former": 2189,
      "heard": 2190,
      "hoe": 2191,
      "cow": 2192,
      "ged": 2193,
      "especially": 2194,
      "anim": 2195,
      "esday": 2196,
      "grow": 2197,
      "cil": 2198,
      "vol": 2199,
      "vious": 2200,
      "ken": 2201,
      "versity": 2202,
      "bunch": 2203,
      "fail": 2204,
      "tration": 2205,
      "gro": 2206,
      "fit": 2207,
      "mc": 2208,
      "flo": 2209,
      "ping": 2210,
      "past": 2211,
      "lying": 2212,
      "pul": 2213,
      "due": 2214,
      "faith": 2215,
      "date": 2216,
      "ii": 2217,
      "pick": 2218,
      "ran": 2219,
      "ends": 2220,
      "islamic": 2221,
      "atic": 2222,
      "secur": 2223,
      "spread": 2224,
      "arabs": 2225,
      "nn": 2226,
      "seems": 2227,
      "donaldtrump": 2228,
      "organ": 2229,
      "aughter": 2230,
      "prison": 2231,
      "fill": 2232,
      "lin": 2233,
      "iting": 2234,
      "ga": 2235,
      "ution": 2236,
      "close": 2237,
      "wood": 2238,
      "fall": 2239,
      "ward": 2240,
      "deserve": 2241,
      "cup": 2242,
      "terrorists": 2243,
      "giving": 2244,
      "exc": 2245,
      "fiel": 2246,
      "lions": 2247,
      "shar": 2248,
      "abort": 2249,
      "crimes": 2250,
      "favor": 2251,
      "appe": 2252,
      "bol": 2253,
      "band": 2254,
      "ior": 2255,
      "flag": 2256,
      "crit": 2257,
      "ignor": 2258,
      "ney": 2259,
      "exact": 2260,
      "males": 2261,
      "fell": 2262,
      "ese": 2263,
      "prod": 2264,
      "players": 2265,
      "esh": 2266,
      "glo": 2267,
      "freed": 2268,
      "nic": 2269,
      "wall": 2270,
      "ours": 2271,
      "earth": 2272,
      "africans": 2273,
      "gt": 2274,
      "push": 2275,
      "ology": 2276,
      "ify": 2277,
      "bang": 2278,
      "holy": 2279,
      "idea": 2280,
      "load": 2281,
      "supremac": 2282,
      "kick": 2283,
      "vin": 2284,
      "court": 2285,
      "alone": 2286,
      "poin": 2287,
      "ben": 2288,
      "bless": 2289,
      "shole": 2290,
      "security": 2291,
      "online": 2292,
      "short": 2293,
      "asshole": 2294,
      "ira": 2295,
      "fool": 2296,
      "ghan": 2297,
      "safe": 2298,
      "fair": 2299,
      "morning": 2300,
      "fans": 2301,
      "rt": 2302,
      "asy": 2303,
      "myan": 2304,
      "sports": 2305,
      "stuff": 2306,
      "gone": 2307,
      "turkey": 2308,
      "dir": 2309,
      "liver": 2310,
      "okay": 2311,
      "ross": 2312,
      "relation": 2313,
      "ming": 2314,
      "realdonaldtrump": 2315,
      "ker": 2316,
      "rather": 2317,
      "ground": 2318,
      "given": 2319,
      "dark": 2320,
      "mp": 2321,
      "nd": 2322,
      "along": 2323,
      "player": 2324,
      "future": 2325,
      "nu": 2326,
      "members": 2327,
      "tonight": 2328,
      "fighting": 2329,
      "const": 2330,
      "shows": 2331,
      "arr": 2332,
      "ws": 2333,
      "freedom": 2334,
      "si": 2335,
      "photo": 2336,
      "ides": 2337,
      "ount": 2338,
      "myanmar": 2339,
      "bed": 2340,
      "gop": 2341,
      "hill": 2342,
      "knew": 2343,
      "chines": 2344,
      "gov": 2345,
      "pose": 2346,
      "final": 2347,
      "protest": 2348,
      "thousands": 2349,
      "lord": 2350,
      "wester": 2351,
      "conserv": 2352,
      "aren": 2353,
      "hole": 2354,
      "crazy": 2355,
      "tit": 2356,
      "chang": 2357,
      "including": 2358,
      "lu": 2359,
      "ni": 2360,
      "hoes": 2361,
      "drop": 2362,
      "birth": 2363,
      "food": 2364,
      "ization": 2365,
      "comment": 2366,
      "obama": 2367,
      "telling": 2368,
      "cannot": 2369,
      "known": 2370,
      "immigration": 2371,
      "liberal": 2372,
      "uary": 2373,
      "ished": 2374,
      "link": 2375,
      "level": 2376,
      "cha": 2377,
      "train": 2378,
      "hero": 2379,
      "24": 2380,
      "25": 2381,
      "respons": 2382,
      "soldiers": 2383,
      "four": 2384,
      "jail": 2385,
      "wow": 2386,
      "ening": 2387,
      "bel": 2388,
      "invest": 2389,
      "nal": 2390,
      "stat": 2391,
      "whate": 2392,
      "council": 2393,
      "kash": 2394,
      "sense": 2395,
      "tral": 2396,
      "suf": 2397,
      "whats": 2398,
      "ified": 2399,
      "seeing": 2400,
      "western": 2401,
      "eu": 2402,
      "search": 2403,
      "whatever": 2404,
      "bat": 2405,
      "bil": 2406,
      "games": 2407,
      "round": 2408,
      "suppor": 2409,
      "charac": 2410,
      "satan": 2411,
      "palest": 2412,
      "possible": 2413,
      "sum": 2414,
      "yr": 2415,
      "dep": 2416,
      "trumps": 2417,
      "retur": 2418,
      "000": 2419,
      "welcome": 2420,
      "polic": 2421,
      "believ": 2422,
      "fur": 2423,
      "conom": 2424,
      "mix": 2425,
      "jihad": 2426,
      "gave": 2427,
      "ott": 2428,
      "ford": 2429,
      "auth": 2430,
      "horr": 2431,
      "ze": 2432,
      "ino": 2433,
      "rele": 2434,
      "itive": 2435,
      "flu": 2436,
      "allowed": 2437,
      "relationship": 2438,
      "sil": 2439,
      "attr": 2440,
      "audi": 2441,
      "worse": 2442,
      "wouldnt": 2443,
      "niger": 2444,
      "econom": 2445,
      "fed": 2446,
      "oles": 2447,
      "mail": 2448,
      "pool": 2449,
      "cording": 2450,
      "intel": 2451,
      "vaccine": 2452,
      "chinese": 2453,
      "pand": 2454,
      "wing": 2455,
      "opin": 2456,
      "ute": 2457,
      "famil": 2458,
      "issue": 2459,
      "fear": 2460,
      "brother": 2461,
      "200": 2462,
      "across": 2463,
      "worst": 2464,
      "mult": 2465,
      "rob": 2466,
      "water": 2467,
      "doc": 2468,
      "blue": 2469,
      "politics": 2470,
      "daily": 2471,
      "kashmir": 2472,
      "jack": 2473,
      "mm": 2474,
      "itely": 2475,
      "attacks": 2476,
      "block": 2477,
      "continue": 2478,
      "muzz": 2479,
      "nazis": 2480,
      "inno": 2481,
      "ale": 2482,
      "cool": 2483,
      "mark": 2484,
      "ja": 2485,
      "bow": 2486,
      "hat": 2487,
      "lon": 2488,
      "knows": 2489,
      "north": 2490,
      "neigh": 2491,
      "istic": 2492,
      "certain": 2493,
      "general": 2494,
      "22": 2495,
      "kur": 2496,
      "yor": 2497,
      "anda": 2498,
      "citizens": 2499,
      "pas": 2500,
      "ences": 2501,
      "prim": 2502,
      "ances": 2503,
      "current": 2504,
      "issues": 2505,
      "definitely": 2506,
      "suffer": 2507,
      "sle": 2508,
      "mental": 2509,
      "happened": 2510,
      "club": 2511,
      "ka": 2512,
      "song": 2513,
      "recent": 2514,
      "forced": 2515,
      "gram": 2516,
      "ided": 2517,
      "racial": 2518,
      "mr": 2519,
      "squ": 2520,
      "enjoy": 2521,
      "among": 2522,
      "walk": 2523,
      "absolutely": 2524,
      "nas": 2525,
      "reas": 2526,
      "special": 2527,
      "remind": 2528,
      "cis": 2529,
      "cold": 2530,
      "finally": 2531,
      "laugh": 2532,
      "rup": 2533,
      "sn": 2534,
      "artic": 2535,
      "burn": 2536,
      "surv": 2537,
      "rul": 2538,
      "ered": 2539,
      "uses": 2540,
      "target": 2541,
      "bin": 2542,
      "wit": 2543,
      "hh": 2544,
      "represent": 2545,
      "according": 2546,
      "concer": 2547,
      "cross": 2548,
      "2019": 2549,
      "inside": 2550,
      "lady": 2551,
      "ony": 2552,
      "movie": 2553,
      "legal": 2554,
      "iest": 2555,
      "weak": 2556,
      "spec": 2557,
      "asked": 2558,
      "luck": 2559,
      "iq": 2560,
      "imes": 2561,
      "goal": 2562,
      "sul": 2563,
      "iraq": 2564,
      "exe": 2565,
      "shooting": 2566,
      "offici": 2567,
      "population": 2568,
      "athe": 2569,
      "cing": 2570,
      "activ": 2571,
      "regard": 2572,
      "bai": 2573,
      "ito": 2574,
      "cuss": 2575,
      "type": 2576,
      "mexico": 2577,
      "amazing": 2578,
      "kar": 2579,
      "match": 2580,
      "fuckin": 2581,
      "congress": 2582,
      "azer": 2583,
      "breaking": 2584,
      "ibut": 2585,
      "lems": 2586,
      "forget": 2587,
      "izing": 2588,
      "ures": 2589,
      "dirty": 2590,
      "rece": 2591,
      "himself": 2592,
      "hands": 2593,
      "uct": 2594,
      "angel": 2595,
      "beliefs": 2596,
      "exactly": 2597,
      "spo": 2598,
      "thetic": 2599,
      "drug": 2600,
      "bag": 2601,
      "cop": 2602,
      "lar": 2603,
      "exam": 2604,
      "ral": 2605,
      "rep": 2606,
      "turk": 2607,
      "dream": 2608,
      "stri": 2609,
      "joke": 2610,
      "played": 2611,
      "homophobic": 2612,
      "mart": 2613,
      "area": 2614,
      "victims": 2615,
      "ane": 2616,
      "ering": 2617,
      "orge": 2618,
      "liam": 2619,
      "likely": 2620,
      "cry": 2621,
      "groups": 2622,
      "election": 2623,
      "kk": 2624,
      "innocent": 2625,
      "weird": 2626,
      "suc": 2627,
      "explain": 2628,
      "coach": 2629,
      "obvious": 2630,
      "leaders": 2631,
      "european": 2632,
      "eyes": 2633,
      "trust": 2634,
      "forces": 2635,
      "cute": 2636,
      "huge": 2637,
      "40": 2638,
      "gab": 2639,
      "stick": 2640,
      "citizen": 2641,
      "british": 2642,
      "fig": 2643,
      "tion": 2644,
      "urs": 2645,
      "local": 2646,
      "blame": 2647,
      "babies": 2648,
      "gi": 2649,
      "sci": 2650,
      "nobody": 2651,
      "except": 2652,
      "majority": 2653,
      "experience": 2654,
      "bb": 2655,
      "whe": 2656,
      "rain": 2657,
      "taken": 2658,
      "hus": 2659,
      "ani": 2660,
      "shame": 2661,
      "heav": 2662,
      "orities": 2663,
      "trave": 2664,
      "christianity": 2665,
      "trad": 2666,
      "tried": 2667,
      "ury": 2668,
      "couple": 2669,
      "field": 2670,
      "eless": 2671,
      "gotta": 2672,
      "millions": 2673,
      "normal": 2674,
      "sounds": 2675,
      "share": 2676,
      "attention": 2677,
      "complet": 2678,
      "folks": 2679,
      "aa": 2680,
      "account": 2681,
      "ibility": 2682,
      "azerbai": 2683,
      "fant": 2684,
      "teen": 2685,
      "running": 2686,
      "piss": 2687,
      "thinks": 2688,
      "violent": 2689,
      "aign": 2690,
      "bey": 2691,
      "office": 2692,
      "discrimin": 2693,
      "dit": 2694,
      "dc": 2695,
      "ient": 2696,
      "verse": 2697,
      "worship": 2698,
      "gry": 2699,
      "premi": 2700,
      "washing": 2701,
      "ahead": 2702,
      "nie": 2703,
      "vill": 2704,
      "ory": 2705,
      "honestly": 2706,
      "points": 2707,
      "sever": 2708,
      "outside": 2709,
      "brut": 2710,
      "ived": 2711,
      "service": 2712,
      "message": 2713,
      "seriously": 2714,
      "jour": 2715,
      "lif": 2716,
      "tech": 2717,
      "identity": 2718,
      "politic": 2719,
      "somet": 2720,
      "families": 2721,
      "ole": 2722,
      "secret": 2723,
      "azerbaijan": 2724,
      "hop": 2725,
      "wil": 2726,
      "campaign": 2727,
      "bud": 2728,
      "event": 2729,
      "pathetic": 2730,
      "equality": 2731,
      "eli": 2732,
      "jer": 2733,
      "pig": 2734,
      "rat": 2735,
      "orig": 2736,
      "calls": 2737,
      "gra": 2738,
      "tex": 2739,
      "rench": 2740,
      "towards": 2741,
      "canada": 2742,
      "york": 2743,
      "idence": 2744,
      "negro": 2745,
      "percent": 2746,
      "reading": 2747,
      "guns": 2748,
      "porn": 2749,
      "extrem": 2750,
      "sunday": 2751,
      "ging": 2752,
      "pain": 2753,
      "wasnt": 2754,
      "patri": 2755,
      "international": 2756,
      "laws": 2757,
      "ision": 2758,
      "stream": 2759,
      "putin": 2760,
      "harass": 2761,
      "fal": 2762,
      "fine": 2763,
      "ges": 2764,
      "ners": 2765,
      "thread": 2766,
      "early": 2767,
      "oper": 2768,
      "oooo": 2769,
      "article": 2770,
      "jun": 2771,
      "till": 2772,
      "alleg": 2773,
      "chance": 2774,
      "comple": 2775,
      "tired": 2776,
      "andgt": 2777,
      "demon": 2778,
      "ival": 2779,
      "discuss": 2780,
      "official": 2781,
      "60": 2782,
      "bot": 2783,
      "card": 2784,
      "wi": 2785,
      "ades": 2786,
      "adminis": 2787,
      "womens": 2788,
      "filth": 2789,
      "global": 2790,
      "gan": 2791,
      "van": 2792,
      "mention": 2793,
      "truly": 2794,
      "ency": 2795,
      "ilt": 2796,
      "eter": 2797,
      "wearing": 2798,
      "spirit": 2799,
      "90": 2800,
      "cel": 2801,
      "pract": 2802,
      "ples": 2803,
      "ocaust": 2804,
      "schools": 2805,
      "langu": 2806,
      "fellow": 2807,
      "ager": 2808,
      "invol": 2809,
      "sco": 2810,
      "tot": 2811,
      "lee": 2812,
      "aff": 2813,
      "holocaust": 2814,
      "create": 2815,
      "biggest": 2816,
      "late": 2817,
      "ener": 2818,
      "happens": 2819,
      "morrow": 2820,
      "maga": 2821,
      "batt": 2822,
      "none": 2823,
      "native": 2824,
      "youth": 2825,
      "perfect": 2826,
      "cases": 2827,
      "icide": 2828,
      "weap": 2829,
      "moder": 2830,
      "works": 2831,
      "months": 2832,
      "neighbor": 2833,
      "cnn": 2834,
      "position": 2835,
      "following": 2836,
      "favorite": 2837,
      "ded": 2838,
      "ky": 2839,
      "thern": 2840,
      "condem": 2841,
      "scum": 2842,
      "danger": 2843,
      "rew": 2844,
      "tomorrow": 2845,
      "homophobia": 2846,
      "takes": 2847,
      "completely": 2848,
      "arsen": 2849,
      "lose": 2850,
      "antly": 2851,
      "distr": 2852,
      "easy": 2853,
      "premier": 2854,
      "sometimes": 2855,
      "fel": 2856,
      "ased": 2857,
      "decl": 2858,
      "fox": 2859,
      "rock": 2860,
      "respon": 2861,
      "bbc": 2862,
      "hours": 2863,
      "rip": 2864,
      "attem": 2865,
      "explo": 2866,
      "officers": 2867,
      "armenian": 2868,
      "cam": 2869,
      "fas": 2870,
      "utes": 2871,
      "emp": 2872,
      "later": 2873,
      "proper": 2874,
      "clean": 2875,
      "attract": 2876,
      "origin": 2877,
      "45": 2878,
      "gas": 2879,
      "ination": 2880,
      "hindus": 2881,
      "judge": 2882,
      "doll": 2883,
      "dress": 2884,
      "host": 2885,
      "turned": 2886,
      "buy": 2887,
      "easter": 2888,
      "hang": 2889,
      "nel": 2890,
      "tures": 2891,
      "dav": 2892,
      "devil": 2893,
      "moment": 2894,
      "pedoph": 2895,
      "arrested": 2896,
      "investig": 2897,
      "tour": 2898,
      "chester": 2899,
      "29": 2900,
      "hs": 2901,
      "actual": 2902,
      "emic": 2903,
      "program": 2904,
      "glad": 2905,
      "cruel": 2906,
      "psy": 2907,
      "writ": 2908,
      "wake": 2909,
      "england": 2910,
      "married": 2911,
      "cand": 2912,
      "mine": 2913,
      "za": 2914,
      "belong": 2915,
      "supporting": 2916,
      "jobs": 2917,
      "term": 2918,
      "loved": 2919,
      "box": 2920,
      "anyway": 2921,
      "drink": 2922,
      "arsenal": 2923,
      "itor": 2924,
      "oppress": 2925,
      "cuz": 2926,
      "nut": 2927,
      "drag": 2928,
      "chick": 2929,
      "carol": 2930,
      "supporters": 2931,
      "nast": 2932,
      "sty": 2933,
      "kel": 2934,
      "afghan": 2935,
      "ric": 2936,
      "lect": 2937,
      "brought": 2938,
      "gods": 2939,
      "preci": 2940,
      "breed": 2941,
      "defend": 2942,
      "recor": 2943,
      "hosp": 2944,
      "nations": 2945,
      "phys": 2946,
      "fix": 2947,
      "panic": 2948,
      "education": 2949,
      "third": 2950,
      "ilar": 2951,
      "balls": 2952,
      "ference": 2953,
      "ax": 2954,
      "french": 2955,
      "often": 2956,
      "neck": 2957,
      "blow": 2958,
      "acting": 2959,
      "typ": 2960,
      "pregn": 2961,
      "speaking": 2962,
      "troops": 2963,
      "sexuality": 2964,
      "23": 2965,
      "bes": 2966,
      "phil": 2967,
      "sleep": 2968,
      "reach": 2969,
      "liberals": 2970,
      "major": 2971,
      "republicans": 2972,
      "answer": 2973,
      "appro": 2974,
      "satur": 2975,
      "green": 2976,
      "cities": 2977,
      "ery": 2978,
      "confir": 2979,
      "space": 2980,
      "personal": 2981,
      "swed": 2982,
      "administration": 2983,
      "99": 2984,
      "tou": 2985,
      "uation": 2986,
      "histor": 2987,
      "medi": 2988,
      "idiots": 2989,
      "intellig": 2990,
      "memor": 2991,
      "common": 2992,
      "surpris": 2993,
      "gives": 2994,
      "johnson": 2995,
      "jap": 2996,
      "scr": 2997,
      "los": 2998,
      "convers": 2999,
      "seem": 3000,
      "tural": 3001,
      "****": 3002,
      "reported": 3003,
      "ethnic": 3004,
      "gold": 3005,
      "hr": 3006,
      "virus": 3007,
      "ange": 3008,
      "itions": 3009,
      "arm": 3010,
      "center": 3011,
      "opinion": 3012,
      "ai": 3013,
      "congr": 3014,
      "estic": 3015,
      "george": 3016,
      "held": 3017,
      "wol": 3018,
      "insul": 3019,
      "camps": 3020,
      "washington": 3021,
      "roll": 3022,
      "rect": 3023,
      "ices": 3024,
      "crisis": 3025,
      "board": 3026,
      "corrup": 3027,
      "yester": 3028,
      "pred": 3029,
      "armed": 3030,
      "suspect": 3031,
      "turkish": 3032,
      "fast": 3033,
      "mel": 3034,
      "sour": 3035,
      "ators": 3036,
      "total": 3037,
      "capito": 3038,
      "simply": 3039,
      "lab": 3040,
      "conne": 3041,
      "aware": 3042,
      "formation": 3043,
      "movement": 3044,
      "animals": 3045,
      "ude": 3046,
      "igno": 3047,
      "ability": 3048,
      "lesbians": 3049,
      "austral": 3050,
      "dut": 3051,
      "zer": 3052,
      "within": 3053,
      "comments": 3054,
      "feat": 3055,
      "anymore": 3056,
      "diversity": 3057,
      "bast": 3058,
      "saudi": 3059,
      "reve": 3060,
      "ari": 3061,
      "ented": 3062,
      "liverpool": 3063,
      "character": 3064,
      "capitol": 3065,
      "amed": 3066,
      "imp": 3067,
      "bru": 3068,
      "brothers": 3069,
      "quick": 3070,
      "virgin": 3071,
      "hurt": 3072,
      "banglad": 3073,
      "lm": 3074,
      "reco": 3075,
      "iles": 3076,
      "sha": 3077,
      "abo": 3078,
      "internet": 3079,
      "difference": 3080,
      "cali": 3081,
      "period": 3082,
      "republican": 3083,
      "ignorant": 3084,
      "success": 3085,
      "rand": 3086,
      "inj": 3087,
      "chall": 3088,
      "tuesday": 3089,
      "doesn": 3090,
      "incel": 3091,
      "facebook": 3092,
      "latest": 3093,
      "palestin": 3094,
      "28": 3095,
      "daughter": 3096,
      "shock": 3097,
      "invad": 3098,
      "propag": 3099,
      "champion": 3100,
      "depend": 3101,
      "false": 3102,
      "zion": 3103,
      "begin": 3104,
      "aming": 3105,
      "aud": 3106,
      "defense": 3107,
      "claims": 3108,
      "created": 3109,
      "mber": 3110,
      "ring": 3111,
      "wise": 3112,
      "moved": 3113,
      "manchester": 3114,
      "worry": 3115,
      "weeks": 3116,
      "announ": 3117,
      "students": 3118,
      "lack": 3119,
      "alive": 3120,
      "asking": 3121,
      "loves": 3122,
      "smart": 3123,
      "domestic": 3124,
      "criminal": 3125,
      "execut": 3126,
      "yesterday": 3127,
      "hen": 3128,
      "iny": 3129,
      "ively": 3130,
      "voted": 3131,
      "sam": 3132,
      "counter": 3133,
      "central": 3134,
      "nasty": 3135,
      "va": 3136,
      "inate": 3137,
      "nah": 3138,
      "supremacist": 3139,
      "language": 3140,
      "eye": 3141,
      "comfort": 3142,
      "mentally": 3143,
      "starting": 3144,
      "steal": 3145,
      "sister": 3146,
      "70": 3147,
      "dred": 3148,
      "ston": 3149,
      "females": 3150,
      "basically": 3151,
      "apparent": 3152,
      "mexican": 3153,
      "pack": 3154,
      "dear": 3155,
      "desp": 3156,
      "problems": 3157,
      "books": 3158,
      "views": 3159,
      "totally": 3160,
      "minority": 3161,
      "illegals": 3162,
      "primary": 3163,
      "lied": 3164,
      "forward": 3165,
      "aging": 3166,
      "cost": 3167,
      "however": 3168,
      "dyke": 3169,
      "film": 3170,
      "demand": 3171,
      "officials": 3172,
      "cat": 3173,
      "tits": 3174,
      "revol": 3175,
      "shith": 3176,
      "devel": 3177,
      "plic": 3178,
      "saf": 3179,
      "region": 3180,
      "votes": 3181,
      "hundred": 3182,
      "abortion": 3183,
      "nia": 3184,
      "irish": 3185,
      "enter": 3186,
      "unless": 3187,
      "igray": 3188,
      "regul": 3189,
      "several": 3190,
      "1st": 3191,
      "agend": 3192,
      "strug": 3193,
      "temple": 3194,
      "conservative": 3195,
      "pandemic": 3196,
      "cket": 3197,
      "reven": 3198,
      "iving": 3199,
      "emplo": 3200,
      "heads": 3201,
      "slave": 3202,
      "bing": 3203,
      "dist": 3204,
      "grap": 3205,
      "mask": 3206,
      "rd": 3207,
      "sed": 3208,
      "vert": 3209,
      "crack": 3210,
      "role": 3211,
      "sucking": 3212,
      "ffs": 3213,
      "ural": 3214,
      "door": 3215,
      "choice": 3216,
      "bigot": 3217,
      "marriage": 3218,
      "texas": 3219,
      "cops": 3220,
      "beha": 3221,
      "fran": 3222,
      "road": 3223,
      "london": 3224,
      "japan": 3225,
      "sli": 3226,
      "unity": 3227,
      "ctions": 3228,
      "minutes": 3229,
      "didn": 3230,
      "voting": 3231,
      "hypo": 3232,
      "clearly": 3233,
      "saturday": 3234,
      "wild": 3235,
      "planet": 3236,
      "carolina": 3237,
      "kin": 3238,
      "oid": 3239,
      "log": 3240,
      "iple": 3241,
      "correct": 3242,
      "putting": 3243,
      "humanity": 3244,
      "places": 3245,
      "ost": 3246,
      "sort": 3247,
      "chelse": 3248,
      "killer": 3249,
      "county": 3250,
      "banned": 3251,
      "hitler": 3252,
      "touch": 3253,
      "fli": 3254,
      "anal": 3255,
      "mud": 3256,
      "example": 3257,
      "response": 3258,
      "grace": 3259,
      "supposed": 3260,
      "five": 3261,
      "angry": 3262,
      "emot": 3263,
      "realize": 3264,
      "criminals": 3265,
      "husband": 3266,
      "apparently": 3267,
      "dat": 3268,
      "kers": 3269,
      "series": 3270,
      "borders": 3271,
      "democratic": 3272,
      "situation": 3273,
      "soul": 3274,
      "27": 3275,
      "cell": 3276,
      "dump": 3277,
      "loving": 3278,
      "humans": 3279,
      "carry": 3280,
      "kinda": 3281,
      "honor": 3282,
      "fare": 3283,
      "thro": 3284,
      "ana": 3285,
      "eral": 3286,
      "ising": 3287,
      "needed": 3288,
      "ensive": 3289,
      "ogy": 3290,
      "phone": 3291,
      "regime": 3292,
      "covid19": 3293,
      "26": 3294,
      "coll": 3295,
      "fs": 3296,
      "progress": 3297,
      "mission": 3298,
      "simple": 3299,
      "picture": 3300,
      "radical": 3301,
      "direct": 3302,
      "chief": 3303,
      "goog": 3304,
      "actions": 3305,
      "quite": 3306,
      "reddit": 3307,
      "reality": 3308,
      "building": 3309,
      "profess": 3310,
      "kurd": 3311,
      "develop": 3312,
      "hous": 3313,
      "kn": 3314,
      "mot": 3315,
      "ona": 3316,
      "project": 3317,
      "racists": 3318,
      "migrants": 3319,
      "longer": 3320,
      "ruin": 3321,
      "stories": 3322,
      "cir": 3323,
      "ked": 3324,
      "xx": 3325,
      "cher": 3326,
      "deb": 3327,
      "france": 3328,
      "mostly": 3329,
      "prevent": 3330,
      "james": 3331,
      "spr": 3332,
      "chic": 3333,
      "shir": 3334,
      "raised": 3335,
      "willing": 3336,
      "acts": 3337,
      "ville": 3338,
      "wedn": 3339,
      "critic": 3340,
      "califor": 3341,
      "information": 3342,
      "atives": 3343,
      "ential": 3344,
      "reports": 3345,
      "paid": 3346,
      "promot": 3347,
      "whether": 3348,
      "david": 3349,
      "bangladesh": 3350,
      "behavi": 3351,
      "bout": 3352,
      "gate": 3353,
      "ently": 3354,
      "prove": 3355,
      "teams": 3356,
      "winning": 3357,
      "israeli": 3358,
      "travel": 3359,
      "ander": 3360,
      "ida": 3361,
      "feed": 3362,
      "indians": 3363,
      "brief": 3364,
      "harassment": 3365,
      "fasc": 3366,
      "agenda": 3367,
      "lots": 3368,
      "interesting": 3369,
      "billion": 3370,
      "return": 3371,
      "pap": 3372,
      "ison": 3373,
      "astr": 3374,
      "appreci": 3375,
      "videos": 3376,
      "propaganda": 3377,
      "fing": 3378,
      "ias": 3379,
      "became": 3380,
      "guard": 3381,
      "cares": 3382,
      "filled": 3383,
      "cc": 3384,
      "pod": 3385,
      "site": 3386,
      "wind": 3387,
      "confl": 3388,
      "committed": 3389,
      "aver": 3390,
      "lor": 3391,
      "smo": 3392,
      "reme": 3393,
      "priest": 3394,
      "suicide": 3395,
      "express": 3396,
      "ibly": 3397,
      "massac": 3398,
      "responsible": 3399,
      "dar": 3400,
      "fest": 3401,
      "youll": 3402,
      "aught": 3403,
      "streets": 3404,
      "catch": 3405,
      "mob": 3406,
      "docum": 3407,
      "feeling": 3408,
      "voters": 3409,
      "massive": 3410,
      "equal": 3411,
      "garb": 3412,
      "wednesday": 3413,
      "dies": 3414,
      "tigray": 3415,
      "requ": 3416,
      "ireland": 3417,
      "bene": 3418,
      "influ": 3419,
      "ift": 3420,
      "fucks": 3421,
      "phob": 3422,
      "arian": 3423,
      "sole": 3424,
      "ried": 3425,
      "slow": 3426,
      "happening": 3427,
      "weekend": 3428,
      "doubt": 3429,
      "chelsea": 3430,
      "hating": 3431,
      "hates": 3432,
      "jump": 3433,
      "yal": 3434,
      "visit": 3435,
      "fortun": 3436,
      "voice": 3437,
      "policy": 3438,
      "80": 3439,
      "iel": 3440,
      "wide": 3441,
      "shouldnt": 3442,
      "nationalist": 3443,
      "waiting": 3444,
      "slaves": 3445,
      "kore": 3446,
      "35": 3447,
      "cli": 3448,
      "ctor": 3449,
      "mul": 3450,
      "upon": 3451,
      "complain": 3452,
      "peoples": 3453,
      "nock": 3454,
      "ivid": 3455,
      "river": 3456,
      "moron": 3457,
      "battle": 3458,
      "revenge": 3459,
      "crap": 3460,
      "research": 3461,
      "dece": 3462,
      "georg": 3463,
      "scream": 3464,
      "prefer": 3465,
      "celebrate": 3466,
      "beyond": 3467,
      "dating": 3468,
      "sac": 3469,
      "crow": 3470,
      "drive": 3471,
      "journal": 3472,
      "california": 3473,
      "shall": 3474,
      "loc": 3475,
      "apart": 3476,
      "shitty": 3477,
      "design": 3478,
      "built": 3479,
      "standing": 3480,
      "showing": 3481,
      "statement": 3482,
      "followers": 3483,
      "wins": 3484,
      "unk": 3485,
      "individ": 3486,
      "thoughts": 3487,
      "broke": 3488,
      "despite": 3489,
      "iop": 3490,
      "usive": 3491,
      "monday": 3492,
      "queen": 3493,
      "posts": 3494,
      "park": 3495,
      "ladies": 3496,
      "aliens": 3497,
      "modern": 3498,
      "kiss": 3499,
      "paul": 3500,
      "ays": 3501,
      "union": 3502,
      "degener": 3503,
      "meant": 3504,
      "ifa": 3505,
      "ults": 3506,
      "democracy": 3507,
      "double": 3508,
      "jok": 3509,
      "lum": 3510,
      "wet": 3511,
      "independ": 3512,
      "encour": 3513,
      "sem": 3514,
      "shop": 3515,
      "argum": 3516,
      "storm": 3517,
      "recogn": 3518,
      "shithole": 3519,
      "garbage": 3520,
      "mist": 3521,
      "scre": 3522,
      "university": 3523,
      "ake": 3524,
      "apr": 3525,
      "kne": 3526,
      "sj": 3527,
      "yell": 3528,
      "troll": 3529,
      "ume": 3530,
      "pakistani": 3531,
      "felt": 3532,
      "individual": 3533,
      "frid": 3534,
      "sugg": 3535,
      "aving": 3536,
      "homes": 3537,
      "january": 3538,
      "obviously": 3539,
      "suggest": 3540,
      "sweet": 3541,
      "outr": 3542,
      "omg": 3543,
      "span": 3544,
      "seless": 3545,
      "slavery": 3546,
      "filthy": 3547,
      "repe": 3548,
      "forgot": 3549,
      "plus": 3550,
      "bernie": 3551,
      "everybody": 3552,
      "dumbass": 3553,
      "capital": 3554,
      "gal": 3555,
      "assh": 3556,
      "sue": 3557,
      "tells": 3558,
      "dangerous": 3559,
      "elim": 3560,
      "lick": 3561,
      "anno": 3562,
      "refer": 3563,
      "ened": 3564,
      "esome": 3565,
      "illy": 3566,
      "prime": 3567,
      "lmfa": 3568,
      "bay": 3569,
      "everywhere": 3570,
      "colon": 3571,
      "misogy": 3572,
      "psych": 3573,
      "afghanistan": 3574,
      "mach": 3575,
      "crying": 3576,
      "scared": 3577,
      "homo": 3578,
      "powerful": 3579,
      "decided": 3580,
      "rule": 3581,
      "risk": 3582,
      "nigeria": 3583,
      "complete": 3584,
      "hospital": 3585,
      "2nd": 3586,
      "ially": 3587,
      "ron": 3588,
      "admit": 3589,
      "moving": 3590,
      "plat": 3591,
      "choose": 3592,
      "couldnt": 3593,
      "mosque": 3594,
      "mexicans": 3595,
      "involved": 3596,
      "alt": 3597,
      "qual": 3598,
      "minorities": 3599,
      "looked": 3600,
      "officer": 3601,
      "deported": 3602,
      "attempt": 3603,
      "iding": 3604,
      "havent": 3605,
      "fucker": 3606,
      "quality": 3607,
      "descr": 3608,
      "positive": 3609,
      "workers": 3610,
      "bon": 3611,
      "adam": 3612,
      "opport": 3613,
      "loser": 3614,
      "berg": 3615,
      "afraid": 3616,
      "partner": 3617,
      "accused": 3618,
      "facts": 3619,
      "britain": 3620,
      "excuse": 3621,
      "further": 3622,
      "discrimination": 3623,
      "boun": 3624,
      "lier": 3625,
      "whose": 3626,
      "knowing": 3627,
      "christmas": 3628,
      "feels": 3629,
      "charge": 3630,
      "sky": 3631,
      "ethiop": 3632,
      "constit": 3633,
      "cun": 3634,
      "cred": 3635,
      "sar": 3636,
      "alex": 3637,
      "likes": 3638,
      "immedi": 3639,
      "kills": 3640,
      "sell": 3641,
      "1918": 3642,
      "micha": 3643,
      "charged": 3644,
      "covered": 3645,
      "rules": 3646,
      "large": 3647,
      "pregnant": 3648,
      "swe": 3649,
      "cos": 3650,
      "sav": 3651,
      "enemy": 3652,
      "generation": 3653,
      "energy": 3654,
      "65": 3655,
      "eating": 3656,
      "tan": 3657,
      "eds": 3658,
      "idk": 3659,
      "usion": 3660,
      "caught": 3661,
      "spot": 3662,
      "launch": 3663,
      "religions": 3664,
      "communities": 3665,
      "helping": 3666,
      "dudes": 3667,
      "gle": 3668,
      "karen": 3669,
      "stone": 3670,
      "raine": 3671,
      "0000": 3672,
      "democrat": 3673,
      "ledge": 3674,
      "address": 3675,
      "sey": 3676,
      "aka": 3677,
      "viet": 3678,
      "feminist": 3679,
      "mixed": 3680,
      "tradition": 3681,
      "surprised": 3682,
      "fic": 3683,
      "trigg": 3684,
      "suit": 3685,
      "madrid": 3686,
      "cultural": 3687,
      "barr": 3688,
      "version": 3689,
      "ilege": 3690,
      "educated": 3691,
      "privilege": 3692,
      "six": 3693,
      "fantasy": 3694,
      "reveal": 3695,
      "michael": 3696,
      "nbc": 3697,
      "sess": 3698,
      "isn": 3699,
      "moham": 3700,
      "numbers": 3701,
      "incels": 3702,
      "access": 3703,
      "treated": 3704,
      "supremacy": 3705,
      "effect": 3706,
      "title": 3707,
      "recently": 3708,
      "heaven": 3709,
      "throat": 3710,
      "jim": 3711,
      "page": 3712,
      "soc": 3713,
      "watched": 3714,
      "iction": 3715,
      "31march": 3716,
      "record": 3717,
      "random": 3718,
      "comfortable": 3719,
      "hack": 3720,
      "remain": 3721,
      "mans": 3722,
      "medical": 3723,
      "company": 3724,
      "valid": 3725,
      "feminists": 3726,
      "nearly": 3727,
      "april": 3728,
      "lib": 3729,
      "butt": 3730,
      "exper": 3731,
      "forever": 3732,
      "queers": 3733,
      "deaths": 3734,
      "squad": 3735,
      "names": 3736,
      "separ": 3737,
      "kets": 3738,
      "compet": 3739,
      "epis": 3740,
      "smh": 3741,
      "latin": 3742,
      "bak": 3743,
      "jp": 3744,
      "rab": 3745,
      "sof": 3746,
      "toxic": 3747,
      "usually": 3748,
      "retweet": 3749,
      "twitch": 3750,
      "flor": 3751,
      "pure": 3752,
      "dicks": 3753,
      "radio": 3754,
      "icular": 3755,
      "candid": 3756,
      "friday": 3757,
      "zam": 3758,
      "mov": 3759,
      "bert": 3760,
      "heres": 3761,
      "stopped": 3762,
      "bank": 3763,
      "deserves": 3764,
      "pull": 3765,
      "changed": 3766,
      "regardless": 3767,
      "inated": 3768,
      "ises": 3769,
      "ala": 3770,
      "apt": 3771,
      "wars": 3772,
      "marry": 3773,
      "sym": 3774,
      "slaughter": 3775,
      "ukraine": 3776,
      "walking": 3777,
      "bringing": 3778,
      "advoc": 3779,
      "absolute": 3780,
      "summer": 3781,
      "championship": 3782,
      "safety": 3783,
      "chicago": 3784,
      "33": 3785,
      "bass": 3786,
      "gain": 3787,
      "ibe": 3788,
      "ku": 3789,
      "mand": 3790,
      "mut": 3791,
      "pi": 3792,
      "omar": 3793,
      "necess": 3794,
      "poc": 3795,
      "letting": 3796,
      "process": 3797,
      "posting": 3798,
      "dykes": 3799,
      "similar": 3800,
      "failed": 3801,
      "product": 3802,
      "eastern": 3803,
      "intelligence": 3804,
      "hypocr": 3805,
      "pon": 3806,
      "enced": 3807,
      "arms": 3808,
      "bean": 3809,
      "provid": 3810,
      "moral": 3811,
      "wrote": 3812,
      "posted": 3813,
      "traitor": 3814,
      "placed": 3815,
      "status": 3816,
      "hatred": 3817,
      "bh": 3818,
      "gor": 3819,
      "rise": 3820,
      "lived": 3821,
      "kept": 3822,
      "ifying": 3823,
      "focus": 3824,
      "tured": 3825,
      "raping": 3826,
      "write": 3827,
      "dogs": 3828,
      "asylum": 3829,
      "citizenship": 3830,
      "aj": 3831,
      "ode": 3832,
      "ties": 3833,
      "associ": 3834,
      "loss": 3835,
      "bye": 3836,
      "evidence": 3837,
      "preach": 3838,
      "germans": 3839,
      "parliam": 3840,
      "missing": 3841,
      "prayer": 3842,
      "continues": 3843,
      "hundreds": 3844,
      "gent": 3845,
      "narr": 3846,
      "ore": 3847,
      "onto": 3848,
      "youve": 3849,
      "trip": 3850,
      "quar": 3851,
      "chris": 3852,
      "cult": 3853,
      "greece": 3854,
      "questions": 3855,
      "worthless": 3856,
      "itself": 3857,
      "abl": 3858,
      "clown": 3859,
      "particular": 3860,
      "listening": 3861,
      "named": 3862,
      "reasons": 3863,
      "weapons": 3864,
      "assholes": 3865,
      "66": 3866,
      "figh": 3867,
      "nuc": 3868,
      "var": 3869,
      "alp": 3870,
      "ilhan": 3871,
      "result": 3872,
      "akes": 3873,
      "prep": 3874,
      "rapist": 3875,
      "daddy": 3876,
      "parliament": 3877,
      "jab": 3878,
      "lou": 3879,
      "nes": 3880,
      "shits": 3881,
      "neg": 3882,
      "goat": 3883,
      "antis": 3884,
      "manager": 3885,
      "grad": 3886,
      "mary": 3887,
      "boris": 3888,
      "senate": 3889,
      "govt": 3890,
      "figure": 3891,
      "politicians": 3892,
      "movies": 3893,
      "88": 3894,
      "len": 3895,
      "swear": 3896,
      "ili": 3897,
      "track": 3898,
      "trade": 3899,
      "yours": 3900,
      "blind": 3901,
      "asses": 3902,
      "somebody": 3903,
      "anybody": 3904,
      "disrespect": 3905,
      "sexy": 3906,
      "values": 3907,
      "southern": 3908,
      "written": 3909,
      "style": 3910,
      "zero": 3911,
      "clim": 3912,
      "atul": 3913,
      "haps": 3914,
      "waste": 3915,
      "draw": 3916,
      "training": 3917,
      "above": 3918,
      "average": 3919,
      "greg": 3920,
      "pill": 3921,
      "pting": 3922,
      "iff": 3923,
      "extra": 3924,
      "athlet": 3925,
      "harm": 3926,
      "civilians": 3927,
      "popular": 3928,
      "considered": 3929,
      "nuclear": 3930,
      "info": 3931,
      "amount": 3932,
      "trou": 3933,
      "forum": 3934,
      "cancer": 3935,
      "perhaps": 3936,
      "talks": 3937,
      "awesome": 3938,
      "sucks": 3939,
      "ministry": 3940,
      "supremacists": 3941,
      "muzzies": 3942,
      "atheist": 3943,
      "revolution": 3944,
      "soccer": 3945,
      "ml": 3946,
      "ses": 3947,
      "sens": 3948,
      "yd": 3949,
      "lyn": 3950,
      "max": 3951,
      "brok": 3952,
      "hispanic": 3953,
      "yemen": 3954,
      "communist": 3955,
      "meaning": 3956,
      "atory": 3957,
      "punish": 3958,
      "champions": 3959,
      "alleged": 3960,
      "conflict": 3961,
      "bount": 3962,
      "eid": 3963,
      "rot": 3964,
      "taught": 3965,
      "formed": 3966,
      "blm": 3967,
      "boom": 3968,
      "spent": 3969,
      "proof": 3970,
      "mike": 3971,
      "holes": 3972,
      "foreigners": 3973,
      "regular": 3974,
      "bum": 3975,
      "jam": 3976,
      "mn": 3977,
      "pin": 3978,
      "rag": 3979,
      "chat": 3980,
      "bell": 3981,
      "cks": 3982,
      "note": 3983,
      "199": 3984,
      "study": 3985,
      "horrible": 3986,
      "multiple": 3987,
      "congratul": 3988,
      "lines": 3989,
      "rally": 3990,
      "wis": 3991,
      "thug": 3992,
      "enem": 3993,
      "ows": 3994,
      "ima": 3995,
      "wasn": 3996,
      "feet": 3997,
      "apolog": 3998,
      "saved": 3999,
      "matters": 4000,
      "potus": 4001,
      "bigger": 4002,
      "appear": 4003,
      "ease": 4004,
      "fish": 4005,
      "gs": 4006,
      "ister": 4007,
      "conference": 4008,
      "greatest": 4009,
      "purpose": 4010,
      "federal": 4011,
      "bounties": 4012,
      "zo": 4013,
      "icip": 4014,
      "trail": 4015,
      "upset": 4016,
      "enders": 4017,
      "apped": 4018,
      "detail": 4019,
      "currently": 4020,
      "bottom": 4021,
      "bun": 4022,
      "bred": 4023,
      "punch": 4024,
      "tight": 4025,
      "fuckers": 4026,
      "brand": 4027,
      "2000": 4028,
      "decision": 4029,
      "vision": 4030,
      "arabia": 4031,
      "wonderful": 4032,
      "economy": 4033,
      "muzzie": 4034,
      "spanish": 4035,
      "florida": 4036,
      "hig": 4037,
      "useless": 4038,
      "oty": 4039,
      "ads": 4040,
      "forms": 4041,
      "dems": 4042,
      "counts": 4043,
      "quit": 4044,
      "transphob": 4045,
      "turns": 4046,
      "flood": 4047,
      "economic": 4048,
      "enemies": 4049,
      "becoming": 4050,
      "antifa": 4051,
      "ational": 4052,
      "content": 4053,
      "defending": 4054,
      "sisters": 4055,
      "interested": 4056,
      "susp": 4057,
      "sharia": 4058,
      "coup": 4059,
      "toler": 4060,
      "enty": 4061,
      "dox": 4062,
      "assass": 4063,
      "otherwise": 4064,
      "scot": 4065,
      "churches": 4066,
      "century": 4067,
      "appening": 4068,
      "farm": 4069,
      "elected": 4070,
      "pastor": 4071,
      "district": 4072,
      "typical": 4073,
      "flee": 4074,
      "mol": 4075,
      "ica": 4076,
      "shout": 4077,
      "trial": 4078,
      "losing": 4079,
      "wanting": 4080,
      "embarr": 4081,
      "avoid": 4082,
      "terrible": 4083,
      "slap": 4084,
      "refuse": 4085,
      "hopefully": 4086,
      "channel": 4087,
      "europeans": 4088,
      "source": 4089,
      "ignore": 4090,
      "podcast": 4091,
      "3rd": 4092,
      "44": 4093,
      "uce": 4094,
      "leaving": 4095,
      "ets": 4096,
      "concen": 4097,
      "fem": 4098,
      "indust": 4099,
      "vile": 4100,
      "achie": 4101,
      "interview": 4102,
      "missed": 4103,
      "deter": 4104,
      "growing": 4105,
      "science": 4106,
      "ez": 4107,
      "lay": 4108,
      "wat": 4109,
      "dev": 4110,
      "soli": 4111,
      "exp": 4112,
      "grab": 4113,
      "paying": 4114,
      "master": 4115,
      "anni": 4116,
      "birthday": 4117,
      "australia": 4118,
      "december": 4119,
      "58": 4120,
      "sir": 4121,
      "below": 4122,
      "shed": 4123,
      "adop": 4124,
      "oppos": 4125,
      "wealth": 4126,
      "raise": 4127,
      "resist": 4128,
      "whoever": 4129,
      "sud": 4130,
      "pover": 4131,
      "whatsh": 4132,
      "events": 4133,
      "fags": 4134,
      "strict": 4135,
      "boyc": 4136,
      "feminism": 4137,
      "corrupt": 4138,
      "hic": 4139,
      "kam": 4140,
      "mic": 4141,
      "nba": 4142,
      "ured": 4143,
      "intr": 4144,
      "era": 4145,
      "unfortun": 4146,
      "scene": 4147,
      "mascul": 4148,
      "reminder": 4149,
      "fly": 4150,
      "mac": 4151,
      "lywood": 4152,
      "neu": 4153,
      "whos": 4154,
      "destru": 4155,
      "occup": 4156,
      "shoes": 4157,
      "fresh": 4158,
      "passed": 4159,
      "ibute": 4160,
      "google": 4161,
      "massacre": 4162,
      "dance": 4163,
      "hide": 4164,
      "mill": 4165,
      "snow": 4166,
      "tip": 4167,
      "tren": 4168,
      "yy": 4169,
      "yea": 4170,
      "everyday": 4171,
      "finish": 4172,
      "personally": 4173,
      "faces": 4174,
      "tweets": 4175,
      "believes": 4176,
      "embarrass": 4177,
      "dm": 4178,
      "fault": 4179,
      "loud": 4180,
      "yan": 4181,
      "chin": 4182,
      "ches": 4183,
      "iron": 4184,
      "aggress": 4185,
      "owned": 4186,
      "market": 4187,
      "helped": 4188,
      "related": 4189,
      "yrs": 4190,
      "broken": 4191,
      "whatshappening": 4192,
      "aus": 4193,
      "egy": 4194,
      "rate": 4195,
      "tall": 4196,
      "tough": 4197,
      "uel": 4198,
      "zone": 4199,
      "anger": 4200,
      "rev": 4201,
      "enge": 4202,
      "beating": 4203,
      "section": 4204,
      "eland": 4205,
      "agre": 4206,
      "herit": 4207,
      "click": 4208,
      "identify": 4209,
      "girlfriend": 4210,
      "somal": 4211,
      "bounty": 4212,
      "higher": 4213,
      "ium": 4214,
      "mun": 4215,
      "pac": 4216,
      "rif": 4217,
      "tast": 4218,
      "yer": 4219,
      "thom": 4220,
      "atl": 4221,
      "andal": 4222,
      "ares": 4223,
      "termin": 4224,
      "prin": 4225,
      "theyll": 4226,
      "guil": 4227,
      "perse": 4228,
      "learned": 4229,
      "earlier": 4230,
      "sending": 4231,
      "broad": 4232,
      "welfare": 4233,
      "natural": 4234,
      "lmfao": 4235,
      "lt": 4236,
      "insp": 4237,
      "deput": 4238,
      "avail": 4239,
      "ological": 4240,
      "hahahaha": 4241,
      "ridicul": 4242,
      "holding": 4243,
      "folk": 4244,
      "shirt": 4245,
      "immediately": 4246,
      "mate": 4247,
      "ching": 4248,
      "ado": 4249,
      "fraud": 4250,
      "modi": 4251,
      "bother": 4252,
      "invas": 4253,
      "compan": 4254,
      "dun": 4255,
      "heter": 4256,
      "aries": 4257,
      "ids": 4258,
      "emer": 4259,
      "scott": 4260,
      "parts": 4261,
      "island": 4262,
      "homeless": 4263,
      "openly": 4264,
      "critical": 4265,
      "physical": 4266,
      "sweden": 4267,
      "eve": 4268,
      "kat": 4269,
      "khan": 4270,
      "inde": 4271,
      "webs": 4272,
      "poland": 4273,
      "grew": 4274,
      "celebrating": 4275,
      "locked": 4276,
      "practice": 4277,
      "episode": 4278,
      "btw": 4279,
      "email": 4280,
      "fet": 4281,
      "gins": 4282,
      "mong": 4283,
      "nfl": 4284,
      "rare": 4285,
      "crash": 4286,
      "mens": 4287,
      "minute": 4288,
      "increas": 4289,
      "accident": 4290,
      "leading": 4291,
      "horny": 4292,
      "duty": 4293,
      "eliminate": 4294,
      "cunts": 4295,
      "kr": 4296,
      "pel": 4297,
      "haw": 4298,
      "plot": 4299,
      "keeping": 4300,
      "store": 4301,
      "washed": 4302,
      "egypt": 4303,
      "iter": 4304,
      "semit": 4305,
      "goals": 4306,
      "mozam": 4307,
      "appoint": 4308,
      "legend": 4309,
      "career": 4310,
      "incident": 4311,
      "visibility": 4312,
      "solution": 4313,
      "student": 4314,
      "author": 4315,
      "conversation": 4316,
      "nell": 4317,
      "tl": 4318,
      "vy": 4319,
      "thes": 4320,
      "itarian": 4321,
      "frank": 4322,
      "esty": 4323,
      "spend": 4324,
      "rocket": 4325,
      "197": 4326,
      "harris": 4327,
      "opening": 4328,
      "nature": 4329,
      "sitting": 4330,
      "refere": 4331,
      "spring": 4332,
      "appreciate": 4333,
      "guilty": 4334,
      "bare": 4335,
      "cash": 4336,
      "larg": 4337,
      "oil": 4338,
      "review": 4339,
      "outs": 4340,
      "myth": 4341,
      "boss": 4342,
      "hoax": 4343,
      "angers": 4344,
      "hello": 4345,
      "norm": 4346,
      "1000": 4347,
      "leadership": 4348,
      "thodox": 4349,
      "dollars": 4350,
      "argument": 4351,
      "available": 4352,
      "bath": 4353,
      "dict": 4354,
      "fash": 4355,
      "hall": 4356,
      "rick": 4357,
      "stab": 4358,
      "update": 4359,
      "doz": 4360,
      "resour": 4361,
      "brid": 4362,
      "somehow": 4363,
      "desper": 4364,
      "riot": 4365,
      "races": 4366,
      "nyc": 4367,
      "writing": 4368,
      "retards": 4369,
      "barbar": 4370,
      "handle": 4371,
      "freak": 4372,
      "instit": 4373,
      "aids": 4374,
      "vince": 4375,
      "constantly": 4376,
      "william": 4377,
      "sudden": 4378,
      "gur": 4379,
      "orthodox": 4380,
      "establ": 4381,
      "excl": 4382,
      "sper": 4383,
      "serve": 4384,
      "decades": 4385,
      "voter": 4386,
      "claimed": 4387,
      "continu": 4388,
      "beaten": 4389,
      "romans": 4390,
      "neighborhood": 4391,
      "34": 4392,
      "bapt": 4393,
      "fab": 4394,
      "nom": 4395,
      "pink": 4396,
      "asure": 4397,
      "sher": 4398,
      "notice": 4399,
      "subs": 4400,
      "worked": 4401,
      "effort": 4402,
      "conservatives": 4403,
      "extremely": 4404,
      "annoying": 4405,
      "symbol": 4406,
      "narrative": 4407,
      "cens": 4408,
      "thick": 4409,
      "allies": 4410,
      "sequ": 4411,
      "proph": 4412,
      "comed": 4413,
      "cook": 4414,
      "astic": 4415,
      "clint": 4416,
      "spic": 4417,
      "feelings": 4418,
      "dying": 4419,
      "potential": 4420,
      "private": 4421,
      "suffering": 4422,
      "surviv": 4423,
      "attracted": 4424,
      "original": 4425,
      "deputy": 4426,
      "55": 4427,
      "fought": 4428,
      "hits": 4429,
      "pow": 4430,
      "pence": 4431,
      "tiny": 4432,
      "vag": 4433,
      "stren": 4434,
      "bear": 4435,
      "keys": 4436,
      "abc": 4437,
      "terms": 4438,
      "hateful": 4439,
      "plays": 4440,
      "strate": 4441,
      "woke": 4442,
      "pushing": 4443,
      "doctor": 4444,
      "strike": 4445,
      "techn": 4446,
      "daw": 4447,
      "hab": 4448,
      "jr": 4449,
      "knock": 4450,
      "lam": 4451,
      "inity": 4452,
      "iced": 4453,
      "uries": 4454,
      "weve": 4455,
      "pra": 4456,
      "whores": 4457,
      "cros": 4458,
      "198": 4459,
      "particip": 4460,
      "rapists": 4461,
      "protes": 4462,
      "binary": 4463,
      "received": 4464,
      "confirmed": 4465,
      "ridiculous": 4466,
      "hour": 4467,
      "matt": 4468,
      "tens": 4469,
      "uction": 4470,
      "wound": 4471,
      "inner": 4472,
      "agram": 4473,
      "illness": 4474,
      "depart": 4475,
      "neither": 4476,
      "cro": 4477,
      "perpe": 4478,
      "attacking": 4479,
      "insur": 4480,
      "struct": 4481,
      "fund": 4482,
      "kikes": 4483,
      "italy": 4484,
      "pieces": 4485,
      "peaceful": 4486,
      "teacher": 4487,
      "drugs": 4488,
      "debate": 4489,
      "behavior": 4490,
      "opportunity": 4491,
      "dig": 4492,
      "jor": 4493,
      "nak": 4494,
      "inmyanmar": 4495,
      "traff": 4496,
      "somewhere": 4497,
      "disease": 4498,
      "keeps": 4499,
      "caused": 4500,
      "easier": 4501,
      "blessed": 4502,
      "characters": 4503,
      "targeted": 4504,
      "lucky": 4505,
      "emotional": 4506,
      "motiv": 4507,
      "astraz": 4508,
      "poverty": 4509,
      "bour": 4510,
      "nc": 4511,
      "pts": 4512,
      "ror": 4513,
      "sides": 4514,
      "remove": 4515,
      "iti": 4516,
      "itude": 4517,
      "chair": 4518,
      "ota": 4519,
      "prise": 4520,
      "evangel": 4521,
      "ports": 4522,
      "jected": 4523,
      "poll": 4524,
      "legisl": 4525,
      "illegally": 4526,
      "decide": 4527,
      "propri": 4528,
      "meeting": 4529,
      "concentration": 4530,
      "streng": 4531,
      "bts": 4532,
      "beta": 4533,
      "ador": 4534,
      "older": 4535,
      "imani": 4536,
      "ideology": 4537,
      "grade": 4538,
      "genu": 4539,
      "starts": 4540,
      "mile": 4541,
      "mich": 4542,
      "humanrights": 4543,
      "destroying": 4544,
      "pression": 4545,
      "cuckold": 4546,
      "ancestors": 4547,
      "brutal": 4548,
      "zionist": 4549,
      "congratulations": 4550,
      "invasion": 4551,
      "hob": 4552,
      "pup": 4553,
      "path": 4554,
      "pls": 4555,
      "assist": 4556,
      "mayor": 4557,
      "showed": 4558,
      "shootings": 4559,
      "fired": 4560,
      "www": 4561,
      "mozambi": 4562,
      "astrazene": 4563,
      "itors": 4564,
      "lower": 4565,
      "ti": 4566,
      "table": 4567,
      "yed": 4568,
      "anci": 4569,
      "ara": 4570,
      "youd": 4571,
      "peach": 4572,
      "plans": 4573,
      "offer": 4574,
      "qui": 4575,
      "muham": 4576,
      "versary": 4577,
      "roman": 4578,
      "palestine": 4579,
      "policies": 4580,
      "certainly": 4581,
      "palestinian": 4582,
      "antisem": 4583,
      "climate": 4584,
      "cous": 4585,
      "py": 4586,
      "replace": 4587,
      "bles": 4588,
      "seek": 4589,
      "legends": 4590,
      "islamophob": 4591,
      "bodies": 4592,
      "vices": 4593,
      "diffic": 4594,
      "alien": 4595,
      "division": 4596,
      "laughing": 4597,
      "condemn": 4598,
      "challenge": 4599,
      "degenerate": 4600,
      "difficult": 4601,
      "47": 4602,
      "hip": 4603,
      "pit": 4604,
      "pound": 4605,
      "rr": 4606,
      "sea": 4607,
      "upd": 4608,
      "core": 4609,
      "legit": 4610,
      "talib": 4611,
      "turning": 4612,
      "coward": 4613,
      "authorities": 4614,
      "spiritual": 4615,
      "bastard": 4616,
      "heritage": 4617,
      "bjp": 4618,
      "nick": 4619,
      "ox": 4620,
      "ride": 4621,
      "inbred": 4622,
      "tran": 4623,
      "ung": 4624,
      "outta": 4625,
      "assaul": 4626,
      "shots": 4627,
      "enews": 4628,
      "brave": 4629,
      "mothers": 4630,
      "secure": 4631,
      "accepted": 4632,
      "penis": 4633,
      "homosexuality": 4634,
      "relationships": 4635,
      "tournam": 4636,
      "japanese": 4637,
      "alpha": 4638,
      "mozambique": 4639,
      "ape": 4640,
      "fits": 4641,
      "jay": 4642,
      "leban": 4643,
      "whom": 4644,
      "veter": 4645,
      "tryna": 4646,
      "playoff": 4647,
      "provide": 4648,
      "morons": 4649,
      "victory": 4650,
      "pressed": 4651,
      "although": 4652,
      "respond": 4653,
      "huh": 4654,
      "animal": 4655,
      "camer": 4656,
      "fb": 4657,
      "stit": 4658,
      "beach": 4659,
      "febr": 4660,
      "appropri": 4661,
      "attend": 4662,
      "scar": 4663,
      "learning": 4664,
      "steve": 4665,
      "boyfriend": 4666,
      "collect": 4667,
      "bombing": 4668,
      "score": 4669,
      "georgia": 4670,
      "destruction": 4671,
      "jac": 4672,
      "nik": 4673,
      "silly": 4674,
      "stan": 4675,
      "stal": 4676,
      "meat": 4677,
      "auto": 4678,
      "bling": 4679,
      "2016": 4680,
      "warning": 4681,
      "hearing": 4682,
      "pictures": 4683,
      "director": 4684,
      "floyd": 4685,
      "hillary": 4686,
      "witness": 4687,
      "azerbaijanis": 4688,
      "beginning": 4689,
      "paper": 4690,
      "soft": 4691,
      "unfortunately": 4692,
      "referee": 4693,
      "gap": 4694,
      "sab": 4695,
      "tun": 4696,
      "vation": 4697,
      "vice": 4698,
      "reply": 4699,
      "iled": 4700,
      "seven": 4701,
      "model": 4702,
      "letter": 4703,
      "sexist": 4704,
      "basic": 4705,
      "lands": 4706,
      "plane": 4707,
      "sissy": 4708,
      "expected": 4709,
      "spreading": 4710,
      "organization": 4711,
      "neutral": 4712,
      "february": 4713,
      "48": 4714,
      "dest": 4715,
      "mt": 4716,
      "nar": 4717,
      "infr": 4718,
      "inte": 4719,
      "shel": 4720,
      "results": 4721,
      "fected": 4722,
      "herself": 4723,
      "ideas": 4724,
      "anywhere": 4725,
      "disgrace": 4726,
      "todays": 4727,
      "incred": 4728,
      "stein": 4729,
      "ooo": 4730,
      "hollywood": 4731,
      "controll": 4732,
      "prayers": 4733,
      "gging": 4734,
      "investigation": 4735,
      "insult": 4736,
      "anniversary": 4737,
      "boycott": 4738,
      "fashion": 4739,
      "gut": 4740,
      "ras": 4741,
      "tes": 4742,
      "reject": 4743,
      "ami": 4744,
      "deliver": 4745,
      "antic": 4746,
      "plenty": 4747,
      "cture": 4748,
      "akh": 4749,
      "spit": 4750,
      "lah": 4751,
      "finding": 4752,
      "senior": 4753,
      "superior": 4754,
      "treatment": 4755,
      "instagram": 4756,
      "75": 4757,
      "sins": 4758,
      "acce": 4759,
      "shi": 4760,
      "neo": 4761,
      "seeking": 4762,
      "insane": 4763,
      "blog": 4764,
      "allowing": 4765,
      "speaks": 4766,
      "strikes": 4767,
      "giants": 4768,
      "scient": 4769,
      "weapon": 4770,
      "iy": 4771,
      "nons": 4772,
      "rant": 4773,
      "rod": 4774,
      "esp": 4775,
      "otic": 4776,
      "tray": 4777,
      "arts": 4778,
      "knowledge": 4779,
      "northern": 4780,
      "domin": 4781,
      "claiming": 4782,
      "sanders": 4783,
      "armenians": 4784,
      "kicked": 4785,
      "responsibility": 4786,
      "rainbow": 4787,
      "henry": 4788,
      "screen": 4789,
      "outrage": 4790,
      "ancient": 4791,
      "wards": 4792,
      "areas": 4793,
      "rah": 4794,
      "ultim": 4795,
      "warri": 4796,
      "marx": 4797,
      "rog": 4798,
      "leftist": 4799,
      "governor": 4800,
      "paki": 4801,
      "italian": 4802,
      "tommy": 4803,
      "eventually": 4804,
      "scrip": 4805,
      "persecut": 4806,
      "website": 4807,
      "clinton": 4808,
      "aur": 4809,
      "bah": 4810,
      "cia": 4811,
      "knight": 4812,
      "tend": 4813,
      "arily": 4814,
      "usual": 4815,
      "concept": 4816,
      "sudan": 4817,
      "grant": 4818,
      "object": 4819,
      "embr": 4820,
      "evening": 4821,
      "released": 4822,
      "silent": 4823,
      "soleimani": 4824,
      "necessary": 4825,
      "38": 4826,
      "gol": 4827,
      "hing": 4828,
      "kim": 4829,
      "removed": 4830,
      "alter": 4831,
      "staff": 4832,
      "sham": 4833,
      "princ": 4834,
      "whenever": 4835,
      "sake": 4836,
      "affir": 4837,
      "shove": 4838,
      "supports": 4839,
      "ships": 4840,
      "healthy": 4841,
      "crush": 4842,
      "impact": 4843,
      "bust": 4844,
      "jose": 4845,
      "qur": 4846,
      "tat": 4847,
      "vant": 4848,
      "argu": 4849,
      "stars": 4850,
      "ils": 4851,
      "idlib": 4852,
      "abused": 4853,
      "worried": 4854,
      "exposed": 4855,
      "hoo": 4856,
      "ibes": 4857,
      "empower": 4858,
      "ensla": 4859,
      "medic": 4860,
      "transition": 4861,
      "burg": 4862,
      "settle": 4863,
      "highlight": 4864,
      "toward": 4865,
      "compared": 4866,
      "busy": 4867,
      "jihadi": 4868,
      "hoping": 4869,
      "pigs": 4870,
      "ather": 4871,
      "mf": 4872,
      "thir": 4873,
      "thier": 4874,
      "ancy": 4875,
      "isa": 4876,
      "illi": 4877,
      "image": 4878,
      "compl": 4879,
      "twice": 4880,
      "transl": 4881,
      "bidens": 4882,
      "meanwhile": 4883,
      "bombs": 4884,
      "hearts": 4885,
      "threats": 4886,
      "acceptable": 4887,
      "protests": 4888,
      "concerned": 4889,
      "approach": 4890,
      "whatshappeninginmyanmar": 4891,
      "astrazeneca": 4892,
      "integr": 4893,
      "ored": 4894,
      "pc": 4895,
      "rou": 4896,
      "udes": 4897,
      "aster": 4898,
      "agan": 4899,
      "plant": 4900,
      "active": 4901,
      "grown": 4902,
      "hook": 4903,
      "muz": 4904,
      "services": 4905,
      "sexually": 4906,
      "stands": 4907,
      "surprise": 4908,
      "promote": 4909,
      "teachers": 4910,
      "gangs": 4911,
      "pedophile": 4912,
      "announced": 4913,
      "struggle": 4914,
      "candidate": 4915,
      "tournament": 4916,
      "bby": 4917,
      "rey": 4918,
      "accounts": 4919,
      "amid": 4920,
      "pete": 4921,
      "ously": 4922,
      "pressure": 4923,
      "symp": 4924,
      "drunk": 4925,
      "parade": 4926,
      "smith": 4927,
      "cyber": 4928,
      "easily": 4929,
      "advice": 4930,
      "palestinians": 4931,
      "industry": 4932,
      "companies": 4933,
      "cab": 4934,
      "jones": 4935,
      "moun": 4936,
      "ov": 4937,
      "rats": 4938,
      "asing": 4939,
      "stage": 4940,
      "ilities": 4941,
      "ental": 4942,
      "pron": 4943,
      "register": 4944,
      "murdering": 4945,
      "merkel": 4946,
      "july": 4947,
      "definition": 4948,
      "existence": 4949,
      "release": 4950,
      "representation": 4951,
      "misogyn": 4952,
      "trouble": 4953,
      "bish": 4954,
      "lame": 4955,
      "thus": 4956,
      "tool": 4957,
      "edge": 4958,
      "stere": 4959,
      "shell": 4960,
      "conspir": 4961,
      "poison": 4962,
      "offensive": 4963,
      "selling": 4964,
      "izes": 4965,
      "robert": 4966,
      "polls": 4967,
      "sinners": 4968,
      "passing": 4969,
      "taxes": 4970,
      "challeng": 4971,
      "houses": 4972,
      "resources": 4973,
      "prophet": 4974,
      "taliban": 4975,
      "39": 4976,
      "dd": 4977,
      "dare": 4978,
      "ix": 4979,
      "uh": 4980,
      "inf": 4981,
      "chill": 4982,
      "impeach": 4983,
      "entit": 4984,
      "uma": 4985,
      "bright": 4986,
      "quot": 4987,
      "legally": 4988,
      "cular": 4989,
      "findom": 4990,
      "jokes": 4991,
      "details": 4992,
      "muhammad": 4993,
      "lic": 4994,
      "liked": 4995,
      "sover": 4996,
      "holi": 4997,
      "dram": 4998,
      "previous": 4999,
      "funding": 5000,
      "highest": 5001,
      "value": 5002,
      "wondering": 5003,
      "orders": 5004,
      "confused": 5005,
      "gather": 5006,
      "connect": 5007,
      "bruh": 5008,
      "accepting": 5009,
      "69": 5010,
      "77": 5011,
      "bought": 5012,
      "fbi": 5013,
      "hib": 5014,
      "pil": 5015,
      "pitch": 5016,
      "sold": 5017,
      "voc": 5018,
      "orient": 5019,
      "orange": 5020,
      "asia": 5021,
      "astru": 5022,
      "ched": 5023,
      "blast": 5024,
      "artist": 5025,
      "obsess": 5026,
      "anyways": 5027,
      "torture": 5028,
      "disagree": 5029,
      "lazy": 5030,
      "perfor": 5031,
      "athy": 5032,
      "moms": 5033,
      "subject": 5034,
      "understanding": 5035,
      "corona": 5036,
      "checks": 5037,
      "fathers": 5038,
      "nuts": 5039,
      "infrastru": 5040,
      "ae": 5041,
      "aoc": 5042,
      "fle": 5043,
      "ires": 5044,
      "kh": 5045,
      "kay": 5046,
      "mum": 5047,
      "och": 5048,
      "stfu": 5049,
      "beast": 5050,
      "forcing": 5051,
      "fron": 5052,
      "justin": 5053,
      "therefore": 5054,
      "corpor": 5055,
      "fled": 5056,
      "thrown": 5057,
      "contact": 5058,
      "uced": 5059,
      "include": 5060,
      "excell": 5061,
      "drinking": 5062,
      "data": 5063,
      "korea": 5064,
      "achieve": 5065,
      "protesters": 5066,
      "dh": 5067,
      "rn": 5068,
      "sons": 5069,
      "zil": 5070,
      "trick": 5071,
      "compar": 5072,
      "noon": 5073,
      "offended": 5074,
      "realized": 5075,
      "finan": 5076,
      "famous": 5077,
      "headed": 5078,
      "cheap": 5079,
      "civilization": 5080,
      "ification": 5081,
      "throwing": 5082,
      "cowards": 5083,
      "supporter": 5084,
      "silence": 5085,
      "kurdistan": 5086,
      "crowd": 5087,
      "credit": 5088,
      "traditional": 5089,
      "trailer": 5090,
      "introd": 5091,
      "indeed": 5092,
      "quiet": 5093,
      "bie": 5094,
      "pd": 5095,
      "uu": 5096,
      "ined": 5097,
      "inely": 5098,
      "defe": 5099,
      "resign": 5100,
      "quote": 5101,
      "supreme": 5102,
      "ission": 5103,
      "catholics": 5104,
      "younger": 5105,
      "craft": 5106,
      "excited": 5107,
      "opinions": 5108,
      "attractive": 5109,
      "independent": 5110,
      "sjw": 5111,
      "taste": 5112,
      "infrastructure": 5113,
      "300": 5114,
      "mam": 5115,
      "sight": 5116,
      "sik": 5117,
      "reck": 5118,
      "becomes": 5119,
      "decent": 5120,
      "anta": 5121,
      "convic": 5122,
      "redneck": 5123,
      "topic": 5124,
      "decade": 5125,
      "minds": 5126,
      "promise": 5127,
      "advant": 5128,
      "soldier": 5129,
      "wedding": 5130,
      "logic": 5131,
      "stereoty": 5132,
      "gul": 5133,
      "kent": 5134,
      "zi": 5135,
      "‍‍": 5136,
      "tha": 5137,
      "ita": 5138,
      "icted": 5139,
      "opposition": 5140,
      "assume": 5141,
      "apol": 5142,
      "syn": 5143,
      "charges": 5144,
      "shooter": 5145,
      "livesmatter": 5146,
      "stock": 5147,
      "network": 5148,
      "regarding": 5149,
      "oppressed": 5150,
      "invaders": 5151,
      "finger": 5152,
      "constitution": 5153,
      "nonsense": 5154,
      "iority": 5155,
      "rhe": 5156,
      "rough": 5157,
      "vinc": 5158,
      "inspir": 5159,
      "icon": 5160,
      "theyve": 5161,
      "heal": 5162,
      "consequ": 5163,
      "cric": 5164,
      "ains": 5165,
      "choke": 5166,
      "cultures": 5167,
      "courage": 5168,
      "contribut": 5169,
      "talked": 5170,
      "clothes": 5171,
      "feminine": 5172,
      "creating": 5173,
      "possibly": 5174,
      "penal": 5175,
      "changes": 5176,
      "relevant": 5177,
      "kurdish": 5178,
      "antisemit": 5179,
      "36": 5180,
      "bash": 5181,
      "cies": 5182,
      "fw": 5183,
      "kan": 5184,
      "tik": 5185,
      "thurs": 5186,
      "reaction": 5187,
      "actors": 5188,
      "ags": 5189,
      "lover": 5190,
      "weight": 5191,
      "raw": 5192,
      "resident": 5193,
      "gross": 5194,
      "ivity": 5195,
      "boring": 5196,
      "supported": 5197,
      "smell": 5198,
      "award": 5199,
      "awful": 5200,
      "opened": 5201,
      "closet": 5202,
      "pair": 5203,
      "believer": 5204,
      "sharing": 5205,
      "losers": 5206,
      "wolf": 5207,
      "entertain": 5208,
      "individuals": 5209,
      "platform": 5210,
      "400": 5211,
      "cs": 5212,
      "driver": 5213,
      "kir": 5214,
      "thot": 5215,
      "ining": 5216,
      "recru": 5217,
      "itals": 5218,
      "goy": 5219,
      "russians": 5220,
      "cape": 5221,
      "protection": 5222,
      "teaching": 5223,
      "changing": 5224,
      "village": 5225,
      "operation": 5226,
      "wipe": 5227,
      "machine": 5228,
      "37": 5229,
      "apo": 5230,
      "cod": 5231,
      "cats": 5232,
      "rank": 5233,
      "tong": 5234,
      "tbh": 5235,
      "theory": 5236,
      "restrict": 5237,
      "stuck": 5238,
      "sees": 5239,
      "moon": 5240,
      "ifically": 5241,
      "ustr": 5242,
      "ained": 5243,
      "cler": 5244,
      "tele": 5245,
      "royal": 5246,
      "polish": 5247,
      "drama": 5248,
      "kidn": 5249,
      "context": 5250,
      "propos": 5251,
      "included": 5252,
      "canadian": 5253,
      "doctors": 5254,
      "specific": 5255,
      "benefit": 5256,
      "ethiopia": 5257,
      "louis": 5258,
      "negative": 5259,
      "bound": 5260,
      "cate": 5261,
      "gard": 5262,
      "genders": 5263,
      "rease": 5264,
      "lete": 5265,
      "vey": 5266,
      "utter": 5267,
      "meth": 5268,
      "rapp": 5269,
      "indones": 5270,
      "2018": 5271,
      "izations": 5272,
      "ashamed": 5273,
      "speed": 5274,
      "azi": 5275,
      "carl": 5276,
      "closed": 5277,
      "extreme": 5278,
      "beauty": 5279,
      "facing": 5280,
      "survive": 5281,
      "june": 5282,
      "awareness": 5283,
      "injury": 5284,
      "opposite": 5285,
      "strength": 5286,
      "performan": 5287,
      "hug": 5288,
      "ich": 5289,
      "kins": 5290,
      "ray": 5291,
      "icated": 5292,
      "libt": 5293,
      "mock": 5294,
      "therap": 5295,
      "ateful": 5296,
      "josh": 5297,
      "served": 5298,
      "footballer": 5299,
      "milk": 5300,
      "helps": 5301,
      "barak": 5302,
      "praying": 5303,
      "sentence": 5304,
      "songs": 5305,
      "property": 5306,
      "pedophiles": 5307,
      "successful": 5308,
      "professional": 5309,
      "promoting": 5310,
      "thomas": 5311,
      "pronoun": 5312,
      "jen": 5313,
      "mitch": 5314,
      "rash": 5315,
      "tay": 5316,
      "adult": 5317,
      "agency": 5318,
      "code": 5319,
      "ques": 5320,
      "afford": 5321,
      "legs": 5322,
      "download": 5323,
      "flow": 5324,
      "standards": 5325,
      "syrians": 5326,
      "victor": 5327,
      "throughout": 5328,
      "reporting": 5329,
      "healthcare": 5330,
      "custo": 5331,
      "giant": 5332,
      "empire": 5333,
      "virginia": 5334,
      "distur": 5335,
      "46": 5336,
      "ek": 5337,
      "gift": 5338,
      "nur": 5339,
      "wrest": 5340,
      "ert": 5341,
      "amy": 5342,
      "aman": 5343,
      "amen": 5344,
      "shah": 5345,
      "abt": 5346,
      "myster": 5347,
      "conver": 5348,
      "blon": 5349,
      "bern": 5350,
      "grateful": 5351,
      "warren": 5352,
      "background": 5353,
      "prostit": 5354,
      "friendly": 5355,
      "mater": 5356,
      "harry": 5357,
      "nationalists": 5358,
      "filip": 5359,
      "engine": 5360,
      "viron": 5361,
      "joined": 5362,
      "werent": 5363,
      "historical": 5364,
      "shocking": 5365,
      "department": 5366,
      "jordan": 5367,
      "quran": 5368,
      "text": 5369,
      "rection": 5370,
      "repor": 5371,
      "chant": 5372,
      "beth": 5373,
      "lift": 5374,
      "truck": 5375,
      "eline": 5376,
      "terri": 5377,
      "defeat": 5378,
      "sodom": 5379,
      "convert": 5380,
      "convinc": 5381,
      "marks": 5382,
      "laid": 5383,
      "twist": 5384,
      "msm": 5385,
      "presidential": 5386,
      "leads": 5387,
      "burning": 5388,
      "horse": 5389,
      "moslems": 5390,
      "masks": 5391,
      "petition": 5392,
      "experiences": 5393,
      "amazon": 5394,
      "abortions": 5395,
      "activist": 5396,
      "brutality": 5397,
      "complex": 5398,
      "labor": 5399,
      "bastards": 5400,
      "directly": 5401,
      "fascist": 5402,
      "somalia": 5403,
      "inspired": 5404,
      "tranny": 5405,
      "500": 5406,
      "dul": 5407,
      "ule": 5408,
      "environ": 5409,
      "alot": 5410,
      "shark": 5411,
      "abled": 5412,
      "gotten": 5413,
      "mubarak": 5414,
      "finished": 5415,
      "ademy": 5416,
      "receive": 5417,
      "mentioned": 5418,
      "wolves": 5419,
      "francis": 5420,
      "influence": 5421,
      "triggered": 5422,
      "quarter": 5423,
      "scotland": 5424,
      "semitic": 5425,
      "dozens": 5426,
      "gf": 5427,
      "rug": 5428,
      "vene": 5429,
      "xit": 5430,
      "thy": 5431,
      "recomm": 5432,
      "isation": 5433,
      "oring": 5434,
      "asp": 5435,
      "academy": 5436,
      "liar": 5437,
      "forts": 5438,
      "agon": 5439,
      "gosp": 5440,
      "complic": 5441,
      "nose": 5442,
      "ansas": 5443,
      "mont": 5444,
      "personality": 5445,
      "captain": 5446,
      "planning": 5447,
      "forming": 5448,
      "nato": 5449,
      "threatened": 5450,
      "thousand": 5451,
      "photos": 5452,
      "congrats": 5453,
      "labour": 5454,
      "slide": 5455,
      "penalty": 5456,
      "thursday": 5457,
      "cd": 5458,
      "pard": 5459,
      "relat": 5460,
      "secon": 5461,
      "tribute": 5462,
      "nove": 5463,
      "manip": 5464,
      "iah": 5465,
      "assum": 5466,
      "cancel": 5467,
      "hispan": 5468,
      "tee": 5469,
      "gency": 5470,
      "smash": 5471,
      "freely": 5472,
      "added": 5473,
      "creep": 5474,
      "breeding": 5475,
      "employe": 5476,
      "traffick": 5477,
      "43": 5478,
      "hated": 5479,
      "hilar": 5480,
      "jah": 5481,
      "tack": 5482,
      "tie": 5483,
      "uy": 5484,
      "wave": 5485,
      "tok": 5486,
      "shad": 5487,
      "elite": 5488,
      "loyal": 5489,
      "hasnt": 5490,
      "worlds": 5491,
      "gene": 5492,
      "pton": 5493,
      "bloody": 5494,
      "archy": 5495,
      "signed": 5496,
      "joebiden": 5497,
      "richard": 5498,
      "bowl": 5499,
      "kurds": 5500,
      "stealing": 5501,
      "housing": 5502,
      "slowly": 5503,
      "screaming": 5504,
      "52": 5505,
      "dna": 5506,
      "lun": 5507,
      "trum": 5508,
      "acknow": 5509,
      "connell": 5510,
      "exists": 5511,
      "extermin": 5512,
      "spell": 5513,
      "commission": 5514,
      "deadly": 5515,
      "strip": 5516,
      "keeper": 5517,
      "nationalism": 5518,
      "surround": 5519,
      "mighty": 5520,
      "stole": 5521,
      "faced": 5522,
      "univers": 5523,
      "kashmiri": 5524,
      "discussion": 5525,
      "types": 5526,
      "document": 5527,
      "baptist": 5528,
      "rhetor": 5529,
      "aves": 5530,
      "iam": 5531,
      "ius": 5532,
      "mates": 5533,
      "pope": 5534,
      "sack": 5535,
      "tas": 5536,
      "til": 5537,
      "tact": 5538,
      "station": 5539,
      "lips": 5540,
      "igen": 5541,
      "uncle": 5542,
      "donate": 5543,
      "tears": 5544,
      "jeff": 5545,
      "lette": 5546,
      "driving": 5547,
      "afternoon": 5548,
      "flat": 5549,
      "slur": 5550,
      "regional": 5551,
      "solve": 5552,
      "leftists": 5553,
      "caa": 5554,
      "generally": 5555,
      "elections": 5556,
      "sadly": 5557,
      "hunter": 5558,
      "lockdown": 5559,
      "blocked": 5560,
      "activists": 5561,
      "golden": 5562,
      "mountain": 5563,
      "entitled": 5564,
      "49": 5565,
      "fla": 5566,
      "kj": 5567,
      "qas": 5568,
      "tre": 5569,
      "vp": 5570,
      "oul": 5571,
      "toi": 5572,
      "stad": 5573,
      "secular": 5574,
      "shown": 5575,
      "agers": 5576,
      "utd": 5577,
      "dey": 5578,
      "meme": 5579,
      "combat": 5580,
      "ourselves": 5581,
      "evol": 5582,
      "monkey": 5583,
      "osi": 5584,
      "apply": 5585,
      "pretend": 5586,
      "mcconnell": 5587,
      "nuke": 5588,
      "nigerian": 5589,
      "kkk": 5590,
      "oppression": 5591,
      "31marchgenocide": 5592,
      "ilhanmn": 5593,
      "agreed": 5594,
      "suddenly": 5595,
      "gospel": 5596,
      "seconds": 5597,
      "hispanics": 5598,
      "nis": 5599,
      "qa": 5600,
      "tree": 5601,
      "unlike": 5602,
      "mod": 5603,
      "yourselves": 5604,
      "dayof": 5605,
      "foc": 5606,
      "berlin": 5607,
      "owner": 5608,
      "root": 5609,
      "kingdom": 5610,
      "bloom": 5611,
      "planned": 5612,
      "consist": 5613,
      "traitors": 5614,
      "bills": 5615,
      "andgtandgt": 5616,
      "sweat": 5617,
      "fetish": 5618,
      "establish": 5619,
      "bishop": 5620,
      "dj": 5621,
      "hunt": 5622,
      "pics": 5623,
      "spl": 5624,
      "yi": 5625,
      "alli": 5626,
      "aring": 5627,
      "aces": 5628,
      "peter": 5629,
      "deau": 5630,
      "height": 5631,
      "condu": 5632,
      "blaming": 5633,
      "muse": 5634,
      "scen": 5635,
      "serving": 5636,
      "turks": 5637,
      "bush": 5638,
      "buying": 5639,
      "standard": 5640,
      "murderer": 5641,
      "runs": 5642,
      "covering": 5643,
      "cucks": 5644,
      "draft": 5645,
      "sanct": 5646,
      "considering": 5647,
      "eeee": 5648,
      "ignorance": 5649,
      "jackson": 5650,
      "specifically": 5651,
      "genuinely": 5652,
      "hilarious": 5653,
      "pump": 5654,
      "pants": 5655,
      "rit": 5656,
      "sau": 5657,
      "saint": 5658,
      "tin": 5659,
      "tam": 5660,
      "ugh": 5661,
      "isy": 5662,
      "trated": 5663,
      "advis": 5664,
      "imma": 5665,
      "prose": 5666,
      "prior": 5667,
      "boston": 5668,
      "tea": 5669,
      "attitude": 5670,
      "affect": 5671,
      "rohing": 5672,
      "kings": 5673,
      "genet": 5674,
      "firm": 5675,
      "stupidity": 5676,
      "greater": 5677,
      "increase": 5678,
      "euro": 5679,
      "governments": 5680,
      "rush": 5681,
      "minded": 5682,
      "dogan": 5683,
      "steps": 5684,
      "argue": 5685,
      "ghana": 5686,
      "physically": 5687,
      "mulan": 5688,
      "dor": 5689,
      "lap": 5690,
      "pse": 5691,
      "rig": 5692,
      "ries": 5693,
      "sne": 5694,
      "enforce": 5695,
      "alab": 5696,
      "shap": 5697,
      "crip": 5698,
      "yep": 5699,
      "owners": 5700,
      "embass": 5701,
      "occur": 5702,
      "homeland": 5703,
      "apping": 5704,
      "cocks": 5705,
      "pretending": 5706,
      "elect": 5707,
      "efforts": 5708,
      "lilnas": 5709,
      "doctr": 5710,
      "officially": 5711,
      "pissed": 5712,
      "intelligent": 5713,
      "fleeing": 5714,
      "heterosexual": 5715,
      "largest": 5716,
      "desperate": 5717,
      "islamophobia": 5718,
      "conspiracy": 5719,
      "november": 5720,
      "41": 5721,
      "bart": 5722,
      "dil": 5723,
      "gam": 5724,
      "sf": 5725,
      "sr": 5726,
      "inating": 5727,
      "rein": 5728,
      "leeds": 5729,
      "stig": 5730,
      "sters": 5731,
      "omo": 5732,
      "chap": 5733,
      "icy": 5734,
      "ionally": 5735,
      "elder": 5736,
      "price": 5737,
      "fee": 5738,
      "presents": 5739,
      "desc": 5740,
      "command": 5741,
      "migrant": 5742,
      "persons": 5743,
      "slam": 5744,
      "thru": 5745,
      "finds": 5746,
      "ukrain": 5747,
      "relate": 5748,
      "gym": 5749,
      "magic": 5750,
      "breaks": 5751,
      "dreams": 5752,
      "jerk": 5753,
      "flix": 5754,
      "fighters": 5755,
      "fabric": 5756,
      "rhetoric": 5757,
      "911": 5758,
      "dess": 5759,
      "kl": 5760,
      "mg": 5761,
      "pes": 5762,
      "vest": 5763,
      "zar": 5764,
      "thail": 5765,
      "chose": 5766,
      "tri": 5767,
      "irans": 5768,
      "loot": 5769,
      "justify": 5770,
      "icks": 5771,
      "presid": 5772,
      "roy": 5773,
      "roast": 5774,
      "backed": 5775,
      "minim": 5776,
      "parties": 5777,
      "heading": 5778,
      "gling": 5779,
      "humanitarian": 5780,
      "pussies": 5781,
      "burned": 5782,
      "daniel": 5783,
      "pointing": 5784,
      "secretary": 5785,
      "besides": 5786,
      "quickly": 5787,
      "execution": 5788,
      "bigotry": 5789,
      "required": 5790,
      "yellow": 5791,
      "various": 5792,
      "appointed": 5793,
      "restrictions": 5794,
      "dayofvisibility": 5795,
      "lilnasx": 5796,
      "thailand": 5797,
      "42": 5798,
      "mort": 5799,
      "size": 5800,
      "tag": 5801,
      "tions": 5802,
      "wid": 5803,
      "intim": 5804,
      "request": 5805,
      "isto": 5806,
      "eness": 5807,
      "icts": 5808,
      "ilia": 5809,
      "oly": 5810,
      "imate": 5811,
      "usal": 5812,
      "soy": 5813,
      "boo": 5814,
      "pressing": 5815,
      "aved": 5816,
      "basis": 5817,
      "miles": 5818,
      "senator": 5819,
      "trudeau": 5820,
      "hahaha": 5821,
      "hotel": 5822,
      "hungry": 5823,
      "engage": 5824,
      "floor": 5825,
      "dropped": 5826,
      "believed": 5827,
      "concern": 5828,
      "brutally": 5829,
      "executive": 5830,
      "employ": 5831,
      "priests": 5832,
      "pelosi": 5833,
      "updates": 5834,
      "manipul": 5835,
      "4th": 5836,
      "56": 5837,
      "hid": 5838,
      "mes": 5839,
      "wy": 5840,
      "ature": 5841,
      "icals": 5842,
      "accompl": 5843,
      "tric": 5844,
      "trap": 5845,
      "agent": 5846,
      "cker": 5847,
      "saving": 5848,
      "sheep": 5849,
      "spin": 5850,
      "migration": 5851,
      "flash": 5852,
      "puts": 5853,
      "iranians": 5854,
      "invented": 5855,
      "mercy": 5856,
      "surely": 5857,
      "harder": 5858,
      "ohio": 5859,
      "socialist": 5860,
      "netflix": 5861,
      "rising": 5862,
      "foreigner": 5863,
      "refused": 5864,
      "metal": 5865,
      "spoke": 5866,
      "memorial": 5867,
      "darity": 5868,
      "encourage": 5869,
      "31march1918": 5870,
      "thugs": 5871,
      "tongue": 5872,
      "blonde": 5873,
      "gers": 5874,
      "hmm": 5875,
      "hiding": 5876,
      "roles": 5877,
      "smile": 5878,
      "inary": 5879,
      "anth": 5880,
      "erad": 5881,
      "album": 5882,
      "began": 5883,
      "seas": 5884,
      "igan": 5885,
      "urge": 5886,
      "und": 5887,
      "utional": 5888,
      "ette": 5889,
      "raid": 5890,
      "indigen": 5891,
      "brings": 5892,
      "herd": 5893,
      "boot": 5894,
      "limited": 5895,
      "beings": 5896,
      "rose": 5897,
      "damage": 5898,
      "bury": 5899,
      "latino": 5900,
      "switch": 5901,
      "aughters": 5902,
      "passion": 5903,
      "threatening": 5904,
      "billy": 5905,
      "reflect": 5906,
      "schol": 5907,
      "divor": 5908,
      "photograp": 5909,
      "levels": 5910,
      "authority": 5911,
      "demonstr": 5912,
      "explos": 5913,
      "progressive": 5914,
      "solidarity": 5915,
      "32": 5916,
      "bans": 5917,
      "eh": 5918,
      "gif": 5919,
      "gaz": 5920,
      "sd": 5921,
      "treason": 5922,
      "wick": 5923,
      "winter": 5924,
      "ingly": 5925,
      "stance": 5926,
      "whit": 5927,
      "beg": 5928,
      "beard": 5929,
      "amn": 5930,
      "ada": 5931,
      "agen": 5932,
      "print": 5933,
      "noticed": 5934,
      "dod": 5935,
      "riots": 5936,
      "scow": 5937,
      "preh": 5938,
      "msnbc": 5939,
      "humili": 5940,
      "mormon": 5941,
      "murders": 5942,
      "highly": 5943,
      "generations": 5944,
      "pati": 5945,
      "homophobes": 5946,
      "studies": 5947,
      "advance": 5948,
      "allegations": 5949,
      "australian": 5950,
      "sacrif": 5951,
      "excellent": 5952,
      "consequences": 5953,
      "95": 5954,
      "cart": 5955,
      "een": 5956,
      "ileg": 5957,
      "lind": 5958,
      "sny": 5959,
      "tab": 5960,
      "vul": 5961,
      "anch": 5962,
      "isions": 5963,
      "itre": 5964,
      "asap": 5965,
      "beer": 5966,
      "begging": 5967,
      "shared": 5968,
      "soviet": 5969,
      "brilli": 5970,
      "2015": 5971,
      "warm": 5972,
      "backs": 5973,
      "transdayofvisibility": 5974,
      "glor": 5975,
      "function": 5976,
      "followed": 5977,
      "brains": 5978,
      "virtu": 5979,
      "celebration": 5980,
      "clubs": 5981,
      "privileg": 5982,
      "businesses": 5983,
      "failure": 5984,
      "linked": 5985,
      "kelly": 5986,
      "ignored": 5987,
      "sarah": 5988,
      "fighter": 5989,
      "roulette": 5990,
      "indigenous": 5991,
      "sacrifice": 5992,
      "dish": 5993,
      "rates": 5994,
      "tt": 5995,
      "uz": 5996,
      "thin": 5997,
      "infer": 5998,
      "thew": 5999,
      "arant": 6000,
      "actor": 6001,
      "idal": 6002,
      "elle": 6003,
      "agues": 6004,
      "outbreak": 6005,
      "coal": 6006,
      "clin": 6007,
      "killers": 6008,
      "tortured": 6009,
      "guarant": 6010,
      "izz": 6011,
      "lovely": 6012,
      "scam": 6013,
      "scale": 6014,
      "corner": 6015,
      "bucks": 6016,
      "strange": 6017,
      "brexit": 6018,
      "glory": 6019,
      "ucky": 6020,
      "deny": 6021,
      "rub": 6022,
      "sluts": 6023,
      "ww2": 6024,
      "voices": 6025,
      "punk": 6026,
      "homosexuals": 6027,
      "satanic": 6028,
      "iraqi": 6029,
      "copy": 6030,
      "properly": 6031,
      "injuries": 6032,
      "documented": 6033,
      "baku": 6034,
      "transphobic": 6035,
      "suspended": 6036,
      "prince": 6037,
      "powers": 6038,
      "crossing": 6039,
      "performance": 6040,
      "museum": 6041,
      "bia": 6042,
      "dum": 6043,
      "dust": 6044,
      "daughters": 6045,
      "hiv": 6046,
      "infl": 6047,
      "anon": 6048,
      "alous": 6049,
      "andon": 6050,
      "anders": 6051,
      "leaves": 6052,
      "chau": 6053,
      "icate": 6054,
      "user": 6055,
      "aga": 6056,
      "loose": 6057,
      "ceed": 6058,
      "novel": 6059,
      "odi": 6060,
      "boi": 6061,
      "boost": 6062,
      "2017": 6063,
      "disney": 6064,
      "muh": 6065,
      "cars": 6066,
      "matic": 6067,
      "barcel": 6068,
      "winner": 6069,
      "defence": 6070,
      "valley": 6071,
      "brook": 6072,
      "greed": 6073,
      "hung": 6074,
      "brainwashed": 6075,
      "confidence": 6076,
      "romance": 6077,
      "declared": 6078,
      "masculine": 6079,
      "advantage": 6080,
      "stadium": 6081,
      "72": 6082,
      "bip": 6083,
      "beng": 6084,
      "cages": 6085,
      "kab": 6086,
      "mour": 6087,
      "tig": 6088,
      "eritre": 6089,
      "lection": 6090,
      "sets": 6091,
      "otd": 6092,
      "amend": 6093,
      "opath": 6094,
      "uno": 6095,
      "uneducated": 6096,
      "haven": 6097,
      "moscow": 6098,
      "conqu": 6099,
      "plom": 6100,
      "map": 6101,
      "sued": 6102,
      "offered": 6103,
      "fundam": 6104,
      "cheat": 6105,
      "mative": 6106,
      "ucing": 6107,
      "elec": 6108,
      "hijab": 6109,
      "signific": 6110,
      "protected": 6111,
      "profit": 6112,
      "sched": 6113,
      "appears": 6114,
      "luke": 6115,
      "heroes": 6116,
      "species": 6117,
      "scored": 6118,
      "empty": 6119,
      "ruined": 6120,
      "independence": 6121,
      "misogyny": 6122,
      "alabama": 6123,
      "barcelona": 6124,
      "dip": 6125,
      "fg": 6126,
      "rout": 6127,
      "anne": 6128,
      "ato": 6129,
      "aside": 6130,
      "andrew": 6131,
      "stress": 6132,
      "allas": 6133,
      "adults": 6134,
      "iro": 6135,
      "illa": 6136,
      "deut": 6137,
      "moves": 6138,
      "combin": 6139,
      "resol": 6140,
      "august": 6141,
      "math": 6142,
      "womans": 6143,
      "boob": 6144,
      "roots": 6145,
      "scandal": 6146,
      "worldwide": 6147,
      "osen": 6148,
      "worker": 6149,
      "memes": 6150,
      "inciting": 6151,
      "publicly": 6152,
      "causing": 6153,
      "literal": 6154,
      "greeks": 6155,
      "equally": 6156,
      "patient": 6157,
      "annual": 6158,
      "condition": 6159,
      "interests": 6160,
      "kenya": 6161,
      "experts": 6162,
      "punishment": 6163,
      "cousin": 6164,
      "presidency": 6165,
      "85": 6166,
      "cards": 6167,
      "mous": 6168,
      "ramp": 6169,
      "vars": 6170,
      "eric": 6171,
      "rema": 6172,
      "stun": 6173,
      "chink": 6174,
      "chuck": 6175,
      "vet": 6176,
      "iment": 6177,
      "ura": 6178,
      "option": 6179,
      "oppon": 6180,
      "entially": 6181,
      "abad": 6182,
      "abandon": 6183,
      "ups": 6184,
      "boat": 6185,
      "coast": 6186,
      "actress": 6187,
      "2014": 6188,
      "overs": 6189,
      "hobe": 6190,
      "twink": 6191,
      "intent": 6192,
      "perspect": 6193,
      "haram": 6194,
      "published": 6195,
      "denied": 6196,
      "classic": 6197,
      "delus": 6198,
      "picked": 6199,
      "ignoring": 6200,
      "journey": 6201,
      "confirm": 6202,
      "historic": 6203,
      "carrying": 6204,
      "require": 6205,
      "korean": 6206,
      "recognize": 6207,
      "savages": 6208,
      "mohammed": 6209,
      "barely": 6210,
      "survivors": 6211,
      "legislation": 6212,
      "veterans": 6213,
      "bloomberg": 6214,
      "embassy": 6215,
      "jon": 6216,
      "luc": 6217,
      "ng": 6218,
      "nip": 6219,
      "ware": 6220,
      "ini": 6221,
      "inct": 6222,
      "erdogan": 6223,
      "tober": 6224,
      "stink": 6225,
      "chi": 6226,
      "chop": 6227,
      "advert": 6228,
      "users": 6229,
      "unte": 6230,
      "istics": 6231,
      "mah": 6232,
      "assad": 6233,
      "clar": 6234,
      "legacy": 6235,
      "scary": 6236,
      "occas": 6237,
      "intention": 6238,
      "positions": 6239,
      "lesson": 6240,
      "invade": 6241,
      "hari": 6242,
      "charity": 6243,
      "sett": 6244,
      "visa": 6245,
      "autistic": 6246,
      "armenia": 6247,
      "volunte": 6248,
      "produce": 6249,
      "horror": 6250,
      "suffered": 6251,
      "philip": 6252,
      "memory": 6253,
      "announce": 6254,
      "smoke": 6255,
      "festival": 6256,
      "knees": 6257,
      "strategy": 6258,
      "thierry": 6259,
      "brilliant": 6260,
      "dim": 6261,
      "kit": 6262,
      "oz": 6263,
      "rage": 6264,
      "ern": 6265,
      "relie": 6266,
      "andlt": 6267,
      "eda": 6268,
      "chain": 6269,
      "ican": 6270,
      "bels": 6271,
      "seed": 6272,
      "trib": 6273,
      "fru": 6274,
      "raham": 6275,
      "raising": 6276,
      "concl": 6277,
      "bob": 6278,
      "mentality": 6279,
      "caucas": 6280,
      "jealous": 6281,
      "disabled": 6282,
      "pleasure": 6283,
      "tale": 6284,
      "bias": 6285,
      "causes": 6286,
      "basement": 6287,
      "signs": 6288,
      "mirror": 6289,
      "fools": 6290,
      "heavy": 6291,
      "negroes": 6292,
      "patriots": 6293,
      "neighbors": 6294,
      "swedish": 6295,
      "sources": 6296,
      "circum": 6297,
      "journalist": 6298,
      "mistake": 6299,
      "prepared": 6300,
      "athletes": 6301,
      "determin": 6302,
      "emergency": 6303,
      "bridge": 6304,
      "vagina": 6305,
      "praise": 6306,
      "orientation": 6307,
      "cricket": 6308,
      "bly": 6309,
      "cere": 6310,
      "lers": 6311,
      "nun": 6312,
      "nine": 6313,
      "skills": 6314,
      "witch": 6315,
      "wip": 6316,
      "anime": 6317,
      "stated": 6318,
      "liz": 6319,
      "unders": 6320,
      "theyd": 6321,
      "manage": 6322,
      "fears": 6323,
      "americas": 6324,
      "attle": 6325,
      "affair": 6326,
      "guilt": 6327,
      "preser": 6328,
      "diplom": 6329,
      "muds": 6330,
      "province": 6331,
      "selfish": 6332,
      "spect": 6333,
      "carried": 6334,
      "ogue": 6335,
      "invited": 6336,
      "bullying": 6337,
      "airport": 6338,
      "magaz": 6339,
      "universe": 6340,
      "sanctions": 6341,
      "profile": 6342,
      "taxpay": 6343,
      "protecting": 6344,
      "explains": 6345,
      "villa": 6346,
      "ethnicity": 6347,
      "shocked": 6348,
      "development": 6349,
      "particularly": 6350,
      "sensitive": 6351,
      "tattoo": 6352,
      "6th": 6353,
      "hil": 6354,
      "naren": 6355,
      "rus": 6356,
      "tue": 6357,
      "vac": 6358,
      "escape": 6359,
      "tril": 6360,
      "ola": 6361,
      "unite": 6362,
      "doors": 6363,
      "diverse": 6364,
      "epic": 6365,
      "perman": 6366,
      "presidents": 6367,
      "posing": 6368,
      "accur": 6369,
      "lawsuit": 6370,
      "closer": 6371,
      "yahoo": 6372,
      "mosques": 6373,
      "bombers": 6374,
      "includes": 6375,
      "checked": 6376,
      "pundit": 6377,
      "execute": 6378,
      "spoken": 6379,
      "buddy": 6380,
      "corruption": 6381,
      "graphic": 6382,
      "knife": 6383,
      "benefits": 6384,
      "knee": 6385,
      "aggressive": 6386,
      "controlled": 6387,
      "financial": 6388,
      "bf": 6389,
      "dur": 6390,
      "fred": 6391,
      "rangers": 6392,
      "slight": 6393,
      "tank": 6394,
      "vari": 6395,
      "thai": 6396,
      "rec": 6397,
      "alright": 6398,
      "leak": 6399,
      "omin": 6400,
      "idc": 6401,
      "idel": 6402,
      "iring": 6403,
      "degree": 6404,
      "condom": 6405,
      "acted": 6406,
      "clots": 6407,
      "shep": 6408,
      "proves": 6409,
      "identified": 6410,
      "commie": 6411,
      "dry": 6412,
      "mony": 6413,
      "inson": 6414,
      "compass": 6415,
      "ministers": 6416,
      "allows": 6417,
      "consci": 6418,
      "continent": 6419,
      "cleans": 6420,
      "celebrated": 6421,
      "dealing": 6422,
      "multicul": 6423,
      "walked": 6424,
      "hhhh": 6425,
      "martin": 6426,
      "hanging": 6427,
      "chicken": 6428,
      "repeat": 6429,
      "masculinity": 6430,
      "assaulted": 6431,
      "kentucky": 6432,
      "convinced": 6433,
      "alliance": 6434,
      "varsity": 6435,
      "relief": 6436,
      "67": 6437,
      "aire": 6438,
      "dia": 6439,
      "eb": 6440,
      "fiction": 6441,
      "iate": 6442,
      "ania": 6443,
      "arse": 6444,
      "whil": 6445,
      "impossible": 6446,
      "resur": 6447,
      "exit": 6448,
      "ghost": 6449,
      "izer": 6450,
      "ros": 6451,
      "minor": 6452,
      "gery": 6453,
      "goddess": 6454,
      "serial": 6455,
      "rapes": 6456,
      "earn": 6457,
      "***": 6458,
      "addition": 6459,
      "range": 6460,
      "organizations": 6461,
      "figures": 6462,
      "patriot": 6463,
      "demanding": 6464,
      "mudshark": 6465,
      "window": 6466,
      "stormfront": 6467,
      "describ": 6468,
      "ethiopian": 6469,
      "transphobia": 6470,
      "wounded": 6471,
      "ukrainian": 6472,
      "bach": 6473,
      "dallas": 6474,
      "ey": 6475,
      "flight": 6476,
      "gb": 6477,
      "karab": 6478,
      "pier": 6479,
      "rol": 6480,
      "xen": 6481,
      "yard": 6482,
      "thur": 6483,
      "inch": 6484,
      "incompet": 6485,
      "atter": 6486,
      "chosen": 6487,
      "icing": 6488,
      "lime": 6489,
      "trag": 6490,
      "improve": 6491,
      "opposed": 6492,
      "agu": 6493,
      "hai": 6494,
      "dos": 6495,
      "ifies": 6496,
      "suing": 6497,
      "cles": 6498,
      "teeth": 6499,
      "scprimary": 6500,
      "flesh": 6501,
      "internal": 6502,
      "azz": 6503,
      "bigots": 6504,
      "pedo": 6505,
      "temples": 6506,
      "conditions": 6507,
      "coverage": 6508,
      "educate": 6509,
      "arrived": 6510,
      "square": 6511,
      "repent": 6512,
      "fantastic": 6513,
      "graham": 6514,
      "declare": 6515,
      "connection": 6516,
      "invaded": 6517,
      "analys": 6518,
      "guardian": 6519,
      "vietnam": 6520,
      "raghead": 6521,
      "persecution": 6522,
      "uygh": 6523,
      "amendment": 6524,
      "remains": 6525,
      "2k": 6526,
      "51": 6527,
      "59": 6528,
      "92": 6529,
      "cbs": 6530,
      "eight": 6531,
      "hm": 6532,
      "rw": 6533,
      "tul": 6534,
      "ال": 6535,
      "infest": 6536,
      "ongoing": 6537,
      "asf": 6538,
      "andy": 6539,
      "amber": 6540,
      "tery": 6541,
      "web": 6542,
      "constr": 6543,
      "grim": 6544,
      "grind": 6545,
      "guise": 6546,
      "navy": 6547,
      "puer": 6548,
      "queens": 6549,
      "inval": 6550,
      "curious": 6551,
      "handed": 6552,
      "setting": 6553,
      "virgins": 6554,
      "couples": 6555,
      "gabfam": 6556,
      "perfectly": 6557,
      "launched": 6558,
      "separate": 6559,
      "hypocrisy": 6560,
      "embarrassing": 6561,
      "delusional": 6562,
      "800": 6563,
      "bend": 6564,
      "cof": 6565,
      "eag": 6566,
      "fener": 6567,
      "kal": 6568,
      "lash": 6569,
      "mount": 6570,
      "wives": 6571,
      "zuel": 6572,
      "encounter": 6573,
      "alco": 6574,
      "asks": 6575,
      "arrog": 6576,
      "iling": 6577,
      "acity": 6578,
      "idol": 6579,
      "imprison": 6580,
      "bros": 6581,
      "torn": 6582,
      "savi": 6583,
      "spending": 6584,
      "suppose": 6585,
      "mins": 6586,
      "rivers": 6587,
      "scumb": 6588,
      "shoe": 6589,
      "funded": 6590,
      "brazil": 6591,
      "horia": 6592,
      "consent": 6593,
      "socialism": 6594,
      "deserved": 6595,
      "150": 6596,
      "speaker": 6597,
      "stayed": 6598,
      "dete": 6599,
      "delhi": 6600,
      "confident": 6601,
      "deeply": 6602,
      "loads": 6603,
      "azerbaijani": 6604,
      "programs": 6605,
      "reportedly": 6606,
      "briefed": 6607,
      "repeated": 6608,
      "comedy": 6609,
      "naked": 6610,
      "michigan": 6611,
      "camera": 6612,
      "therapy": 6613,
      "filipino": 6614,
      "environment": 6615,
      "venezuel": 6616,
      "rohingya": 6617,
      "whilst": 6618,
      "fenerbah": 6619,
      "54": 6620,
      "fau": 6621,
      "rum": 6622,
      "xi": 6623,
      "threw": 6624,
      "ouse": 6625,
      "chip": 6626,
      "acon": 6627,
      "aced": 6628,
      "shr": 6629,
      "shev": 6630,
      "imper": 6631,
      "fuel": 6632,
      "reser": 6633,
      "wouldve": 6634,
      "discourse": 6635,
      "discovered": 6636,
      "proven": 6637,
      "october": 6638,
      "happiness": 6639,
      "insan": 6640,
      "interracial": 6641,
      "charlot": 6642,
      "restaur": 6643,
      "pretext": 6644,
      "pridemonth": 6645,
      "inclusive": 6646,
      "stood": 6647,
      "committing": 6648,
      "ramad": 6649,
      "entirely": 6650,
      "falls": 6651,
      "flags": 6652,
      "believing": 6653,
      "nigerians": 6654,
      "goalkeeper": 6655,
      "receiving": 6656,
      "belongs": 6657,
      "conversion": 6658,
      "dutch": 6659,
      "criticism": 6660,
      "colonial": 6661,
      "mohammad": 6662,
      "wisdom": 6663,
      "farmers": 6664,
      "lebanon": 6665,
      "64": 6666,
      "flying": 6667,
      "nag": 6668,
      "ncaa": 6669,
      "tied": 6670,
      "tier": 6671,
      "vig": 6672,
      "yu": 6673,
      "thor": 6674,
      "isol": 6675,
      "ensure": 6676,
      "toy": 6677,
      "stim": 6678,
      "chad": 6679,
      "chong": 6680,
      "forbid": 6681,
      "ophobe": 6682,
      "agents": 6683,
      "butch": 6684,
      "conce": 6685,
      "blink": 6686,
      "maint": 6687,
      "disaster": 6688,
      "proved": 6689,
      "goddamn": 6690,
      "useful": 6691,
      "colored": 6692,
      "slurs": 6693,
      "writes": 6694,
      "poster": 6695,
      "murderers": 6696,
      "tempor": 6697,
      "remembered": 6698,
      "slutty": 6699,
      "trauma": 6700,
      "possess": 6701,
      "castle": 6702,
      "pulling": 6703,
      "picking": 6704,
      "pushed": 6705,
      "constant": 6706,
      "believable": 6707,
      "haters": 6708,
      "advocate": 6709,
      "allegedly": 6710,
      "molest": 6711,
      "dictator": 6712,
      "barbaric": 6713,
      "technology": 6714,
      "appropriate": 6715,
      "kjv": 6716,
      "cream": 6717,
      "hatt": 6718,
      "hire": 6719,
      "pent": 6720,
      "rl": 6721,
      "yt": 6722,
      "enjo": 6723,
      "tore": 6724,
      "edgy": 6725,
      "stats": 6726,
      "chem": 6727,
      "beef": 6728,
      "aya": 6729,
      "pee": 6730,
      "anton": 6731,
      "doom": 6732,
      "blat": 6733,
      "managed": 6734,
      "makers": 6735,
      "diseas": 6736,
      "lake": 6737,
      "syri": 6738,
      "screw": 6739,
      "partners": 6740,
      "islamist": 6741,
      "bio": 6742,
      "awards": 6743,
      "houston": 6744,
      "denial": 6745,
      "rude": 6746,
      "relations": 6747,
      "stolen": 6748,
      "juda": 6749,
      "virtue": 6750,
      "committee": 6751,
      "hurts": 6752,
      "appeal": 6753,
      "chaos": 6754,
      "snap": 6755,
      "percentage": 6756,
      "extremist": 6757,
      "collap": 6758,
      "complaining": 6759,
      "occupied": 6760,
      "trending": 6761,
      "shelter": 6762,
      "incredible": 6763,
      "muzrat": 6764,
      "believers": 6765,
      "sanctuary": 6766,
      "anthony": 6767,
      "perspective": 6768,
      "alcohol": 6769,
      "63": 6770,
      "biz": 6771,
      "bands": 6772,
      "gorge": 6773,
      "rice": 6774,
      "sink": 6775,
      "uber": 6776,
      "andor": 6777,
      "abusive": 6778,
      "meas": 6779,
      "hem": 6780,
      "conven": 6781,
      "coon": 6782,
      "hoops": 6783,
      "genes": 6784,
      "columb": 6785,
      "societ": 6786,
      "matthew": 6787,
      "accus": 6788,
      "badly": 6789,
      "fires": 6790,
      "masters": 6791,
      "desert": 6792,
      "craw": 6793,
      "treating": 6794,
      "wwii": 6795,
      "grandfather": 6796,
      "testing": 6797,
      "ruling": 6798,
      "concerns": 6799,
      "dollar": 6800,
      "sleeping": 6801,
      "reveals": 6802,
      "referring": 6803,
      "resistance": 6804,
      "ultimate": 6805,
      "granted": 6806,
      "chauvin": 6807,
      "73": 6808,
      "98": 6809,
      "bread": 6810,
      "cot": 6811,
      "egg": 6812,
      "hed": 6813,
      "las": 6814,
      "wn": 6815,
      "wage": 6816,
      "zom": 6817,
      "initi": 6818,
      "atro": 6819,
      "alo": 6820,
      "beloved": 6821,
      "adm": 6822,
      "uters": 6823,
      "frustr": 6824,
      "heat": 6825,
      "inder": 6826,
      "pole": 6827,
      "ulus": 6828,
      "artists": 6829,
      "brad": 6830,
      "tear": 6831,
      "supply": 6832,
      "desire": 6833,
      "mug": 6834,
      "aryan": 6835,
      "couldn": 6836,
      "bibl": 6837,
      "contest": 6838,
      "pakis": 6839,
      "swing": 6840,
      "deportation": 6841,
      "cuses": 6842,
      "vaccines": 6843,
      "worthy": 6844,
      "grandma": 6845,
      "systems": 6846,
      "protesting": 6847,
      "multi": 6848,
      "extremists": 6849,
      "60s": 6850,
      "eternal": 6851,
      "scores": 6852,
      "xxx": 6853,
      "savage": 6854,
      "gradu": 6855,
      "devast": 6856,
      "marxist": 6857,
      "arguing": 6858,
      "convicted": 6859,
      "taylor": 6860,
      "toilet": 6861,
      "amnesty": 6862,
      "analysis": 6863,
      "puerto": 6864,
      "gorgeous": 6865,
      "bold": 6866,
      "din": 6867,
      "dic": 6868,
      "ew": 6869,
      "hay": 6870,
      "jk": 6871,
      "jama": 6872,
      "mama": 6873,
      "rh": 6874,
      "slo": 6875,
      "sain": 6876,
      "income": 6877,
      "infected": 6878,
      "rebel": 6879,
      "encing": 6880,
      "tood": 6881,
      "aspor": 6882,
      "leap": 6883,
      "vehic": 6884,
      "oppose": 6885,
      "etz": 6886,
      "debt": 6887,
      "mainst": 6888,
      "assim": 6889,
      "oked": 6890,
      "warned": 6891,
      "blackhistory": 6892,
      "prosper": 6893,
      "olds": 6894,
      "ahmed": 6895,
      "monster": 6896,
      "prepar": 6897,
      "regret": 6898,
      "mature": 6899,
      "decisions": 6900,
      "films": 6901,
      "dancing": 6902,
      "miser": 6903,
      "natives": 6904,
      "holds": 6905,
      "sale": 6906,
      "acceptance": 6907,
      "falling": 6908,
      "targeting": 6909,
      "accountable": 6910,
      "budget": 6911,
      "grave": 6912,
      "circle": 6913,
      "behaviour": 6914,
      "clip": 6915,
      "journalists": 6916,
      "revealed": 6917,
      "latinos": 6918,
      "assassin": 6919,
      "scottish": 6920,
      "joseph": 6921,
      "obsessed": 6922,
      "residents": 6923,
      "recommend": 6924,
      "elderly": 6925,
      "wicked": 6926,
      "multicultural": 6927,
      "invalid": 6928,
      "mainstream": 6929,
      "5th": 6930,
      "62": 6931,
      "ckey": 6932,
      "dro": 6933,
      "jar": 6934,
      "lfc": 6935,
      "nin": 6936,
      "pom": 6937,
      "pity": 6938,
      "paint": 6939,
      "inher": 6940,
      "reuters": 6941,
      "ena": 6942,
      "enger": 6943,
      "escal": 6944,
      "lean": 6945,
      "ication": 6946,
      "accent": 6947,
      "kevin": 6948,
      "abraham": 6949,
      "weather": 6950,
      "soil": 6951,
      "pled": 6952,
      "ull": 6953,
      "commer": 6954,
      "scare": 6955,
      "paras": 6956,
      "towel": 6957,
      "juli": 6958,
      "honour": 6959,
      "motherfucker": 6960,
      "satis": 6961,
      "foundation": 6962,
      "directed": 6963,
      "confess": 6964,
      "pulled": 6965,
      "zeal": 6966,
      "amongst": 6967,
      "villages": 6968,
      "jerusal": 6969,
      "chicks": 6970,
      "invading": 6971,
      "lords": 6972,
      "adopted": 6973,
      "warriors": 6974,
      "jerusalem": 6975,
      "nope": 6976,
      "tx": 6977,
      "vandal": 6978,
      "infil": 6979,
      "erc": 6980,
      "reform": 6981,
      "aspect": 6982,
      "edition": 6983,
      "stamp": 6984,
      "begins": 6985,
      "liby": 6986,
      "forgive": 6987,
      "entering": 6988,
      "apple": 6989,
      "clit": 6990,
      "affil": 6991,
      "overall": 6992,
      "ension": 6993,
      "glas": 6994,
      "glass": 6995,
      "invite": 6996,
      "chee": 6997,
      "ophy": 6998,
      "bars": 6999,
      "surgery": 7000,
      "compli": 7001,
      "liberty": 7002,
      "tweeting": 7003,
      "gtfo": 7004,
      "belt": 7005,
      "billions": 7006,
      "survival": 7007,
      "matches": 7008,
      "hospitals": 7009,
      "forgotten": 7010,
      "gregation": 7011,
      "holiday": 7012,
      "method": 7013,
      "karabakh": 7014,
      "87": 7015,
      "bone": 7016,
      "dinner": 7017,
      "fck": 7018,
      "gass": 7019,
      "jere": 7020,
      "vast": 7021,
      "zim": 7022,
      "repar": 7023,
      "alert": 7024,
      "toll": 7025,
      "stret": 7026,
      "acing": 7027,
      "elly": 7028,
      "undocumented": 7029,
      "lovers": 7030,
      "convince": 7031,
      "bos": 7032,
      "newsp": 7033,
      "mufc": 7034,
      "proving": 7035,
      "monkeys": 7036,
      "wherever": 7037,
      "bub": 7038,
      "buck": 7039,
      "thrill": 7040,
      "communism": 7041,
      "paris": 7042,
      "cuts": 7043,
      "compare": 7044,
      "messages": 7045,
      "riding": 7046,
      "creation": 7047,
      "somali": 7048,
      "penn": 7049,
      "hurting": 7050,
      "expecting": 7051,
      "fields": 7052,
      "returned": 7053,
      "paso": 7054,
      "reminds": 7055,
      "angeles": 7056,
      "bags": 7057,
      "devils": 7058,
      "arguments": 7059,
      "expert": 7060,
      "beaner": 7061,
      "provided": 7062,
      "mlb": 7063,
      "bathroom": 7064,
      "exclusive": 7065,
      "continued": 7066,
      "censor": 7067,
      "puppet": 7068,
      "defeated": 7069,
      "indonesia": 7070,
      "pronouns": 7071,
      "disturbing": 7072,
      "sneak": 7073,
      "privileged": 7074,
      "cue": 7075,
      "dash": 7076,
      "fm": 7077,
      "mfs": 7078,
      "nj": 7079,
      "ua": 7080,
      "wreck": 7081,
      "yid": 7082,
      "entry": 7083,
      "tribe": 7084,
      "ela": 7085,
      "unit": 7086,
      "umer": 7087,
      "notes": 7088,
      "docher": 7089,
      "plug": 7090,
      "aston": 7091,
      "warns": 7092,
      "forest": 7093,
      "intoler": 7094,
      "malays": 7095,
      "ryan": 7096,
      "singing": 7097,
      "chances": 7098,
      "missiles": 7099,
      "passes": 7100,
      "casual": 7101,
      "souls": 7102,
      "groom": 7103,
      "figured": 7104,
      "condemned": 7105,
      "shape": 7106,
      "zionists": 7107,
      "associated": 7108,
      "gentle": 7109,
      "subscr": 7110,
      "trafficking": 7111,
      "descend": 7112,
      "magazine": 7113,
      "compassion": 7114,
      "fenerbahce": 7115,
      "docherty": 7116,
      "cm": 7117,
      "cz": 7118,
      "eff": 7119,
      "ien": 7120,
      "kd": 7121,
      "nab": 7122,
      "spray": 7123,
      "wers": 7124,
      "eder": 7125,
      "ario": 7126,
      "steven": 7127,
      "bee": 7128,
      "semi": 7129,
      "advent": 7130,
      "weed": 7131,
      "comput": 7132,
      "compreh": 7133,
      "poli": 7134,
      "apes": 7135,
      "coons": 7136,
      "actively": 7137,
      "teens": 7138,
      "presence": 7139,
      "roof": 7140,
      "racially": 7141,
      "syd": 7142,
      "anged": 7143,
      "funds": 7144,
      "funeral": 7145,
      "cheating": 7146,
      "barack": 7147,
      "solved": 7148,
      "hara": 7149,
      "europ": 7150,
      "singer": 7151,
      "duke": 7152,
      "dumbest": 7153,
      "bully": 7154,
      "bullet": 7155,
      "cake": 7156,
      "equival": 7157,
      "creator": 7158,
      "custom": 7159,
      "divide": 7160,
      "ordered": 7161,
      "lux": 7162,
      "links": 7163,
      "ruled": 7164,
      "politician": 7165,
      "oooooooo": 7166,
      "pedophilia": 7167,
      "franco": 7168,
      "wetback": 7169,
      "boomer": 7170,
      "perpetu": 7171,
      "embrace": 7172,
      "goyim": 7173,
      "material": 7174,
      "reporter": 7175,
      "understood": 7176,
      "shepherd": 7177,
      "stimulus": 7178,
      "dind": 7179,
      "eous": 7180,
      "gag": 7181,
      "kil": 7182,
      "purch": 7183,
      "sust": 7184,
      "ero": 7185,
      "asexual": 7186,
      "betray": 7187,
      "sep": 7188,
      "sean": 7189,
      "acle": 7190,
      "shill": 7191,
      "forgiven": 7192,
      "olly": 7193,
      "imo": 7194,
      "elli": 7195,
      "ifi": 7196,
      "manner": 7197,
      "apar": 7198,
      "coz": 7199,
      "ishing": 7200,
      "wouldn": 7201,
      "tucker": 7202,
      "rapper": 7203,
      "coln": 7204,
      "bile": 7205,
      "awn": 7206,
      "banning": 7207,
      "lawyer": 7208,
      "direction": 7209,
      "throws": 7210,
      "bolshev": 7211,
      "karma": 7212,
      "foxnews": 7213,
      "googl": 7214,
      "professor": 7215,
      "trigger": 7216,
      "tolerance": 7217,
      "survivor": 7218,
      "medicine": 7219,
      "acknowledge": 7220,
      "documentary": 7221,
      "conduct": 7222,
      "deutsch": 7223,
      "ramadan": 7224,
      "judaism": 7225,
      "97": 7226,
      "bn": 7227,
      "bald": 7228,
      "eed": 7229,
      "ego": 7230,
      "fif": 7231,
      "lau": 7232,
      "mall": 7233,
      "pant": 7234,
      "sid": 7235,
      "thal": 7236,
      "inal": 7237,
      "indoctr": 7238,
      "revel": 7239,
      "rejected": 7240,
      "ata": 7241,
      "beats": 7242,
      "owa": 7243,
      "traged": 7244,
      "urb": 7245,
      "haz": 7246,
      "prick": 7247,
      "odd": 7248,
      "teh": 7249,
      "righteous": 7250,
      "mini": 7251,
      "talent": 7252,
      "render": 7253,
      "finals": 7254,
      "breath": 7255,
      "careful": 7256,
      "smack": 7257,
      "sucked": 7258,
      "founded": 7259,
      "signal": 7260,
      "buildings": 7261,
      "detention": 7262,
      "placing": 7263,
      "mainly": 7264,
      "organized": 7265,
      "mixing": 7266,
      "horrific": 7267,
      "reached": 7268,
      "predict": 7269,
      "struggling": 7270,
      "developed": 7271,
      "gateway": 7272,
      "fingers": 7273,
      "designed": 7274,
      "admitted": 7275,
      "shitskin": 7276,
      "solid": 7277,
      "millen": 7278,
      "antisemitism": 7279,
      "fabricate": 7280,
      "vulner": 7281,
      "fundamental": 7282,
      "philipp": 7283,
      "trillion": 7284,
      "accurate": 7285,
      "googlenews": 7286,
      "2a": 7287,
      "avi": 7288,
      "bitter": 7289,
      "dere": 7290,
      "duck": 7291,
      "fist": 7292,
      "gc": 7293,
      "kor": 7294,
      "mers": 7295,
      "pir": 7296,
      "sites": 7297,
      "zack": 7298,
      "insecure": 7299,
      "ano": 7300,
      "replaced": 7301,
      "represents": 7302,
      "ati": 7303,
      "chast": 7304,
      "allen": 7305,
      "imam": 7306,
      "elo": 7307,
      "moan": 7308,
      "rach": 7309,
      "manif": 7310,
      "excuses": 7311,
      "oking": 7312,
      "api": 7313,
      "bored": 7314,
      "clue": 7315,
      "spain": 7316,
      "seekers": 7317,
      "shouldn": 7318,
      "minnes": 7319,
      "realise": 7320,
      "finna": 7321,
      "caring": 7322,
      "incest": 7323,
      "contain": 7324,
      "buried": 7325,
      "sucker": 7326,
      "tony": 7327,
      "dysp": 7328,
      "hamas": 7329,
      "swim": 7330,
      "mommy": 7331,
      "calm": 7332,
      "visiting": 7333,
      "campus": 7334,
      "ika": 7335,
      "sales": 7336,
      "punished": 7337,
      "confeder": 7338,
      "tests": 7339,
      "lincoln": 7340,
      "bollah": 7341,
      "trained": 7342,
      "intellect": 7343,
      "dedicated": 7344,
      "precious": 7345,
      "insulting": 7346,
      "attempted": 7347,
      "competition": 7348,
      "association": 7349,
      "trend": 7350,
      "ironic": 7351,
      "evangelical": 7352,
      "tune": 7353,
      "princess": 7354,
      "highlights": 7355,
      "mystery": 7356,
      "rugby": 7357,
      "istol": 7358,
      "employment": 7359,
      "boobs": 7360,
      "caucasians": 7361,
      "construction": 7362,
      "saints": 7363,
      "assimil": 7364,
      "53": 7365,
      "57": 7366,
      "bies": 7367,
      "cort": 7368,
      "fak": 7369,
      "mps": 7370,
      "nh": 7371,
      "rational": 7372,
      "sche": 7373,
      "wart": 7374,
      "yn": 7375,
      "——": 7376,
      "anced": 7377,
      "itation": 7378,
      "ases": 7379,
      "lef": 7380,
      "chase": 7381,
      "whist": 7382,
      "kee": 7383,
      "urban": 7384,
      "unbelievable": 7385,
      "depression": 7386,
      "frag": 7387,
      "prover": 7388,
      "maker": 7389,
      "cancell": 7390,
      "cruc": 7391,
      "aine": 7392,
      "ieg": 7393,
      "timeline": 7394,
      "spy": 7395,
      "disci": 7396,
      "retali": 7397,
      "syl": 7398,
      "prejud": 7399,
      "transfer": 7400,
      "choices": 7401,
      "poses": 7402,
      "biased": 7403,
      "killings": 7404,
      "iktas": 7405,
      "citing": 7406,
      "creatures": 7407,
      "factor": 7408,
      "targets": 7409,
      "skinned": 7410,
      "experienced": 7411,
      "returning": 7412,
      "fluid": 7413,
      "patriarchy": 7414,
      "besiktas": 7415,
      "dumpster": 7416,
      "smoking": 7417,
      "ield": 7418,
      "describe": 7419,
      "opportun": 7420,
      "candidates": 7421,
      "athletic": 7422,
      "kamala": 7423,
      "increased": 7424,
      "estyle": 7425,
      "williams": 7426,
      "motivation": 7427,
      "warrior": 7428,
      "enslaved": 7429,
      "dramodi": 7430,
      "territory": 7431,
      "minimum": 7432,
      "divorce": 7433,
      "miserable": 7434,
      "76": 7435,
      "bd": 7436,
      "cure": 7437,
      "dot": 7438,
      "eg": 7439,
      "emo": 7440,
      "fold": 7441,
      "nand": 7442,
      "oce": 7443,
      "smar": 7444,
      "inqu": 7445,
      "informed": 7446,
      "atar": 7447,
      "tos": 7448,
      "whip": 7449,
      "sect": 7450,
      "lip": 7451,
      "trate": 7452,
      "admin": 7453,
      "unknown": 7454,
      "unarmed": 7455,
      "uncomfortable": 7456,
      "abu": 7457,
      "meh": 7458,
      "hez": 7459,
      "worn": 7460,
      "suic": 7461,
      "brian": 7462,
      "dislike": 7463,
      "rober": 7464,
      "scor": 7465,
      "makeup": 7466,
      "morals": 7467,
      "morality": 7468,
      "biological": 7469,
      "burnt": 7470,
      "shoots": 7471,
      "towns": 7472,
      "contract": 7473,
      "bait": 7474,
      "file": 7475,
      "walks": 7476,
      "valu": 7477,
      "militants": 7478,
      "thankful": 7479,
      "bleed": 7480,
      "grey": 7481,
      "anka": 7482,
      "stephen": 7483,
      "stronger": 7484,
      "puls": 7485,
      "jihadis": 7486,
      "attraction": 7487,
      "karak": 7488,
      "heavily": 7489,
      "teenage": 7490,
      "camel": 7491,
      "prevention": 7492,
      "beaners": 7493,
      "apologize": 7494,
      "broadcast": 7495,
      "evangelicals": 7496,
      "golf": 7497,
      "misogynistic": 7498,
      "corporate": 7499,
      "qaeda": 7500,
      "narendramodi": 7501,
      "xenophob": 7502,
      "newspap": 7503,
      "aar": 7504,
      "dign": 7505,
      "foul": 7506,
      "gaf": 7507,
      "gles": 7508,
      "mard": 7509,
      "oli": 7510,
      "pg": 7511,
      "vlad": 7512,
      "wc": 7513,
      "wack": 7514,
      "wigg": 7515,
      "inn": 7516,
      "acad": 7517,
      "lid": 7518,
      "libr": 7519,
      "vegas": 7520,
      "aret": 7521,
      "eling": 7522,
      "agno": 7523,
      "utions": 7524,
      "detro": 7525,
      "sored": 7526,
      "rahim": 7527,
      "blamed": 7528,
      "maf": 7529,
      "sugar": 7530,
      "daylight": 7531,
      "nta": 7532,
      "obam": 7533,
      "iven": 7534,
      "2012": 7535,
      "offense": 7536,
      "lax": 7537,
      "tyler": 7538,
      "pub": 7539,
      "humor": 7540,
      "morris": 7541,
      "shower": 7542,
      "cert": 7543,
      "charles": 7544,
      "vicious": 7545,
      "capable": 7546,
      "civilized": 7547,
      "wore": 7548,
      "soros": 7549,
      "judging": 7550,
      "balance": 7551,
      "salv": 7552,
      "divided": 7553,
      "audience": 7554,
      "lonely": 7555,
      "neighbour": 7556,
      "represented": 7557,
      "angela": 7558,
      "hopes": 7559,
      "involve": 7560,
      "records": 7561,
      "suspected": 7562,
      "bigoted": 7563,
      "flip": 7564,
      "location": 7565,
      "hackers": 7566,
      "gordon": 7567,
      "prepare": 7568,
      "femdom": 7569,
      "atlanta": 7570,
      "sperm": 7571,
      "digital": 7572,
      "libtard": 7573,
      "inferior": 7574,
      "affairs": 7575,
      "coffee": 7576,
      "reparations": 7577,
      "hezbollah": 7578,
      "dated": 7579,
      "gaming": 7580,
      "jus": 7581,
      "juni": 7582,
      "khal": 7583,
      "mast": 7584,
      "nity": 7585,
      "oak": 7586,
      "piz": 7587,
      "rc": 7588,
      "ria": 7589,
      "tac": 7590,
      "wu": 7591,
      "yers": 7592,
      "inhuman": 7593,
      "itz": 7594,
      "andre": 7595,
      "ariz": 7596,
      "stable": 7597,
      "ila": 7598,
      "acial": 7599,
      "ambass": 7600,
      "irony": 7601,
      "abusing": 7602,
      "delete": 7603,
      "weir": 7604,
      "sox": 7605,
      "exhib": 7606,
      "someones": 7607,
      "aken": 7608,
      "grass": 7609,
      "newly": 7610,
      "newyear": 7611,
      "shebo": 7612,
      "spon": 7613,
      "guest": 7614,
      "guide": 7615,
      "label": 7616,
      "ache": 7617,
      "betting": 7618,
      "cord": 7619,
      "colors": 7620,
      "lessly": 7621,
      "centers": 7622,
      "breit": 7623,
      "miami": 7624,
      "fights": 7625,
      "earned": 7626,
      "latina": 7627,
      "hammer": 7628,
      "jude": 7629,
      "cycle": 7630,
      "ghettos": 7631,
      "arabic": 7632,
      "walmart": 7633,
      "submit": 7634,
      "sends": 7635,
      "staying": 7636,
      "vention": 7637,
      "ticket": 7638,
      "titties": 7639,
      "jailed": 7640,
      "silver": 7641,
      "atheists": 7642,
      "martial": 7643,
      "wich": 7644,
      "georgian": 7645,
      "mythology": 7646,
      "insurrection": 7647,
      "lebanese": 7648,
      "espn": 7649,
      "translation": 7650,
      "cabin": 7651,
      "recruit": 7652,
      "converted": 7653,
      "surrounded": 7654,
      "enforcement": 7655,
      "gaza": 7656,
      "combined": 7657,
      "eagles": 7658,
      "68": 7659,
      "bite": 7660,
      "bits": 7661,
      "gory": 7662,
      "hong": 7663,
      "lb": 7664,
      "nan": 7665,
      "tel": 7666,
      "tum": 7667,
      "inau": 7668,
      "atics": 7669,
      "inge": 7670,
      "sta": 7671,
      "omination": 7672,
      "behalf": 7673,
      "liking": 7674,
      "shu": 7675,
      "images": 7676,
      "pear": 7677,
      "delet": 7678,
      "gook": 7679,
      "bled": 7680,
      "blah": 7681,
      "feb": 7682,
      "sush": 7683,
      "brag": 7684,
      "boots": 7685,
      "clot": 7686,
      "torg": 7687,
      "afc": 7688,
      "inequality": 7689,
      "spons": 7690,
      "display": 7691,
      "margin": 7692,
      "tai": 7693,
      "numer": 7694,
      "monitor": 7695,
      "countrys": 7696,
      "preview": 7697,
      "rence": 7698,
      "persian": 7699,
      "interpret": 7700,
      "centuries": 7701,
      "carto": 7702,
      "cheer": 7703,
      "statements": 7704,
      "hardly": 7705,
      "nerve": 7706,
      "kindle": 7707,
      "captured": 7708,
      "tempt": 7709,
      "creative": 7710,
      "sentenced": 7711,
      "loaded": 7712,
      "benue": 7713,
      "hillbilly": 7714,
      "statistics": 7715,
      "dressed": 7716,
      "briefing": 7717,
      "trolls": 7718,
      "hypocrite": 7719,
      "disrespectful": 7720,
      "census": 7721,
      "incredibly": 7722,
      "entertainment": 7723,
      "television": 7724,
      "assuming": 7725,
      "tactics": 7726,
      "hidden": 7727,
      "guarantee": 7728,
      "eritrean": 7729,
      "equivalent": 7730,
      "dysphoria": 7731,
      "jj": 7732,
      "oscar": 7733,
      "pad": 7734,
      "sque": 7735,
      "wand": 7736,
      "wire": 7737,
      "xon": 7738,
      "yup": 7739,
      "ان": 7740,
      "theid": 7741,
      "onic": 7742,
      "ora": 7743,
      "edit": 7744,
      "owe": 7745,
      "shire": 7746,
      "adding": 7747,
      "opp": 7748,
      "una": 7749,
      "unto": 7750,
      "abor": 7751,
      "illiter": 7752,
      "loom": 7753,
      "upper": 7754,
      "commemor": 7755,
      "ause": 7756,
      "justified": 7757,
      "assign": 7758,
      "poop": 7759,
      "exchange": 7760,
      "gee": 7761,
      "offers": 7762,
      "everytime": 7763,
      "displaced": 7764,
      "commander": 7765,
      "genius": 7766,
      "monum": 7767,
      "insight": 7768,
      "homophobe": 7769,
      "pti": 7770,
      "buzz": 7771,
      "kidding": 7772,
      "hindi": 7773,
      "steel": 7774,
      "portray": 7775,
      "missile": 7776,
      "lately": 7777,
      "moments": 7778,
      "subhuman": 7779,
      "subreddit": 7780,
      "asianhate": 7781,
      "hunting": 7782,
      "sickening": 7783,
      "streamer": 7784,
      "douche": 7785,
      "drawing": 7786,
      "questioning": 7787,
      "failing": 7788,
      "jihadist": 7789,
      "enjoyed": 7790,
      "wheel": 7791,
      "lifestyle": 7792,
      "jersey": 7793,
      "streaming": 7794,
      "junta": 7795,
      "globalist": 7796,
      "writer": 7797,
      "philos": 7798,
      "effective": 7799,
      "providing": 7800,
      "appearance": 7801,
      "waters": 7802,
      "dawn": 7803,
      "knights": 7804,
      "explosion": 7805,
      "apartheid": 7806,
      "smarter": 7807,
      "detroit": 7808,
      "aunt": 7809,
      "bird": 7810,
      "bond": 7811,
      "ij": 7812,
      "iat": 7813,
      "jess": 7814,
      "kas": 7815,
      "lunch": 7816,
      "nite": 7817,
      "pile": 7818,
      "wine": 7819,
      "wrap": 7820,
      "yang": 7821,
      "anin": 7822,
      "anna": 7823,
      "eres": 7824,
      "theo": 7825,
      "andwith": 7826,
      "chest": 7827,
      "whel": 7828,
      "iders": 7829,
      "forth": 7830,
      "uter": 7831,
      "button": 7832,
      "ody": 7833,
      "suits": 7834,
      "subt": 7835,
      "subur": 7836,
      "canon": 7837,
      "theirs": 7838,
      "toronto": 7839,
      "attach": 7840,
      "ussie": 7841,
      "naval": 7842,
      "diam": 7843,
      "perform": 7844,
      "twat": 7845,
      "uals": 7846,
      "transport": 7847,
      "insist": 7848,
      "buff": 7849,
      "ograp": 7850,
      "postpon": 7851,
      "parad": 7852,
      "curse": 7853,
      "bullied": 7854,
      "calip": 7855,
      "israelis": 7856,
      "psal": 7857,
      "hitting": 7858,
      "10000": 7859,
      "hyper": 7860,
      "panther": 7861,
      "wishing": 7862,
      "lowest": 7863,
      "hinduism": 7864,
      "teaches": 7865,
      "bombed": 7866,
      "dads": 7867,
      "drain": 7868,
      "dirt": 7869,
      "fourth": 7870,
      "brotherhood": 7871,
      "activity": 7872,
      "teenagers": 7873,
      "connected": 7874,
      "criticize": 7875,
      "kissing": 7876,
      "yelling": 7877,
      "psychopath": 7878,
      "tips": 7879,
      "agrees": 7880,
      "largely": 7881,
      "sikh": 7882,
      "employee": 7883,
      "snyder": 7884,
      "enjoying": 7885,
      "biblical": 7886,
      "minnesota": 7887,
      "breitbart": 7888,
      "600": 7889,
      "athing": 7890,
      "cish": 7891,
      "dadd": 7892,
      "foun": 7893,
      "gall": 7894,
      "gamer": 7895,
      "holl": 7896,
      "nb": 7897,
      "patch": 7898,
      "vit": 7899,
      "yog": 7900,
      "thie": 7901,
      "thumb": 7902,
      "thots": 7903,
      "thet": 7904,
      "theater": 7905,
      "ofthe": 7906,
      "chen": 7907,
      "aca": 7908,
      "aye": 7909,
      "liars": 7910,
      "deli": 7911,
      "deem": 7912,
      "deliber": 7913,
      "frame": 7914,
      "mobile": 7915,
      "priority": 7916,
      "expose": 7917,
      "2013": 7918,
      "spaces": 7919,
      "jection": 7920,
      "nail": 7921,
      "disappointed": 7922,
      "perver": 7923,
      "drown": 7924,
      "uded": 7925,
      "intended": 7926,
      "nytimes": 7927,
      "nationality": 7928,
      "politically": 7929,
      "contrad": 7930,
      "closing": 7931,
      "swamp": 7932,
      "simp": 7933,
      "listened": 7934,
      "sandnigger": 7935,
      "unique": 7936,
      "lane": 7937,
      "bench": 7938,
      "fairly": 7939,
      "returns": 7940,
      "moderate": 7941,
      "condemns": 7942,
      "originally": 7943,
      "boxing": 7944,
      "approve": 7945,
      "executed": 7946,
      "ruining": 7947,
      "tigraygenocide": 7948,
      "stormfron": 7949,
      "session": 7950,
      "rabbi": 7951,
      "mutil": 7952,
      "watford": 7953,
      "adopt": 7954,
      "wealthy": 7955,
      "rarely": 7956,
      "accidentally": 7957,
      "perpetr": 7958,
      "cousins": 7959,
      "quotes": 7960,
      "kirk": 7961,
      "universal": 7962,
      "scholar": 7963,
      "patients": 7964,
      "intentionally": 7965,
      "fruit": 7966,
      "cleansing": 7967,
      "imperial": 7968,
      "blackhistorymonth": 7969,
      "satisf": 7970,
      "libya": 7971,
      "tragedy": 7972,
      "derek": 7973,
      "opportunities": 7974,
      "taiwan": 7975,
      "dak": 7976,
      "rome": 7977,
      "rural": 7978,
      "vatic": 7979,
      "vibes": 7980,
      "infect": 7981,
      "anthem": 7982,
      "aly": 7983,
      "escap": 7984,
      "stain": 7985,
      "icc": 7986,
      "seat": 7987,
      "amit": 7988,
      "trann": 7989,
      "goats": 7990,
      "upcoming": 7991,
      "ldr": 7992,
      "iance": 7993,
      "erson": 7994,
      "raj": 7995,
      "blown": 7996,
      "odds": 7997,
      "ouri": 7998,
      "whitey": 7999,
      "bron": 8000,
      "applic": 8001,
      "coin": 8002,
      "offering": 8003,
      "limit": 8004,
      "driven": 8005,
      "talented": 8006,
      "pping": 8007,
      "choos": 8008,
      "childhood": 8009,
      "supportive": 8010,
      "matically": 8011,
      "parish": 8012,
      "damas": 8013,
      "accusing": 8014,
      "singh": 8015,
      "bullets": 8016,
      "defender": 8017,
      "nonbinary": 8018,
      "controvers": 8019,
      "frequ": 8020,
      "passport": 8021,
      "patrol": 8022,
      "collection": 8023,
      "justicefor": 8024,
      "promised": 8025,
      "crew": 8026,
      "engaged": 8027,
      "skinny": 8028,
      "existing": 8029,
      "nudes": 8030,
      "attempting": 8031,
      "shake": 8032,
      "shirts": 8033,
      "expression": 8034,
      "owski": 8035,
      "auspol": 8036,
      "hawks": 8037,
      "established": 8038,
      "jacob": 8039,
      "settlement": 8040,
      "thirsty": 8041,
      "category": 8042,
      "wrestling": 8043,
      "francisco": 8044,
      "pardon": 8045,
      "shadow": 8046,
      "electric": 8047,
      "tribal": 8048,
      "infested": 8049,
      "temporary": 8050,
      "accusations": 8051,
      "atrocities": 8052,
      "sydney": 8053,
      "tehran": 8054,
      "gatewaypundit": 8055,
      "pizza": 8056,
      "arizona": 8057,
      "vatican": 8058,
      "digg": 8059,
      "fate": 8060,
      "gary": 8061,
      "hut": 8062,
      "nz": 8063,
      "sas": 8064,
      "von": 8065,
      "wah": 8066,
      "ths": 8067,
      "injustice": 8068,
      "thent": 8069,
      "enom": 8070,
      "almighty": 8071,
      "bears": 8072,
      "ament": 8073,
      "triple": 8074,
      "etime": 8075,
      "mode": 8076,
      "comb": 8077,
      "fuckn": 8078,
      "plor": 8079,
      "plate": 8080,
      "plague": 8081,
      "suff": 8082,
      "observ": 8083,
      "wayne": 8084,
      "overwhel": 8085,
      "hockey": 8086,
      "roach": 8087,
      "epide": 8088,
      "poly": 8089,
      "permission": 8090,
      "drone": 8091,
      "sexism": 8092,
      "preference": 8093,
      "violation": 8094,
      "clothing": 8095,
      "heartless": 8096,
      "arkansas": 8097,
      "johnny": 8098,
      "classes": 8099,
      "judges": 8100,
      "install": 8101,
      "joining": 8102,
      "agreement": 8103,
      "marriages": 8104,
      "grandmother": 8105,
      "mets": 8106,
      "purple": 8107,
      "growth": 8108,
      "woods": 8109,
      "appeared": 8110,
      "dropping": 8111,
      "247": 8112,
      "blocking": 8113,
      "ancestry": 8114,
      "activities": 8115,
      "striker": 8116,
      "teenager": 8117,
      "patriotic": 8118,
      "90s": 8119,
      "practices": 8120,
      "languages": 8121,
      "confirms": 8122,
      "insults": 8123,
      "encouraged": 8124,
      "capitalism": 8125,
      "buttig": 8126,
      "hypocrites": 8127,
      "wwwstormfron": 8128,
      "veteran": 8129,
      "affirmative": 8130,
      "empowerment": 8131,
      "registered": 8132,
      "comparing": 8133,
      "focused": 8134,
      "genetic": 8135,
      "mgtow": 8136,
      "intimid": 8137,
      "conscious": 8138,
      "savior": 8139,
      "maintain": 8140,
      "vulnerable": 8141,
      "discipl": 8142,
      "masturb": 8143,
      "torgforum": 8144,
      "wwwstormfrontorgforum": 8145,
      "61": 8146,
      "84": 8147,
      "bent": 8148,
      "bally": 8149,
      "bds": 8150,
      "bott": 8151,
      "gil": 8152,
      "gie": 8153,
      "iar": 8154,
      "kong": 8155,
      "ln": 8156,
      "pper": 8157,
      "td": 8158,
      "tone": 8159,
      "task": 8160,
      "yah": 8161,
      "atas": 8162,
      "enix": 8163,
      "wheres": 8164,
      "icop": 8165,
      "adul": 8166,
      "unacceptable": 8167,
      "pets": 8168,
      "abilities": 8169,
      "prize": 8170,
      "heck": 8171,
      "wasted": 8172,
      "nowhere": 8173,
      "noise": 8174,
      "explan": 8175,
      "oko": 8176,
      "gray": 8177,
      "anytime": 8178,
      "hasht": 8179,
      "safc": 8180,
      "blacklivesmatter": 8181,
      "affected": 8182,
      "190": 8183,
      "preced": 8184,
      "islamists": 8185,
      "courts": 8186,
      "shooters": 8187,
      "defensive": 8188,
      "kinds": 8189,
      "element": 8190,
      "mindset": 8191,
      "idiotic": 8192,
      "salvation": 8193,
      "existed": 8194,
      "romantic": 8195,
      "traditions": 8196,
      "attempts": 8197,
      "rican": 8198,
      "rolling": 8199,
      "80s": 8200,
      "locals": 8201,
      "encouraging": 8202,
      "trolling": 8203,
      "constitutional": 8204,
      "chinaman": 8205,
      "automatically": 8206,
      "alternative": 8207,
      "sympathy": 8208,
      "healing": 8209,
      "antisemitic": 8210,
      "tiktok": 8211,
      "stigma": 8212,
      "schedule": 8213,
      "venezuela": 8214,
      "restaurant": 8215,
      "confederate": 8216,
      "postponed": 8217,
      "damascus": 8218,
      "controversial": 8219,
      "bump": 8220,
      "cave": 8221,
      "cpac": 8222,
      "gand": 8223,
      "gment": 8224,
      "hd": 8225,
      "iac": 8226,
      "ials": 8227,
      "jav": 8228,
      "kitch": 8229,
      "kansas": 8230,
      "nancy": 8231,
      "pour": 8232,
      "pagan": 8233,
      "raging": 8234,
      "zor": 8235,
      "iser": 8236,
      "attor": 8237,
      "itable": 8238,
      "assem": 8239,
      "stic": 8240,
      "urges": 8241,
      "opens": 8242,
      "abroad": 8243,
      "deplo": 8244,
      "doses": 8245,
      "ifer": 8246,
      "ceo": 8247,
      "comic": 8248,
      "blan": 8249,
      "whitehouse": 8250,
      "ctive": 8251,
      "answers": 8252,
      "ula": 8253,
      "warfare": 8254,
      "reds": 8255,
      "spark": 8256,
      "disguise": 8257,
      "marvel": 8258,
      "lahs": 8259,
      "eps": 8260,
      "reads": 8261,
      "goodbye": 8262,
      "mond": 8263,
      "footage": 8264,
      "helicop": 8265,
      "norway": 8266,
      "hella": 8267,
      "burden": 8268,
      "skip": 8269,
      "103": 8270,
      "compens": 8271,
      "contribute": 8272,
      "aimed": 8273,
      "demol": 8274,
      "tember": 8275,
      "speakfreely": 8276,
      "promises": 8277,
      "threaten": 8278,
      "mouths": 8279,
      "birds": 8280,
      "hairy": 8281,
      "strongly": 8282,
      "keny": 8283,
      "nukes": 8284,
      "robinson": 8285,
      "rupt": 8286,
      "hhh": 8287,
      "eliza": 8288,
      "writers": 8289,
      "features": 8290,
      "plicit": 8291,
      "jimmy": 8292,
      "productive": 8293,
      "lynch": 8294,
      "legitimate": 8295,
      "integration": 8296,
      "kidnapped": 8297,
      "libtards": 8298,
      "establishment": 8299,
      "accomplish": 8300,
      "conquer": 8301,
      "described": 8302,
      "tragic": 8303,
      "preparing": 8304,
      "jeremy": 8305,
      "september": 8306,
      "aha": 8307,
      "ciss": 8308,
      "gow": 8309,
      "honey": 8310,
      "kpop": 8311,
      "lis": 8312,
      "lal": 8313,
      "lak": 8314,
      "oon": 8315,
      "rian": 8316,
      "ugu": 8317,
      "xy": 8318,
      "inning": 8319,
      "instr": 8320,
      "remark": 8321,
      "todd": 8322,
      "edi": 8323,
      "stro": 8324,
      "stones": 8325,
      "ico": 8326,
      "icious": 8327,
      "aden": 8328,
      "imple": 8329,
      "urally": 8330,
      "loan": 8331,
      "endor": 8332,
      "butcher": 8333,
      "rescue": 8334,
      "plz": 8335,
      "mann": 8336,
      "indic": 8337,
      "pocket": 8338,
      "crus": 8339,
      "okla": 8340,
      "grip": 8341,
      "attended": 8342,
      "spurs": 8343,
      "discover": 8344,
      "topics": 8345,
      "joint": 8346,
      "prov": 8347,
      "scouts": 8348,
      "prev": 8349,
      "breathe": 8350,
      "glen": 8351,
      "sincer": 8352,
      "parking": 8353,
      "barri": 8354,
      "freaking": 8355,
      "motherfuckers": 8356,
      "bomber": 8357,
      "palm": 8358,
      "colorado": 8359,
      "vaccinated": 8360,
      "canadians": 8361,
      "cowor": 8362,
      "faithful": 8363,
      "walls": 8364,
      "kashmiris": 8365,
      "pastors": 8366,
      "articles": 8367,
      "replies": 8368,
      "aaaa": 8369,
      "celtic": 8370,
      "psycho": 8371,
      "bruce": 8372,
      "recovery": 8373,
      "rifle": 8374,
      "mongol": 8375,
      "legendary": 8376,
      "stabbed": 8377,
      "continuing": 8378,
      "croat": 8379,
      "impeachment": 8380,
      "gulf": 8381,
      "apolis": 8382,
      "creepy": 8383,
      "saudis": 8384,
      "repeatedly": 8385,
      "zealand": 8386,
      "computer": 8387,
      "sustain": 8388,
      "dignity": 8389,
      "salvador": 8390,
      "numerous": 8391,
      "buttigieg": 8392,
      "elizabeth": 8393,
      "79": 8394,
      "fand": 8395,
      "oy": 8396,
      "pto": 8397,
      "ricul": 8398,
      "tap": 8399,
      "vamp": 8400,
      "را": 8401,
      "thou": 8402,
      "anwar": 8403,
      "eration": 8404,
      "reagan": 8405,
      "alan": 8406,
      "lemon": 8407,
      "whis": 8408,
      "select": 8409,
      "shaming": 8410,
      "entered": 8411,
      "peak": 8412,
      "abol": 8413,
      "hail": 8414,
      "deals": 8415,
      "istandwith": 8416,
      "thisday": 8417,
      "hebre": 8418,
      "iana": 8419,
      "iang": 8420,
      "iano": 8421,
      "compe": 8422,
      "compete": 8423,
      "endless": 8424,
      "butter": 8425,
      "confront": 8426,
      "authent": 8427,
      "pless": 8428,
      "manhatt": 8429,
      "byn": 8430,
      "expo": 8431,
      "cracy": 8432,
      "elled": 8433,
      "akbar": 8434,
      "cole": 8435,
      "groc": 8436,
      "2010": 8437,
      "eva": 8438,
      "counting": 8439,
      "counted": 8440,
      "spar": 8441,
      "descent": 8442,
      "epstein": 8443,
      "scape": 8444,
      "drum": 8445,
      "talmud": 8446,
      "enses": 8447,
      "stopping": 8448,
      "happily": 8449,
      "homos": 8450,
      "finance": 8451,
      "phr": 8452,
      "cheese": 8453,
      "nordic": 8454,
      "accuses": 8455,
      "awak": 8456,
      "cutting": 8457,
      "cycl": 8458,
      "pays": 8459,
      "reasonable": 8460,
      "lights": 8461,
      "militia": 8462,
      "airstrikes": 8463,
      "trashy": 8464,
      "demands": 8465,
      "equip": 8466,
      "huff": 8467,
      "wishes": 8468,
      "instein": 8469,
      "theresa": 8470,
      "punjab": 8471,
      "grandparents": 8472,
      "prisoners": 8473,
      "filling": 8474,
      "gaetz": 8475,
      "snip": 8476,
      "secretly": 8477,
      "surprising": 8478,
      "struggles": 8479,
      "promotes": 8480,
      "qualify": 8481,
      "remaining": 8482,
      "semitism": 8483,
      "normally": 8484,
      "freaks": 8485,
      "strateg": 8486,
      "habit": 8487,
      "participate": 8488,
      "playoffs": 8489,
      "shameless": 8490,
      "misogynist": 8491,
      "cdn": 8492,
      "employees": 8493,
      "models": 8494,
      "olymp": 8495,
      "agencies": 8496,
      "conclusion": 8497,
      "wiped": 8498,
      "slightly": 8499,
      "scumbag": 8500,
      "chastity": 8501,
      "cabinet": 8502,
      "3000": 8503,
      "74": 8504,
      "dow": 8505,
      "dale": 8506,
      "drew": 8507,
      "fk": 8508,
      "gir": 8509,
      "gates": 8510,
      "ios": 8511,
      "kno": 8512,
      "mare": 8513,
      "rud": 8514,
      "sri": 8515,
      "tons": 8516,
      "ucl": 8517,
      "vard": 8518,
      "wp": 8519,
      "iner": 8520,
      "inas": 8521,
      "isan": 8522,
      "encer": 8523,
      "itll": 8524,
      "edoph": 8525,
      "ligh": 8526,
      "olit": 8527,
      "ione": 8528,
      "unh": 8529,
      "abs": 8530,
      "haired": 8531,
      "negr": 8532,
      "rav": 8533,
      "convo": 8534,
      "resort": 8535,
      "restore": 8536,
      "cauc": 8537,
      "warnock": 8538,
      "warrant": 8539,
      "reduce": 8540,
      "guards": 8541,
      "rett": 8542,
      "diaspor": 8543,
      "backwards": 8544,
      "muslimes": 8545,
      "liga": 8546,
      "ashed": 8547,
      "jewel": 8548,
      "athlete": 8549,
      "drip": 8550,
      "server": 8551,
      "madness": 8552,
      "turing": 8553,
      "stopasianhate": 8554,
      "pushes": 8555,
      "aze": 8556,
      "ogs": 8557,
      "hindut": 8558,
      "verses": 8559,
      "accuse": 8560,
      "swiss": 8561,
      "liberation": 8562,
      "proport": 8563,
      "remembering": 8564,
      "nsfw": 8565,
      "blew": 8566,
      "patrick": 8567,
      "welcoming": 8568,
      "cuomo": 8569,
      "trait": 8570,
      "nets": 8571,
      "dealt": 8572,
      "detained": 8573,
      "vaccination": 8574,
      "delay": 8575,
      "bisexuals": 8576,
      "fallen": 8577,
      "globe": 8578,
      "blessing": 8579,
      "audio": 8580,
      "2009": 8581,
      "crossed": 8582,
      "graves": 8583,
      "painful": 8584,
      "responding": 8585,
      "faster": 8586,
      "dressing": 8587,
      "blowing": 8588,
      "distance": 8589,
      "cells": 8590,
      "joking": 8591,
      "necessarily": 8592,
      "shouting": 8593,
      "micro": 8594,
      "aggression": 8595,
      "ricky": 8596,
      "dozen": 8597,
      "cowardly": 8598,
      "collective": 8599,
      "scientist": 8600,
      "enslave": 8601,
      "sympath": 8602,
      "relatives": 8603,
      "scenes": 8604,
      "chapter": 8605,
      "seasons": 8606,
      "kabir": 8607,
      "scprimary2020": 8608,
      "czech": 8609,
      "whistle": 8610,
      "mafia": 8611,
      "epidemic": 8612,
      "oklahom": 8613,
      "manhattan": 8614,
      "01": 8615,
      "5000": 8616,
      "700": 8617,
      "bots": 8618,
      "cdc": 8619,
      "das": 8620,
      "ffin": 8621,
      "hv": 8622,
      "jin": 8623,
      "lamp": 8624,
      "niv": 8625,
      "pmo": 8626,
      "phas": 8627,
      "pip": 8628,
      "paw": 8629,
      "sme": 8630,
      "sie": 8631,
      "sword": 8632,
      "tn": 8633,
      "vital": 8634,
      "infin": 8635,
      "react": 8636,
      "reward": 8637,
      "reverse": 8638,
      "alle": 8639,
      "choc": 8640,
      "icient": 8641,
      "seattle": 8642,
      "acid": 8643,
      "liest": 8644,
      "libs": 8645,
      "alling": 8646,
      "idels": 8647,
      "shine": 8648,
      "impress": 8649,
      "imply": 8650,
      "irrelevant": 8651,
      "opt": 8652,
      "negot": 8653,
      "moore": 8654,
      "memo": 8655,
      "resul": 8656,
      "blin": 8657,
      "fection": 8658,
      "estim": 8659,
      "exerc": 8660,
      "essential": 8661,
      "obese": 8662,
      "ivals": 8663,
      "2022": 8664,
      "clap": 8665,
      "jean": 8666,
      "izers": 8667,
      "laib": 8668,
      "dial": 8669,
      "shouldve": 8670,
      "perce": 8671,
      "tops": 8672,
      "monsters": 8673,
      "angle": 8674,
      "headline": 8675,
      "nyt": 8676,
      "proble": 8677,
      "murderous": 8678,
      "incite": 8679,
      "solar": 8680,
      "harsh": 8681,
      "damned": 8682,
      "101": 8683,
      "clock": 8684,
      "kindly": 8685,
      "lads": 8686,
      "libertar": 8687,
      "wales": 8688,
      "midnight": 8689,
      "civilian": 8690,
      "greet": 8691,
      "palma": 8692,
      "disgusted": 8693,
      "celebrity": 8694,
      "populations": 8695,
      "presented": 8696,
      "commitment": 8697,
      "refuses": 8698,
      "sooner": 8699,
      "iii": 8700,
      "closeted": 8701,
      "aborted": 8702,
      "grounds": 8703,
      "concert": 8704,
      "lifting": 8705,
      "kyle": 8706,
      "distribut": 8707,
      "pregnancy": 8708,
      "loses": 8709,
      "smartnews": 8710,
      "costs": 8711,
      "emotionally": 8712,
      "feeding": 8713,
      "apartment": 8714,
      "regularly": 8715,
      "occupation": 8716,
      "motivated": 8717,
      "ultimately": 8718,
      "pilot": 8719,
      "inspiring": 8720,
      "rankhan": 8721,
      "garden": 8722,
      "split": 8723,
      "dildo": 8724,
      "significant": 8725,
      "opponent": 8726,
      "incompetent": 8727,
      "arrogant": 8728,
      "insanity": 8729,
      "devastating": 8730,
      "cancelled": 8731,
      "vladim": 8732,
      "ambassador": 8733,
      "marginal": 8734,
      "kitchen": 8735,
      "caucasian": 8736,
      "bim": 8737,
      "cig": 8738,
      "dol": 8739,
      "drivers": 8740,
      "fh": 8741,
      "het": 8742,
      "jur": 8743,
      "lac": 8744,
      "md": 8745,
      "noun": 8746,
      "nash": 8747,
      "oom": 8748,
      "phe": 8749,
      "rs": 8750,
      "sb": 8751,
      "vas": 8752,
      "inction": 8753,
      "rell": 8754,
      "relax": 8755,
      "isi": 8756,
      "aro": 8757,
      "aray": 8758,
      "strap": 8759,
      "liv": 8760,
      "imrankhan": 8761,
      "abdu": 8762,
      "deaf": 8763,
      "mood": 8764,
      "motor": 8765,
      "mee": 8766,
      "measure": 8767,
      "rail": 8768,
      "aude": 8769,
      "coord": 8770,
      "warn": 8771,
      "overcome": 8772,
      "stops": 8773,
      "bug": 8774,
      "breast": 8775,
      "cared": 8776,
      "remlin": 8777,
      "curren": 8778,
      "curry": 8779,
      "gunmen": 8780,
      "mississ": 8781,
      "follows": 8782,
      "pointed": 8783,
      "planes": 8784,
      "horn": 8785,
      "filed": 8786,
      "midfiel": 8787,
      "respected": 8788,
      "catholicism": 8789,
      "superiority": 8790,
      "traum": 8791,
      "signing": 8792,
      "ordinary": 8793,
      "austin": 8794,
      "suspic": 8795,
      "learngerman": 8796,
      "phoenix": 8797,
      "testim": 8798,
      "production": 8799,
      "furry": 8800,
      "spectrum": 8801,
      "explained": 8802,
      "shameful": 8803,
      "discriminate": 8804,
      "harassed": 8805,
      "demons": 8806,
      "hosting": 8807,
      "investigate": 8808,
      "candy": 8809,
      "scratch": 8810,
      "conversations": 8811,
      "feature": 8812,
      "70s": 8813,
      "collabor": 8814,
      "appreciated": 8815,
      "catching": 8816,
      "slaughtered": 8817,
      "mandatory": 8818,
      "products": 8819,
      "harmful": 8820,
      "mlk": 8821,
      "embarrassment": 8822,
      "dawg": 8823,
      "knocked": 8824,
      "assistance": 8825,
      "updated": 8826,
      "scientists": 8827,
      "scripture": 8828,
      "challenges": 8829,
      "infidels": 8830,
      "carlson": 8831,
      "tackle": 8832,
      "bengal": 8833,
      "resolution": 8834,
      "stunning": 8835,
      "revelation": 8836,
      "philippines": 8837,
      "ocean": 8838,
      "library": 8839,
      "exposure": 8840,
      "unhcr": 8841,
      "diaspora": 8842,
      "78": 8843,
      "dave": 8844,
      "ec": 8845,
      "gom": 8846,
      "jason": 8847,
      "jared": 8848,
      "nra": 8849,
      "obey": 8850,
      "pf": 8851,
      "rics": 8852,
      "rival": 8853,
      "uous": 8854,
      "x20": 8855,
      "init": 8856,
      "err": 8857,
      "recon": 8858,
      "reput": 8859,
      "rebuild": 8860,
      "onom": 8861,
      "lected": 8862,
      "behave": 8863,
      "otto": 8864,
      "amate": 8865,
      "shan": 8866,
      "shite": 8867,
      "keting": 8868,
      "oped": 8869,
      "unhumanrights": 8870,
      "abdul": 8871,
      "umn": 8872,
      "deir": 8873,
      "goof": 8874,
      "hein": 8875,
      "dose": 8876,
      "uster": 8877,
      "blond": 8878,
      "nowad": 8879,
      "explicit": 8880,
      "cries": 8881,
      "crown": 8882,
      "cried": 8883,
      "donations": 8884,
      "brits": 8885,
      "somewhat": 8886,
      "appl": 8887,
      "obtain": 8888,
      "retire": 8889,
      "lookin": 8890,
      "joins": 8891,
      "ahmad": 8892,
      "milf": 8893,
      "slay": 8894,
      "carr": 8895,
      "carjack": 8896,
      "incidence": 8897,
      "awk": 8898,
      "banks": 8899,
      "lawyers": 8900,
      "charlie": 8901,
      "juice": 8902,
      "elev": 8903,
      "tennes": 8904,
      "socialists": 8905,
      "stomach": 8906,
      "cruz": 8907,
      "sunni": 8908,
      "gged": 8909,
      "locks": 8910,
      "foolish": 8911,
      "robbed": 8912,
      "spoil": 8913,
      "bagh": 8914,
      "lifes": 8915,
      "wilson": 8916,
      "junk": 8917,
      "judgement": 8918,
      "jumped": 8919,
      "sacred": 8920,
      "journalism": 8921,
      "qualified": 8922,
      "tolerate": 8923,
      "bothered": 8924,
      "stabbing": 8925,
      "crossover": 8926,
      "genuine": 8927,
      "persecuted": 8928,
      "stereotypes": 8929,
      "inspiration": 8930,
      "custody": 8931,
      "twisted": 8932,
      "occurred": 8933,
      "permanent": 8934,
      "blatant": 8935,
      "pompe": 8936,
      "subscribe": 8937,
      "dindu": 8938,
      "illiterate": 8939,
      "121": 8940,
      "900": 8941,
      "bm": 8942,
      "dates": 8943,
      "hag": 8944,
      "hence": 8945,
      "jets": 8946,
      "kha": 8947,
      "kremlin": 8948,
      "nate": 8949,
      "oth": 8950,
      "rated": 8951,
      "rss": 8952,
      "zak": 8953,
      "با": 8954,
      "reli": 8955,
      "rever": 8956,
      "onthisday": 8957,
      "issa": 8958,
      "atleast": 8959,
      "enab": 8960,
      "arre": 8961,
      "leon": 8962,
      "chess": 8963,
      "chili": 8964,
      "lia": 8965,
      "unable": 8966,
      "peters": 8967,
      "depressed": 8968,
      "weare": 8969,
      "ante": 8970,
      "comics": 8971,
      "blings": 8972,
      "odes": 8973,
      "indias": 8974,
      "expand": 8975,
      "berry": 8976,
      "bosn": 8977,
      "booty": 8978,
      "covers": 8979,
      "gras": 8980,
      "cloud": 8981,
      "timore": 8982,
      "iph": 8983,
      "scoring": 8984,
      "drops": 8985,
      "comeback": 8986,
      "posit": 8987,
      "deadass": 8988,
      "uganda": 8989,
      "carri": 8990,
      "phenom": 8991,
      "barca": 8992,
      "lemme": 8993,
      "handling": 8994,
      "survey": 8995,
      "define": 8996,
      "missouri": 8997,
      "orses": 8998,
      "differences": 8999,
      "denying": 9000,
      "halal": 9001,
      "subjected": 9002,
      "orgas": 9003,
      "patter": 9004,
      "messi": 9005,
      "promin": 9006,
      "creates": 9007,
      "naturally": 9008,
      "tweeted": 9009,
      "countless": 9010,
      "cucked": 9011,
      "argent": 9012,
      "testament": 9013,
      "organisation": 9014,
      "nike": 9015,
      "robber": 9016,
      "witz": 9017,
      "larger": 9018,
      "crypto": 9019,
      "trusted": 9020,
      "operations": 9021,
      "dresses": 9022,
      "dragon": 9023,
      "historically": 9024,
      "hrw": 9025,
      "sacr": 9026,
      "outraged": 9027,
      "bayern": 9028,
      "immediate": 9029,
      "preaching": 9030,
      "assassination": 9031,
      "normie": 9032,
      "michelle": 9033,
      "victoria": 9034,
      "mudslime": 9035,
      "malaysia": 9036,
      "morrison": 9037,
      "deleted": 9038,
      "hashtag": 9039,
      "stroke": 9040,
      "implement": 9041,
      "sincerely": 9042,
      "phrase": 9043,
      "oklahoma": 9044,
      "problematic": 9045,
      "vladimir": 9046,
      "mississip": 9047,
      "nowadays": 9048,
      "7s": 9049,
      "ao": 9050,
      "dope": 9051,
      "eze": 9052,
      "git": 9053,
      "hart": 9054,
      "iation": 9055,
      "jet": 9056,
      "jona": 9057,
      "lc": 9058,
      "mb": 9059,
      "oreg": 9060,
      "sna": 9061,
      "ub": 9062,
      "uae": 9063,
      "wif": 9064,
      "xinj": 9065,
      "zed": 9066,
      "thee": 9067,
      "theast": 9068,
      "reign": 9069,
      "ales": 9070,
      "tof": 9071,
      "toast": 9072,
      "toms": 9073,
      "ington": 9074,
      "chamber": 9075,
      "bec": 9076,
      "bek": 9077,
      "belg": 9078,
      "olate": 9079,
      "kees": 9080,
      "urgent": 9081,
      "unice": 9082,
      "unfollow": 9083,
      "absent": 9084,
      "dement": 9085,
      "decor": 9086,
      "negress": 9087,
      "iffs": 9088,
      "conforming": 9089,
      "mankind": 9090,
      "eston": 9091,
      "maid": 9092,
      "poet": 9093,
      "extr": 9094,
      "exposing": 9095,
      "bruno": 9096,
      "oblig": 9097,
      "mentions": 9098,
      "hasn": 9099,
      "clark": 9100,
      "shitting": 9101,
      "spill": 9102,
      "spics": 9103,
      "laura": 9104,
      "roc": 9105,
      "permit": 9106,
      "vibe": 9107,
      "colleg": 9108,
      "humble": 9109,
      "friendship": 9110,
      "strangers": 9111,
      "lessons": 9112,
      "iously": 9113,
      "regions": 9114,
      "smelly": 9115,
      "dub": 9116,
      "surrender": 9117,
      "demographic": 9118,
      "ception": 9119,
      "elector": 9120,
      "pakistanis": 9121,
      "messiah": 9122,
      "situ": 9123,
      "garian": 9124,
      "pense": 9125,
      "caste": 9126,
      "tested": 9127,
      "thood": 9128,
      "kicking": 9129,
      "blessings": 9130,
      "statues": 9131,
      "summit": 9132,
      "rallies": 9133,
      "violently": 9134,
      "buddh": 9135,
      "painting": 9136,
      "demonic": 9137,
      "declares": 9138,
      "empathy": 9139,
      "cleaning": 9140,
      "cruelty": 9141,
      "featuring": 9142,
      "analy": 9143,
      "documents": 9144,
      "descrip": 9145,
      "quarant": 9146,
      "desperately": 9147,
      "neighborhoods": 9148,
      "sheriff": 9149,
      "delivered": 9150,
      "ranked": 9151,
      "bernies": 9152,
      "qassem": 9153,
      "zarif": 9154,
      "tigers": 9155,
      "announcement": 9156,
      "management": 9157,
      "measures": 9158,
      "bubble": 9159,
      "cartoon": 9160,
      "cishet": 9161,
      "daddys": 9162,
      "founder": 9163,
      "trannies": 9164,
      "explanation": 9165,
      "exercise": 9166,
      "sacrific": 9167,
      "93": 9168,
      "aqu": 9169,
      "athen": 9170,
      "cers": 9171,
      "cage": 9172,
      "dling": 9173,
      "ebay": 9174,
      "gib": 9175,
      "hallow": 9176,
      "jid": 9177,
      "kink": 9178,
      "lent": 9179,
      "mute": 9180,
      "yas": 9181,
      "theor": 9182,
      "renew": 9183,
      "reference": 9184,
      "atically": 9185,
      "align": 9186,
      "leagues": 9187,
      "acqu": 9188,
      "amir": 9189,
      "shak": 9190,
      "adel": 9191,
      "olo": 9192,
      "unle": 9193,
      "unnecessary": 9194,
      "absur": 9195,
      "illah": 9196,
      "cking": 9197,
      "lobby": 9198,
      "heels": 9199,
      "wasting": 9200,
      "manu": 9201,
      "apology": 9202,
      "everton": 9203,
      "2011": 9204,
      "claude": 9205,
      "counsel": 9206,
      "ballot": 9207,
      "everyones": 9208,
      "tape": 9209,
      "twt": 9210,
      "drones": 9211,
      "angels": 9212,
      "pped": 9213,
      "firing": 9214,
      "corn": 9215,
      "corps": 9216,
      "litter": 9217,
      "communists": 9218,
      "glasses": 9219,
      "skir": 9220,
      "southcarolina": 9221,
      "household": 9222,
      "visited": 9223,
      "paedoph": 9224,
      "lgbtqia": 9225,
      "elsewhere": 9226,
      "inclusion": 9227,
      "prisons": 9228,
      "issued": 9229,
      "baltimore": 9230,
      "salah": 9231,
      "firearms": 9232,
      "tickets": 9233,
      "fails": 9234,
      "batman": 9235,
      "mmm": 9236,
      "survived": 9237,
      "representing": 9238,
      "spokes": 9239,
      "examples": 9240,
      "husbands": 9241,
      "traveling": 9242,
      "shares": 9243,
      "lifetime": 9244,
      "discussing": 9245,
      "premierleague": 9246,
      "ripped": 9247,
      "melt": 9248,
      "franch": 9249,
      "fascism": 9250,
      "fascists": 9251,
      "galatas": 9252,
      "marrying": 9253,
      "clowns": 9254,
      "expensive": 9255,
      "atlantic": 9256,
      "inspire": 9257,
      "appointment": 9258,
      "institutions": 9259,
      "oxy": 9260,
      "rodrig": 9261,
      "gathering": 9262,
      "rashid": 9263,
      "prostitute": 9264,
      "prosecut": 9265,
      "coalition": 9266,
      "rampant": 9267,
      "taxpayer": 9268,
      "uyghur": 9269,
      "charlotte": 9270,
      "diseases": 9271,
      "convenient": 9272,
      "censorship": 9273,
      "rachel": 9274,
      "junior": 9275,
      "inaugur": 9276,
      "overwhelming": 9277,
      "helicopter": 9278,
      "fandom": 9279,
      "authentic": 9280,
      "jonathan": 9281,
      "absurd": 9282,
      "83": 9283,
      "bian": 9284,
      "bould": 9285,
      "dread": 9286,
      "dnc": 9287,
      "gus": 9288,
      "hers": 9289,
      "hater": 9290,
      "iowa": 9291,
      "jug": 9292,
      "kag": 9293,
      "lust": 9294,
      "mv": 9295,
      "qatar": 9296,
      "rin": 9297,
      "sv": 9298,
      "tinder": 9299,
      "vous": 9300,
      "vint": 9301,
      "wd": 9302,
      "wen": 9303,
      "wes": 9304,
      "waz": 9305,
      "wages": 9306,
      "thu": 9307,
      "alban": 9308,
      "edu": 9309,
      "segregation": 9310,
      "shab": 9311,
      "tram": 9312,
      "tright": 9313,
      "options": 9314,
      "defam": 9315,
      "outfit": 9316,
      "neapolis": 9317,
      "gos": 9318,
      "weigh": 9319,
      "consin": 9320,
      "plastic": 9321,
      "este": 9322,
      "estate": 9323,
      "essentially": 9324,
      "donating": 9325,
      "uez": 9326,
      "20s": 9327,
      "despic": 9328,
      "labe": 9329,
      "minneapolis": 9330,
      "avo": 9331,
      "bases": 9332,
      "putins": 9333,
      "diego": 9334,
      "shipping": 9335,
      "faggotry": 9336,
      "socially": 9337,
      "solo": 9338,
      "skank": 9339,
      "swallow": 9340,
      "swift": 9341,
      "capacity": 9342,
      "denies": 9343,
      "honored": 9344,
      "tenham": 9345,
      "nights": 9346,
      "moses": 9347,
      "airs": 9348,
      "stores": 9349,
      "100000": 9350,
      "hunger": 9351,
      "fortnite": 9352,
      "proudly": 9353,
      "defined": 9354,
      "starbucks": 9355,
      "studi": 9356,
      "savebangladesh": 9357,
      "deeper": 9358,
      "kenned": 9359,
      "producing": 9360,
      "depends": 9361,
      "federation": 9362,
      "succeed": 9363,
      "discriminated": 9364,
      "extremism": 9365,
      "battles": 9366,
      "recorded": 9367,
      "reaching": 9368,
      "predomin": 9369,
      "cracker": 9370,
      "correctly": 9371,
      "papers": 9372,
      "solely": 9373,
      "jumping": 9374,
      "sweep": 9375,
      "advocates": 9376,
      "wisconsin": 9377,
      "kamal": 9378,
      "franklin": 9379,
      "bourne": 9380,
      "guts": 9381,
      "challenged": 9382,
      "sovere": 9383,
      "comparison": 9384,
      "proposed": 9385,
      "reporters": 9386,
      "exterminate": 9387,
      "bizarre": 9388,
      "prosperity": 9389,
      "zimbab": 9390,
      "forgiveness": 9391,
      "proverbs": 9392,
      "prejudice": 9393,
      "sheboon": 9394,
      "dakota": 9395,
      "attorney": 9396,
      "mississippi": 9397,
      "xinjiang": 9398,
      "unicef": 9399,
      "96": 9400,
      "cb": 9401,
      "distan": 9402,
      "fyi": 9403,
      "gel": 9404,
      "hint": 9405,
      "ike": 9406,
      "iks": 9407,
      "pione": 9408,
      "smug": 9409,
      "tick": 9410,
      "wiz": 9411,
      "xd": 9412,
      "theme": 9413,
      "oured": 9414,
      "isha": 9415,
      "isive": 9416,
      "toe": 9417,
      "eday": 9418,
      "stances": 9419,
      "whining": 9420,
      "sein": 9421,
      "amhara": 9422,
      "idgaf": 9423,
      "fuk": 9424,
      "lyrics": 9425,
      "soo": 9426,
      "soever": 9427,
      "mak": 9428,
      "assess": 9429,
      "bobby": 9430,
      "trumpis": 9431,
      "shoulder": 9432,
      "scand": 9433,
      "drome": 9434,
      "whereas": 9435,
      "choir": 9436,
      "nationals": 9437,
      "intersection": 9438,
      "morally": 9439,
      "morgan": 9440,
      "headlines": 9441,
      "carib": 9442,
      "damaged": 9443,
      "lawless": 9444,
      "burgh": 9445,
      "skins": 9446,
      "skull": 9447,
      "surge": 9448,
      "defended": 9449,
      "ears": 9450,
      "babe": 9451,
      "movements": 9452,
      "aircraft": 9453,
[...]
