{
  "version": "1.0",
  "truncation": null,
  "padding": null,
  "added_tokens": [
    {
      "id": 0,
      "content": "[UNK]",
      "single_word": false,
      "lstrip": false,
      "rstrip": false,
      "normalized": false,
      "special": true
    },
    {
      "id": 1,
      "content": "[PAD]",
      "single_word": false,
      "lstrip": false,
      "rstrip": false,
      "normalized": false,
      "special": true
    },
    {
      "id": 2,
      "content": "[CLS]",
      "single_word": false,
      "lstrip": false,
      "rstrip": false,
      "normalized": false,
      "special": true
    },
    {
      "id": 3,
      "content": "[SEP]",
      "single_word": false,
      "lstrip": false,
      "rstrip": false,
      "normalized": false,
      "special": true
    },
    {
      "id": 4,
      "content": "[MASK]",
      "single_word": false,
      "lstrip": false,
      "rstrip": false,
      "normalized": false,
      "special": true
    }
  ],
  "normalizer": null,
  "pre_tokenizer": {
    "type": "Whitespace"
  },
  "post_processor": null,
  "decoder": null,
  "model": {
    "type": "BPE",
    "dropout": null,
    "unk_token": null,
    "continuing_subword_prefix": null,
    "end_of_word_suffix": null,
    "fuse_unk": false,
    "byte_fallback": false,
    "ignore_merges": false,
    "vocab": {
      "[UNK]": 0,
      "[PAD]": 1,
      "[CLS]": 2,
      "[SEP]": 3,
      "[MASK]": 4,
      "*": 5,
      "0": 6,
      "1": 7,
      "2": 8,
      "3": 9,
      "4": 10,
      "5": 11,
      "6": 12,
      "7": 13,
      "8": 14,
      "9": 15,
      "a": 16,
      "b": 17,
      "c": 18,
      "d": 19,
      "e": 20,
      "f": 21,
      "g": 22,
      "h": 23,
      "i": 24,
      "j": 25,
      "k": 26,
      "l": 27,
      "m": 28,
      "n": 29,
      "o": 30,
      "p": 31,
      "q": 32,
      "r": 33,
      "s": 34,
      "t": 35,
      "u": 36,
      "v": 37,
      "w": 38,
      "x": 39,
      "y": 40,
      "z": 41,
      "": 42,
      "": 43,
      "": 44,
      "": 45,
      "": 46,
      "¡": 47,
      "¦": 48,
      "§": 49,
      "¨": 50,
      "©": 51,
      "ª": 52,
      "«": 53,
      "­": 54,
      "®": 55,
      "¯": 56,
      "°": 57,
      "±": 58,
      "²": 59,
      "³": 60,
      "´": 61,
      "µ": 62,
      "·": 63,
      "¸": 64,
      "¹": 65,
      "º": 66,
      "»": 67,
      "¿": 68,
      "×": 69,
      "ß": 70,
      "à": 71,
      "á": 72,
      "â": 73,
      "ã": 74,
      "ä": 75,
      "å": 76,
      "æ": 77,
      "ç": 78,
      "è": 79,
      "é": 80,
      "ê": 81,
      "ë": 82,
      "ì": 83,
      "í": 84,
      "î": 85,
      "ï": 86,
      "ð": 87,
      "ñ": 88,
      "ò": 89,
      "ó": 90,
      "ô": 91,
      "õ": 92,
      "ö": 93,
      "ø": 94,
      "ù": 95,
      "ú": 96,
      "û": 97,
      "ü": 98,
      "ý": 99,
      "þ": 100,
      "ā": 101,
      "ą": 102,
      "ć": 103,
      "č": 104,
      "ď": 105,
      "đ": 106,
      "ē": 107,
      "ė": 108,
      "ę": 109,
      "ğ": 110,
      "ĩ": 111,
      "ī": 112,
      "ı": 113,
      "ĺ": 114,
      "ļ": 115,
      "ľ": 116,
      "ł": 117,
      "ń": 118,
      "ņ": 119,
      "ō": 120,
      "ő": 121,
      "ś": 122,
      "ş": 123,
      "š": 124,
      "ũ": 125,
      "ū": 126,
      "ŭ": 127,
      "ŷ": 128,
      "ż": 129,
      "ž": 130,
      "ư": 131,
      "ɑ": 132,
      "ɔ": 133,
      "ə": 134,
      "ɛ": 135,
      "ɪ": 136,
      "ʀ": 137,
      "ʳ": 138,
      "ʸ": 139,
      "ʼ": 140,
      "ʾ": 141,
      "ˈ": 142,
      "ˡ": 143,
      "ˢ": 144,
      "̇": 145,
      "̥": 146,
      "̶": 147,
      "ά": 148,
      "α": 149,
      "β": 150,
      "γ": 151,
      "δ": 152,
      "ε": 153,
      "θ": 154,
      "ι": 155,
      "λ": 156,
      "μ": 157,
      "ν": 158,
      "ξ": 159,
      "ο": 160,
      "π": 161,
      "ρ": 162,
      "ς": 163,
      "τ": 164,
      "υ": 165,
      "ό": 166,
      "а": 167,
      "б": 168,
      "в": 169,
      "г": 170,
      "д": 171,
      "е": 172,
      "з": 173,
      "и": 174,
      "й": 175,
      "к": 176,
      "л": 177,
      "м": 178,
      "н": 179,
      "о": 180,
      "п": 181,
      "р": 182,
      "с": 183,
      "т": 184,
      "у": 185,
      "х": 186,
      "ц": 187,
      "ч": 188,
      "ш": 189,
      "щ": 190,
      "ъ": 191,
      "ы": 192,
      "ь": 193,
      "ю": 194,
      "я": 195,
      "ђ": 196,
      "і": 197,
      "ї": 198,
      "ј": 199,
      "њ": 200,
      "ա": 201,
      "բ": 202,
      "է": 203,
      "թ": 204,
      "ի": 205,
      "լ": 206,
      "ղ": 207,
      "մ": 208,
      "ն": 209,
      "ո": 210,
      "ր": 211,
      "ւ": 212,
      "ד": 213,
      "ה": 214,
      "ו": 215,
      "ח": 216,
      "י": 217,
      "ך": 218,
      "ל": 219,
      "נ": 220,
      "ע": 221,
      "ר": 222,
      "ש": 223,
      "ת": 224,
      "،": 225,
      "؟": 226,
      "ء": 227,
      "آ": 228,
      "أ": 229,
      "ؤ": 230,
      "إ": 231,
      "ئ": 232,
      "ا": 233,
      "ب": 234,
      "ة": 235,
      "ت": 236,
      "ث": 237,
      "ج": 238,
      "ح": 239,
      "خ": 240,
      "د": 241,
      "ذ": 242,
      "ر": 243,
      "ز": 244,
      "س": 245,
      "ش": 246,
      "ص": 247,
      "ض": 248,
      "ط": 249,
      "ظ": 250,
      "ع": 251,
      "غ": 252,
      "ـ": 253,
      "ف": 254,
      "ق": 255,
      "ك": 256,
      "ل": 257,
      "م": 258,
      "ن": 259,
      "ه": 260,
      "و": 261,
      "ى": 262,
      "ي": 263,
      "ً": 264,
      "ٍ": 265,
      "َ": 266,
      "ُ": 267,
      "ِ": 268,
      "ّ": 269,
      "ْ": 270,
      "١": 271,
      "٦": 272,
      "٩": 273,
      "ٰ": 274,
      "پ": 275,
      "چ": 276,
      "ڈ": 277,
      "ڑ": 278,
      "ڕ": 279,
      "ژ": 280,
      "ک": 281,
      "گ": 282,
      "ں": 283,
      "ھ": 284,
      "ہ": 285,
      "ۂ": 286,
      "ۆ": 287,
      "ی": 288,
      "ے": 289,
      "ە": 290,
      "۲": 291,
      "۵": 292,
      "۶": 293,
      "ं": 294,
      "अ": 295,
      "आ": 296,
      "उ": 297,
      "ए": 298,
      "क": 299,
      "ख": 300,
      "ग": 301,
      "च": 302,
      "छ": 303,
      "ज": 304,
      "ट": 305,
      "ड": 306,
      "ण": 307,
      "त": 308,
      "थ": 309,
      "द": 310,
      "ध": 311,
      "न": 312,
      "प": 313,
      "ब": 314,
      "भ": 315,
      "म": 316,
      "य": 317,
      "र": 318,
      "ल": 319,
      "व": 320,
      "श": 321,
      "ष": 322,
      "स": 323,
      "ह": 324,
      "़": 325,
      "ा": 326,
      "ि": 327,
      "ी": 328,
      "ु": 329,
      "ू": 330,
      "ृ": 331,
      "े": 332,
      "ै": 333,
      "ो": 334,
      "ौ": 335,
      "्": 336,
      "ॐ": 337,
      "।": 338,
      "ক": 339,
      "জ": 340,
      "ত": 341,
      "ধ": 342,
      "ন": 343,
      "প": 344,
      "ব": 345,
      "ম": 346,
      "র": 347,
      "ল": 348,
      "স": 349,
      "া": 350,
      "ি": 351,
      "ী": 352,
      "ে": 353,
      "ো": 354,
      "্": 355,
      "୭": 356,
      "ಠ": 357,
      "ก": 358,
      "ค": 359,
      "ง": 360,
      "จ": 361,
      "ซ": 362,
      "ด": 363,
      "ถ": 364,
      "น": 365,
      "ป": 366,
      "ผ": 367,
      "ฟ": 368,
      "ม": 369,
      "ย": 370,
      "ร": 371,
      "ล": 372,
      "ว": 373,
      "ห": 374,
      "อ": 375,
      "ะ": 376,
      "ั": 377,
      "า": 378,
      "ำ": 379,
      "ิ": 380,
      "ี": 381,
      "ึ": 382,
      "ุ": 383,
      "ู": 384,
      "เ": 385,
      "แ": 386,
      "่": 387,
      "้": 388,
      "๋": 389,
      "์": 390,
      "ჶ": 391,
      "ᄏ": 392,
      "ለ": 393,
      "ሉ": 394,
      "ላ": 395,
      "ል": 396,
      "ሚ": 397,
      "ም": 398,
      "ሞ": 399,
      "ረ": 400,
      "ር": 401,
      "ሮ": 402,
      "ሰ": 403,
      "ሲ": 404,
      "ስ": 405,
      "ሸ": 406,
      "ቆ": 407,
      "በ": 408,
      "ቢ": 409,
      "ባ": 410,
      "ተ": 411,
      "ታ": 412,
      "ት": 413,
      "ቸ": 414,
      "ቹ": 415,
      "ነ": 416,
      "ን": 417,
      "አ": 418,
      "እ": 419,
      "ኧ": 420,
      "ወ": 421,
      "ው": 422,
      "ዘ": 423,
      "ዛ": 424,
      "ዝ": 425,
      "የ": 426,
      "ያ": 427,
      "ዬ": 428,
      "ይ": 429,
      "ደ": 430,
      "ዳ": 431,
      "ድ": 432,
      "ግ": 433,
      "ጡ": 434,
      "ፔ": 435,
      "።": 436,
      "ᐛ": 437,
      "ᕕ": 438,
      "ᕗ": 439,
      "ᴇ": 440,
      "ᴛ": 441,
      "ᵃ": 442,
      "ᵇ": 443,
      "ᵈ": 444,
      "ᵉ": 445,
      "ᵍ": 446,
      "ᵐ": 447,
      "ᵒ": 448,
      "ᵖ": 449,
      "ᵗ": 450,
      "ᶜ": 451,
      "ᶦ": 452,
      "ḏ": 453,
      "ḥ": 454,
      "ọ": 455,
      "ớ": 456,
      "ợ": 457,
      "ụ": 458,
      "ứ": 459,
      "ἐ": 460,
      "​": 461,
      "‍": 462,
      "‏": 463,
      "‐": 464,
      "–": 465,
      "—": 466,
      "―": 467,
      "‖": 468,
      "‘": 469,
      "’": 470,
      "‚": 471,
      "„": 472,
      "•": 473,
      "․": 474,
      "‧": 475,
      "‪": 476,
      "‬": 477,
      "′": 478,
      "″": 479,
      "›": 480,
      "‼": 481,
      "‽": 482,
      "⁃": 483,
      "⁉": 484,
      "⁠": 485,
      "⁣": 486,
      "⁦": 487,
      "⁧": 488,
      "⁩": 489,
      "ⁿ": 490,
      "₅": 491,
      "₊": 492,
      "₦": 493,
      "₩": 494,
      "₹": 495,
      "⃣": 496,
      "℃": 497,
      "™": 498,
      "ℹ": 499,
      "→": 500,
      "↓": 501,
      "↔": 502,
      "↕": 503,
      "↘": 504,
      "↨": 505,
      "↪": 506,
      "↳": 507,
      "↷": 508,
      "↺": 509,
      "∘": 510,
      "∙": 511,
      "∞": 512,
      "≠": 513,
      "⊞": 514,
      "⋆": 515,
      "⌂": 516,
      "⌕": 517,
      "⌚": 518,
      "⏩": 519,
      "⏬": 520,
      "⏯": 521,
      "⏰": 522,
      "⏱": 523,
      "⏲": 524,
      "⏳": 525,
      "󠁢": 526,
      "󠁣": 527,
      "󠁥": 528,
      "󠁧": 529,
      "󠁬": 530,
      "󠁮": 531,
      "󠁳": 532,
      "󠁴": 533,
      "󠁷": 534,
      "󠁿": 535,
      "th": 536,
      "in": 537,
      "an": 538,
      "er": 539,
      "the": 540,
      "re": 541,
      "on": 542,
      "ou": 543,
      "is": 544,
      "at": 545,
      "it": 546,
      "al": 547,
      "en": 548,
      "ing": 549,
      "to": 550,
      "es": 551,
      "or": 552,
      "as": 553,
      "and": 554,
      "ed": 555,
      "ar": 556,
      "ch": 557,
      "le": 558,
      "st": 559,
      "you": 560,
      "of": 561,
      "om": 562,
      "wh": 563,
      "ic": 564,
      "be": 565,
      "se": 566,
      "il": 567,
      "ot": 568,
      "ac": 569,
      "ay": 570,
      "am": 571,
      "li": 572,
      "all": 573,
      "ve": 574,
      "ow": 575,
      "sh": 576,
      "id": 577,
      "ig": 578,
      "ad": 579,
      "tr": 580,
      "ke": 581,
      "ol": 582,
      "for": 583,
      "im": 584,
      "us": 585,
      "that": 586,
      "are": 587,
      "ion": 588,
      "el": 589,
      "ir": 590,
      "ur": 591,
      "op": 592,
      "ver": 593,
      "un": 594,
      "ut": 595,
      "ag": 596,
      "ent": 597,
      "et": 598,
      "ck": 599,
      "ill": 600,
      "ab": 601,
      "ha": 602,
      "fu": 603,
      "pe": 604,
      "ith": 605,
      "out": 606,
      "lo": 607,
      "um": 608,
      "ter": 609,
      "ne": 610,
      "ly": 611,
      "de": 612,
      "go": 613,
      "we": 614,
      "me": 615,
      "this": 616,
      "with": 617,
      "up": 618,
      "fr": 619,
      "mo": 620,
      "so": 621,
      "my": 622,
      "ist": 623,
      "ant": 624,
      "pr": 625,
      "not": 626,
      "they": 627,
      "he": 628,
      "ther": 629,
      "ld": 630,
      "do": 631,
      "if": 632,
      "one": 633,
      "ack": 634,
      "bit": 635,
      "ust": 636,
      "bitch": 637,
      "fuck": 638,
      "ce": 639,
      "ers": 640,
      "ht": 641,
      "ome": 642,
      "your": 643,
      "ian": 644,
      "ate": 645,
      "have": 646,
      "like": 647,
      "was": 648,
      "ra": 649,
      "but": 650,
      "no": 651,
      "ould": 652,
      "end": 653,
      "her": 654,
      "con": 655,
      "ation": 656,
      "oun": 657,
      "ite": 658,
      "od": 659,
      "au": 660,
      "who": 661,
      "just": 662,
      "res": 663,
      "peop": 664,
      "bl": 665,
      "man": 666,
      "fe": 667,
      "pl": 668,
      "now": 669,
      "ma": 670,
      "ass": 671,
      "people": 672,
      "get": 673,
      "ight": 674,
      "est": 675,
      "ally": 676,
      "ho": 677,
      "wor": 678,
      "com": 679,
      "ia": 680,
      "by": 681,
      "ain": 682,
      "don": 683,
      "12": 684,
      "our": 685,
      "ind": 686,
      "ex": 687,
      "su": 688,
      "po": 689,
      "igg": 690,
      "ity": 691,
      "br": 692,
      "white": 693,
      "ok": 694,
      "can": 695,
      "from": 696,
      "ess": 697,
      "ard": 698,
      "cr": 699,
      "what": 700,
      "ct": 701,
      "ell": 702,
      "some": 703,
      "will": 704,
      "art": 705,
      "ans": 706,
      "day": 707,
      "ul": 708,
      "about": 709,
      "its": 710,
      "ge": 711,
      "ap": 712,
      "ies": 713,
      "bo": 714,
      "ie": 715,
      "ak": 716,
      "nigg": 717,
      "wom": 718,
      "ue": 719,
      "ere": 720,
      "them": 721,
      "ever": 722,
      "fo": 723,
      "their": 724,
      "his": 725,
      "128": 726,
      "thing": 727,
      "ive": 728,
      "20": 729,
      "ber": 730,
      "nt": 731,
      "co": 732,
      "der": 733,
      "ort": 734,
      "ide": 735,
      "act": 736,
      "ame": 737,
      "ump": 738,
      "gr": 739,
      "got": 740,
      "uss": 741,
      "shit": 742,
      "when": 743,
      "ick": 744,
      "way": 745,
      "ast": 746,
      "gh": 747,
      "ye": 748,
      "how": 749,
      "other": 750,
      "iv": 751,
      "own": 752,
      "ink": 753,
      "cl": 754,
      "any": 755,
      "cau": 756,
      "ment": 757,
      "gay": 758,
      "dont": 759,
      "sa": 760,
      "tim": 761,
      "has": 762,
      "te": 763,
      "she": 764,
      "trump": 765,
      "kill": 766,
      "say": 767,
      "ev": 768,
      "cause": 769,
      "amer": 770,
      "more": 771,
      "ish": 772,
      "sp": 773,
      "try": 774,
      "know": 775,
      "off": 776,
      "new": 777,
      "ace": 778,
      "na": 779,
      "pro": 780,
      "1285": 781,
      "want": 782,
      "ip": 783,
      "coun": 784,
      "women": 785,
      "would": 786,
      "ice": 787,
      "americ": 788,
      "red": 789,
      "ball": 790,
      "black": 791,
      "url": 792,
      "ous": 793,
      "every": 794,
      "qu": 795,
      "tor": 796,
      "ong": 797,
      "war": 798,
      "af": 799,
      "ine": 800,
      "ro": 801,
      "than": 802,
      "see": 803,
      "att": 804,
      "gu": 805,
      "there": 806,
      "these": 807,
      "jo": 808,
      "fucking": 809,
      "ta": 810,
      "port": 811,
      "because": 812,
      "je": 813,
      "ret": 814,
      "ash": 815,
      "think": 816,
      "sel": 817,
      "pres": 818,
      "82": 819,
      "being": 820,
      "dis": 821,
      "let": 822,
      "over": 823,
      "ep": 824,
      "mar": 825,
      "hate": 826,
      "sup": 827,
      "ound": 828,
      "mus": 829,
      "ty": 830,
      "iz": 831,
      "why": 832,
      "lim": 833,
      "right": 834,
      "back": 835,
      "la": 836,
      "need": 837,
      "look": 838,
      "ful": 839,
      "king": 840,
      "ble": 841,
      "des": 842,
      "ci": 843,
      "old": 844,
      "men": 845,
      "should": 846,
      "year": 847,
      "fa": 848,
      "only": 849,
      "age": 850,
      "were": 851,
      "em": 852,
      "ence": 853,
      "ri": 854,
      "ah": 855,
      "reat": 856,
      "tw": 857,
      "call": 858,
      "then": 859,
      "mu": 860,
      "per": 861,
      "time": 862,
      "love": 863,
      "irl": 864,
      "pol": 865,
      "chr": 866,
      "read": 867,
      "again": 868,
      "top": 869,
      "min": 870,
      "ting": 871,
      "play": 872,
      "girl": 873,
      "00": 874,
      "ase": 875,
      "whi": 876,
      "did": 877,
      "ree": 878,
      "ose": 879,
      "lig": 880,
      "14": 881,
      "bitches": 882,
      "muslim": 883,
      "di": 884,
      "good": 885,
      "had": 886,
      "ang": 887,
      "vi": 888,
      "dr": 889,
      "even": 890,
      "puss": 891,
      "ys": 892,
      "been": 893,
      "mon": 894,
      "ach": 895,
      "real": 896,
      "tu": 897,
      "ild": 898,
      "christ": 899,
      "here": 900,
      "him": 901,
      "sc": 902,
      "tal": 903,
      "num": 904,
      "ple": 905,
      "ough": 906,
      "ident": 907,
      "ual": 908,
      "rac": 909,
      "jew": 910,
      "leg": 911,
      "god": 912,
      "pussy": 913,
      "sy": 914,
      "make": 915,
      "ves": 916,
      "afr": 917,
      "bet": 918,
      "attack": 919,
      "ians": 920,
      "come": 921,
      "ath": 922,
      "ope": 923,
      "world": 924,
      "too": 925,
      "ism": 926,
      "does": 927,
      "atch": 928,
      "number": 929,
      "pp": 930,
      "fag": 931,
      "ary": 932,
      "gen": 933,
      "ts": 934,
      "ks": 935,
      "most": 936,
      "mad": 937,
      "use": 938,
      "sex": 939,
      "where": 940,
      "ser": 941,
      "comm": 942,
      "after": 943,
      "lit": 944,
      "ger": 945,
      "self": 946,
      "really": 947,
      "afric": 948,
      "os": 949,
      "19": 950,
      "fore": 951,
      "ens": 952,
      "never": 953,
      "fir": 954,
      "into": 955,
      "ry": 956,
      "lie": 957,
      "ud": 958,
      "country": 959,
      "ated": 960,
      "part": 961,
      "pre": 962,
      "av": 963,
      "128514": 964,
      "med": 965,
      "mal": 966,
      "cor": 967,
      "igr": 968,
      "oll": 969,
      "many": 970,
      "ign": 971,
      "ren": 972,
      "still": 973,
      "tur": 974,
      "down": 975,
      "ender": 976,
      "stop": 977,
      "bi": 978,
      "fl": 979,
      "fer": 980,
      "cho": 981,
      "ions": 982,
      "foot": 983,
      "spe": 984,
      "trans": 985,
      "going": 986,
      "said": 987,
      "ists": 988,
      "sho": 989,
      "rap": 990,
      "happ": 991,
      "bas": 992,
      "gender": 993,
      "als": 994,
      "leag": 995,
      "those": 996,
      "oo": 997,
      "russ": 998,
      "pu": 999,
      "ving": 1000,
      "ote": 1001,
      "put": 1002,
      "life": 1003,
      "hoes": 1004,
      "league": 1005,
      "able": 1006,
      "take": 1007,
      "migr": 1008,
      "oc": 1009,
      "youre": 1010,
      "ms": 1011,
      "ons": 1012,
      "well": 1013,
      "col": 1014,
      "21": 1015,
      "int": 1016,
      "ely": 1017,
      "ins": 1018,
      "nigga": 1019,
      "fri": 1020,
      "may": 1021,
      "ug": 1022,
      "bt": 1023,
      "ny": 1024,
      "child": 1025,
      "sl": 1026,
      "football": 1027,
      "les": 1028,
      "iss": 1029,
      "against": 1030,
      "fin": 1031,
      "urch": 1032,
      "friend": 1033,
      "pers": 1034,
      "upid": 1035,
      "bor": 1036,
      "could": 1037,
      "ily": 1038,
      "mil": 1039,
      "nation": 1040,
      "stupid": 1041,
      "bu": 1042,
      "hel": 1043,
      "unt": 1044,
      "lol": 1045,
      "ating": 1046,
      "bab": 1047,
      "church": 1048,
      "ning": 1049,
      "thats": 1050,
      "ire": 1051,
      "also": 1052,
      "first": 1053,
      "pt": 1054,
      "blo": 1055,
      "ror": 1056,
      "nigger": 1057,
      "under": 1058,
      "ical": 1059,
      "ght": 1060,
      "hom": 1061,
      "faggot": 1062,
      "cant": 1063,
      "isl": 1064,
      "ways": 1065,
      "pos": 1066,
      "igh": 1067,
      "much": 1068,
      "fam": 1069,
      "head": 1070,
      "mor": 1071,
      "que": 1072,
      "start": 1073,
      "inter": 1074,
      "president": 1075,
      "thr": 1076,
      "american": 1077,
      "30": 1078,
      "hoe": 1079,
      "woman": 1080,
      "feel": 1081,
      "sm": 1082,
      "relig": 1083,
      "dead": 1084,
      "watch": 1085,
      "kid": 1086,
      "str": 1087,
      "ance": 1088,
      "hum": 1089,
      "tell": 1090,
      "killed": 1091,
      "stand": 1092,
      "tory": 1093,
      "car": 1094,
      "less": 1095,
      "today": 1096,
      "show": 1097,
      "retard": 1098,
      "immigr": 1099,
      "ial": 1100,
      "crim": 1101,
      "bad": 1102,
      "while": 1103,
      "won": 1104,
      "wr": 1105,
      "az": 1106,
      "che": 1107,
      "ants": 1108,
      "ket": 1109,
      "refu": 1110,
      "amp": 1111,
      "work": 1112,
      "mi": 1113,
      "same": 1114,
      "ious": 1115,
      "kes": 1116,
      "terror": 1117,
      "very": 1118,
      "news": 1119,
      "bre": 1120,
      "tle": 1121,
      "america": 1122,
      "fun": 1123,
      "years": 1124,
      "tro": 1125,
      "person": 1126,
      "die": 1127,
      "bod": 1128,
      "mur": 1129,
      "wa": 1130,
      "big": 1131,
      "gl": 1132,
      "ds": 1133,
      "lg": 1134,
      "great": 1135,
      "cent": 1136,
      "ft": 1137,
      "keep": 1138,
      "belie": 1139,
      "sin": 1140,
      "dick": 1141,
      "og": 1142,
      "african": 1143,
      "outh": 1144,
      "pect": 1145,
      "cu": 1146,
      "post": 1147,
      "trash": 1148,
      "christian": 1149,
      "ship": 1150,
      "refuge": 1151,
      "mat": 1152,
      "islam": 1153,
      "niggas": 1154,
      "dam": 1155,
      "shot": 1156,
      "ave": 1157,
      "bs": 1158,
      "support": 1159,
      "reg": 1160,
      "care": 1161,
      "jews": 1162,
      "par": 1163,
      "bid": 1164,
      "ph": 1165,
      "always": 1166,
      "live": 1167,
      "aw": 1168,
      "lgbt": 1169,
      "long": 1170,
      "ought": 1171,
      "via": 1172,
      "ason": 1173,
      "10": 1174,
      "before": 1175,
      "soci": 1176,
      "racist": 1177,
      "bar": 1178,
      "aint": 1179,
      "yes": 1180,
      "commun": 1181,
      "umb": 1182,
      "ates": 1183,
      "viol": 1184,
      "little": 1185,
      "mem": 1186,
      "cul": 1187,
      "another": 1188,
      "last": 1189,
      "inv": 1190,
      "better": 1191,
      "give": 1192,
      "body": 1193,
      "murder": 1194,
      "ces": 1195,
      "ved": 1196,
      "ually": 1197,
      "help": 1198,
      "which": 1199,
      "ics": 1200,
      "char": 1201,
      "ste": 1202,
      "iran": 1203,
      "vers": 1204,
      "used": 1205,
      "ress": 1206,
      "girls": 1207,
      "hell": 1208,
      "nor": 1209,
      "sk": 1210,
      "someone": 1211,
      "cle": 1212,
      "german": 1213,
      "ban": 1214,
      "ure": 1215,
      "inc": 1216,
      "chool": 1217,
      "ton": 1218,
      "boy": 1219,
      "hind": 1220,
      "har": 1221,
      "ise": 1222,
      "state": 1223,
      "human": 1224,
      "son": 1225,
      "cut": 1226,
      "ob": 1227,
      "hope": 1228,
      "two": 1229,
      "ll": 1230,
      "du": 1231,
      "mer": 1232,
      "school": 1233,
      "ters": 1234,
      "made": 1235,
      "russian": 1236,
      "ats": 1237,
      "ned": 1238,
      "arent": 1239,
      "face": 1240,
      "game": 1241,
      "find": 1242,
      "oh": 1243,
      "yall": 1244,
      "suck": 1245,
      "cur": 1246,
      "rem": 1247,
      "hard": 1248,
      "ction": 1249,
      "lot": 1250,
      "biden": 1251,
      "dy": 1252,
      "law": 1253,
      "ki": 1254,
      "8220": 1255,
      "team": 1256,
      "publ": 1257,
      "dumb": 1258,
      "ss": 1259,
      "male": 1260,
      "nothing": 1261,
      "bur": 1262,
      "ations": 1263,
      "gon": 1264,
      "sure": 1265,
      "ca": 1266,
      "ff": 1267,
      "talk": 1268,
      "comp": 1269,
      "ya": 1270,
      "8221": 1271,
      "weet": 1272,
      "land": 1273,
      "jes": 1274,
      "sing": 1275,
      "cont": 1276,
      "getting": 1277,
      "around": 1278,
      "blood": 1279,
      "children": 1280,
      "tru": 1281,
      "sen": 1282,
      "died": 1283,
      "wee": 1284,
      "aking": 1285,
      "muslims": 1286,
      "says": 1287,
      "cer": 1288,
      "best": 1289,
      "ower": 1290,
      "ask": 1291,
      "hand": 1292,
      "2020": 1293,
      "por": 1294,
      "acc": 1295,
      "ites": 1296,
      "mean": 1297,
      "something": 1298,
      "ted": 1299,
      "family": 1300,
      "gun": 1301,
      "oney": 1302,
      "syr": 1303,
      "ba": 1304,
      "win": 1305,
      "guy": 1306,
      "kids": 1307,
      "lead": 1308,
      "destro": 1309,
      "high": 1310,
      "please": 1311,
      "ina": 1312,
      "vide": 1313,
      "police": 1314,
      "illeg": 1315,
      "jesus": 1316,
      "religion": 1317,
      "app": 1318,
      "eur": 1319,
      "ull": 1320,
      "public": 1321,
      "fight": 1322,
      "cour": 1323,
      "ready": 1324,
      "vie": 1325,
      "rest": 1326,
      "must": 1327,
      "destroy": 1328,
      "wan": 1329,
      "shoot": 1330,
      "free": 1331,
      "ities": 1332,
      "ited": 1333,
      "retarded": 1334,
      "left": 1335,
      "hol": 1336,
      "ture": 1337,
      "oup": 1338,
      "home": 1339,
      "set": 1340,
      "foll": 1341,
      "chan": 1342,
      "vote": 1343,
      "hou": 1344,
      "ition": 1345,
      "national": 1346,
      "vic": 1347,
      "miss": 1348,
      "twit": 1349,
      "vid": 1350,
      "ied": 1351,
      "dif": 1352,
      "sur": 1353,
      "everyone": 1354,
      "damn": 1355,
      "follow": 1356,
      "run": 1357,
      "etto": 1358,
      "polit": 1359,
      "ear": 1360,
      "abuse": 1361,
      "basket": 1362,
      "money": 1363,
      "ghetto": 1364,
      "called": 1365,
      "da": 1366,
      "ards": 1367,
      "hob": 1368,
      "mom": 1369,
      "ors": 1370,
      "bir": 1371,
      "ner": 1372,
      "anti": 1373,
      "basketball": 1374,
      "since": 1375,
      "tow": 1376,
      "trying": 1377,
      "side": 1378,
      "americans": 1379,
      "fre": 1380,
      "def": 1381,
      "violence": 1382,
      "anyone": 1383,
      "lesb": 1384,
      "key": 1385,
      "lat": 1386,
      "cock": 1387,
      "17": 1388,
      "isra": 1389,
      "clo": 1390,
      "ings": 1391,
      "giv": 1392,
      "istan": 1393,
      "book": 1394,
      "offic": 1395,
      "bro": 1396,
      "race": 1397,
      "ib": 1398,
      "demo": 1399,
      "believe": 1400,
      "wear": 1401,
      "xt": 1402,
      "guys": 1403,
      "cum": 1404,
      "ju": 1405,
      "community": 1406,
      "lt": 1407,
      "coming": 1408,
      "such": 1409,
      "sw": 1410,
      "contr": 1411,
      "house": 1412,
      "list": 1413,
      "non": 1414,
      "friends": 1415,
      "south": 1416,
      "uk": 1417,
      "fi": 1418,
      "abs": 1419,
      "death": 1420,
      "line": 1421,
      "pret": 1422,
      "doing": 1423,
      "place": 1424,
      "member": 1425,
      "usa": 1426,
      "gover": 1427,
      "ream": 1428,
      "bra": 1429,
      "bc": 1430,
      "power": 1431,
      "actually": 1432,
      "cept": 1433,
      "far": 1434,
      "refugees": 1435,
      "cy": 1436,
      "ald": 1437,
      "haha": 1438,
      "kind": 1439,
      "open": 1440,
      "gonna": 1441,
      "lma": 1442,
      "night": 1443,
      "came": 1444,
      "ham": 1445,
      "happy": 1446,
      "pay": 1447,
      "stra": 1448,
      "dec": 1449,
      "den": 1450,
      "month": 1451,
      "ene": 1452,
      "fact": 1453,
      "thought": 1454,
      "name": 1455,
      "next": 1456,
      "group": 1457,
      "press": 1458,
      "ically": 1459,
      "wal": 1460,
      "ail": 1461,
      "saying": 1462,
      "ped": 1463,
      "rights": 1464,
      "cap": 1465,
      "point": 1466,
      "cal": 1467,
      "europe": 1468,
      "away": 1469,
      "**": 1470,
      "lad": 1471,
      "proble": 1472,
      "vot": 1473,
      "democr": 1474,
      "things": 1475,
      "immigrants": 1476,
      "uring": 1477,
      "8230": 1478,
      "differ": 1479,
      "yo": 1480,
      "ade": 1481,
      "killing": 1482,
      "through": 1483,
      "sle": 1484,
      "hal": 1485,
      "sexual": 1486,
      "prop": 1487,
      "ced": 1488,
      "plan": 1489,
      "pak": 1490,
      "hon": 1491,
      "hit": 1492,
      "yeah": 1493,
      "ness": 1494,
      "pa": 1495,
      "full": 1496,
      "doesnt": 1497,
      "twitter": 1498,
      "hor": 1499,
      "vis": 1500,
      "ones": 1501,
      "unch": 1502,
      "ents": 1503,
      "naz": 1504,
      "aim": 1505,
      "base": 1506,
      "makes": 1507,
      "ele": 1508,
      "dom": 1509,
      "tries": 1510,
      "ru": 1511,
      "wanna": 1512,
      "report": 1513,
      "zy": 1514,
      "ding": 1515,
      "ng": 1516,
      "others": 1517,
      "minis": 1518,
      "week": 1519,
      "done": 1520,
      "gener": 1521,
      "hes": 1522,
      "fil": 1523,
      "wrong": 1524,
      "maybe": 1525,
      "alth": 1526,
      "ars": 1527,
      "ames": 1528,
      "xic": 1529,
      "anything": 1530,
      "media": 1531,
      "ative": 1532,
      "rape": 1533,
      "augh": 1534,
      "mother": 1535,
      "light": 1536,
      "straight": 1537,
      "history": 1538,
      "didnt": 1539,
      "pop": 1540,
      "ago": 1541,
      "lion": 1542,
      "ots": 1543,
      "ten": 1544,
      "covid": 1545,
      "raped": 1546,
      "tf": 1547,
      "mass": 1548,
      "bible": 1549,
      "else": 1550,
      "india": 1551,
      "lu": 1552,
      "queer": 1553,
      "hi": 1554,
      "video": 1555,
      "allow": 1556,
      "ict": 1557,
      "idi": 1558,
      "18": 1559,
      "ama": 1560,
      "15": 1561,
      "mid": 1562,
      "nment": 1563,
      "both": 1564,
      "until": 1565,
      "olut": 1566,
      "pass": 1567,
      "mas": 1568,
      "led": 1569,
      "having": 1570,
      "ext": 1571,
      "eas": 1572,
      "genoc": 1573,
      "wo": 1574,
      "si": 1575,
      "ize": 1576,
      "happen": 1577,
      "talking": 1578,
      "lgbtq": 1579,
      "illegal": 1580,
      "israel": 1581,
      "days": 1582,
      "wait": 1583,
      "fat": 1584,
      "enough": 1585,
      "liber": 1586,
      "send": 1587,
      "form": 1588,
      "civ": 1589,
      "government": 1590,
      "rel": 1591,
      "val": 1592,
      "cas": 1593,
      "reason": 1594,
      "ality": 1595,
      "without": 1596,
      "donald": 1597,
      "during": 1598,
      "ps": 1599,
      "cath": 1600,
      "vir": 1601,
      "aut": 1602,
      "shes": 1603,
      "times": 1604,
      "lesbian": 1605,
      "camp": 1606,
      "ines": 1607,
      "theyre": 1608,
      "dem": 1609,
      "sub": 1610,
      "sim": 1611,
      "using": 1612,
      "mind": 1613,
      "vel": 1614,
      "respect": 1615,
      "looking": 1616,
      "ying": 1617,
      "yet": 1618,
      "whites": 1619,
      "view": 1620,
      "liter": 1621,
      "needs": 1622,
      "countries": 1623,
      "12855": 1624,
      "lets": 1625,
      "making": 1626,
      "tube": 1627,
      "sat": 1628,
      "100": 1629,
      "move": 1630,
      "cathol": 1631,
      "cons": 1632,
      "civil": 1633,
      "pride": 1634,
      "cra": 1635,
      "gy": 1636,
      "ophob": 1637,
      "genocide": 1638,
      "vs": 1639,
      "bus": 1640,
      "yourself": 1641,
      "niggers": 1642,
      "ee": 1643,
      "already": 1644,
      "thank": 1645,
      "kike": 1646,
      "lmao": 1647,
      "oud": 1648,
      "social": 1649,
      "air": 1650,
      "youtube": 1651,
      "ops": 1652,
      "cunt": 1653,
      "might": 1654,
      "young": 1655,
      "heart": 1656,
      "turn": 1657,
      "jan": 1658,
      "selves": 1659,
      "13": 1660,
      "city": 1661,
      "gree": 1662,
      "olog": 1663,
      "ti": 1664,
      "word": 1665,
      "tweet": 1666,
      "hn": 1667,
      "claim": 1668,
      "gan": 1669,
      "bom": 1670,
      "baby": 1671,
      "probab": 1672,
      "remember": 1673,
      "few": 1674,
      "ital": 1675,
      "ven": 1676,
      "march": 1677,
      "probably": 1678,
      "matter": 1679,
      "hun": 1680,
      "beat": 1681,
      "shut": 1682,
      "ni": 1683,
      "told": 1684,
      "pray": 1685,
      "16": 1686,
      "hy": 1687,
      "tem": 1688,
      "understand": 1689,
      "99": 1690,
      "uc": 1691,
      "boys": 1692,
      "milit": 1693,
      "whole": 1694,
      "found": 1695,
      "eat": 1696,
      "hot": 1697,
      "lear": 1698,
      "change": 1699,
      "pie": 1700,
      "lives": 1701,
      "sad": 1702,
      "asian": 1703,
      "resp": 1704,
      "serv": 1705,
      "gre": 1706,
      "stay": 1707,
      "crimin": 1708,
      "lil": 1709,
      "equ": 1710,
      "incl": 1711,
      "ark": 1712,
      "sto": 1713,
      "super": 1714,
      "ord": 1715,
      "ank": 1716,
      "seen": 1717,
      "hu": 1718,
      "story": 1719,
      "check": 1720,
      "mess": 1721,
      "gets": 1722,
      "john": 1723,
      "mexic": 1724,
      "quest": 1725,
      "russia": 1726,
      "ler": 1727,
      "isnt": 1728,
      "fect": 1729,
      "acy": 1730,
      "add": 1731,
      "bring": 1732,
      "deser": 1733,
      "wonder": 1734,
      "pat": 1735,
      "wish": 1736,
      "catholic": 1737,
      "least": 1738,
      "everything": 1739,
      "sor": 1740,
      "literally": 1741,
      "issu": 1742,
      "peri": 1743,
      "pretty": 1744,
      "ety": 1745,
      "once": 1746,
      "contin": 1747,
      "pic": 1748,
      "culture": 1749,
      "ised": 1750,
      "wants": 1751,
      "true": 1752,
      "jewish": 1753,
      "ile": 1754,
      "ized": 1755,
      "50": 1756,
      "ont": 1757,
      "brown": 1758,
      "class": 1759,
      "each": 1760,
      "ared": 1761,
      "blacks": 1762,
      "cit": 1763,
      "net": 1764,
      "speak": 1765,
      "baseball": 1766,
      "bull": 1767,
      "wit": 1768,
      "united": 1769,
      "coron": 1770,
      "low": 1771,
      "problem": 1772,
      "ither": 1773,
      "ugly": 1774,
      "tak": 1775,
      "slut": 1776,
      "half": 1777,
      "hear": 1778,
      "parent": 1779,
      "isis": 1780,
      "terrorist": 1781,
      "gg": 1782,
      "sport": 1783,
      "wel": 1784,
      "engl": 1785,
      "leave": 1786,
      "mag": 1787,
      "ester": 1788,
      "gress": 1789,
      "different": 1790,
      "though": 1791,
      "ife": 1792,
      "sound": 1793,
      "ali": 1794,
      "ison": 1795,
      "looks": 1796,
      "sick": 1797,
      "ority": 1798,
      "cru": 1799,
      "rid": 1800,
      "arch": 1801,
      "ween": 1802,
      "ling": 1803,
      "pet": 1804,
      "tra": 1805,
      "11": 1806,
      "ult": 1807,
      "aa": 1808,
      "gust": 1809,
      "ages": 1810,
      "ject": 1811,
      "joe": 1812,
      "bers": 1813,
      "pakistan": 1814,
      "sla": 1815,
      "beaut": 1816,
      "tain": 1817,
      "playing": 1818,
      "han": 1819,
      "zz": 1820,
      "femin": 1821,
      "party": 1822,
      "between": 1823,
      "pan": 1824,
      "eth": 1825,
      "sit": 1826,
      "sun": 1827,
      "listen": 1828,
      "cre": 1829,
      "sign": 1830,
      "cond": 1831,
      "female": 1832,
      "crime": 1833,
      "nic": 1834,
      "pal": 1835,
      "dog": 1836,
      "sal": 1837,
      "comes": 1838,
      "lebr": 1839,
      "peace": 1840,
      "cess": 1841,
      "gt": 1842,
      "went": 1843,
      "health": 1844,
      "job": 1845,
      "stud": 1846,
      "mit": 1847,
      "ier": 1848,
      "hey": 1849,
      "cover": 1850,
      "prote": 1851,
      "colle": 1852,
      "clear": 1853,
      "ji": 1854,
      "prom": 1855,
      "tho": 1856,
      "theres": 1857,
      "sand": 1858,
      "ww": 1859,
      "plain": 1860,
      "calling": 1861,
      "dad": 1862,
      "maj": 1863,
      "skin": 1864,
      "jud": 1865,
      "lies": 1866,
      "fort": 1867,
      "homophob": 1868,
      "bal": 1869,
      "citiz": 1870,
      "stu": 1871,
      "ime": 1872,
      "clash": 1873,
      "fake": 1874,
      "nat": 1875,
      "dle": 1876,
      "wont": 1877,
      "fc": 1878,
      "aust": 1879,
      "hold": 1880,
      "republic": 1881,
      "stre": 1882,
      "gin": 1883,
      "ility": 1884,
      "justice": 1885,
      "nig": 1886,
      "vent": 1887,
      "ments": 1888,
      "break": 1889,
      "brit": 1890,
      "themselves": 1891,
      "guess": 1892,
      "treat": 1893,
      "hair": 1894,
      "sis": 1895,
      "mis": 1896,
      "nu": 1897,
      "ater": 1898,
      "syria": 1899,
      "build": 1900,
      "inste": 1901,
      "star": 1902,
      "racism": 1903,
      "sorry": 1904,
      "ko": 1905,
      "vo": 1906,
      "belief": 1907,
      "teach": 1908,
      "dude": 1909,
      "som": 1910,
      "ault": 1911,
      "eng": 1912,
      "ley": 1913,
      "creat": 1914,
      "dou": 1915,
      "inst": 1916,
      "iness": 1917,
      "fac": 1918,
      "fire": 1919,
      "wtf": 1920,
      "military": 1921,
      "io": 1922,
      "nice": 1923,
      "avir": 1924,
      "wife": 1925,
      "disgust": 1926,
      "christians": 1927,
      "born": 1928,
      "refugee": 1929,
      "1280": 1930,
      "action": 1931,
      "ris": 1932,
      "ird": 1933,
      "idiot": 1934,
      "aid": 1935,
      "ives": 1936,
      "color": 1937,
      "hindu": 1938,
      "avirus": 1939,
      "ional": 1940,
      "border": 1941,
      "ands": 1942,
      "els": 1943,
      "gays": 1944,
      "victim": 1945,
      "ef": 1946,
      "iful": 1947,
      "threat": 1948,
      "funny": 1949,
      "celebr": 1950,
      "cus": 1951,
      "tar": 1952,
      "coronavirus": 1953,
      "parents": 1954,
      "season": 1955,
      "tom": 1956,
      "bill": 1957,
      "gn": 1958,
      "fucked": 1959,
      "watching": 1960,
      "mouth": 1961,
      "ider": 1962,
      "gar": 1963,
      "piece": 1964,
      "ann": 1965,
      "indian": 1966,
      "front": 1967,
      "plo": 1968,
      "ator": 1969,
      "deal": 1970,
      "mir": 1971,
      "etc": 1972,
      "count": 1973,
      "instead": 1974,
      "uni": 1975,
      "ief": 1976,
      "bomb": 1977,
      "fav": 1978,
      "dra": 1979,
      "ram": 1980,
      "million": 1981,
      "either": 1982,
      "dan": 1983,
      "sold": 1984,
      "father": 1985,
      "pm": 1986,
      "middle": 1987,
      "beautiful": 1988,
      "took": 1989,
      "ellow": 1990,
      "ster": 1991,
      "become": 1992,
      "africa": 1993,
      "sent": 1994,
      "serious": 1995,
      "25": 1996,
      "thanks": 1997,
      "popul": 1998,
      "proud": 1999,
      "china": 2000,
      "deport": 2001,
      "lost": 2002,
      "clu": 2003,
      "faggots": 2004,
      "west": 2005,
      "ended": 2006,
      "vil": 2007,
      "suprem": 2008,
      "toge": 2009,
      "nazi": 2010,
      "means": 2011,
      "throw": 2012,
      "together": 2013,
      "ns": 2014,
      "import": 2015,
      "ech": 2016,
      "accept": 2017,
      "hur": 2018,
      "defin": 2019,
      "syrian": 2020,
      "evil": 2021,
      "imag": 2022,
      "ending": 2023,
      "present": 2024,
      "saw": 2025,
      "det": 2026,
      "mc": 2027,
      "rect": 2028,
      "hh": 2029,
      "sou": 2030,
      "religious": 2031,
      "living": 2032,
      "marri": 2033,
      "rich": 2034,
      "lock": 2035,
      "ii": 2036,
      "gotta": 2037,
      "based": 2038,
      "pot": 2039,
      "states": 2040,
      "wash": 2041,
      "single": 2042,
      "adv": 2043,
      "join": 2044,
      "wanted": 2045,
      "pen": 2046,
      "yan": 2047,
      "music": 2048,
      "osex": 2049,
      "commit": 2050,
      "control": 2051,
      "street": 2052,
      "fuckin": 2053,
      "ppl": 2054,
      "row": 2055,
      "cou": 2056,
      "step": 2057,
      "rad": 2058,
      "agree": 2059,
      "gone": 2060,
      "hood": 2061,
      "worth": 2062,
      "prot": 2063,
      "foreign": 2064,
      "east": 2065,
      "spir": 2066,
      "oooo": 2067,
      "protect": 2068,
      "nn": 2069,
      "pun": 2070,
      "interest": 2071,
      "osexual": 2072,
      "ond": 2073,
      "arab": 2074,
      "educ": 2075,
      "ific": 2076,
      "taking": 2077,
      "fully": 2078,
      "disgusting": 2079,
      "truth": 2080,
      "bb": 2081,
      "lan": 2082,
      "mosle": 2083,
      "grand": 2084,
      "cial": 2085,
      "fan": 2086,
      "met": 2087,
      "meet": 2088,
      "near": 2089,
      "bullshit": 2090,
      "allah": 2091,
      "transgender": 2092,
      "iranian": 2093,
      "del": 2094,
      "vacc": 2095,
      "absolut": 2096,
      "lying": 2097,
      "attacked": 2098,
      "immigrant": 2099,
      "cast": 2100,
      "greek": 2101,
      "tv": 2102,
      "andgt": 2103,
      "31": 2104,
      "arg": 2105,
      "second": 2106,
      "poor": 2107,
      "bigg": 2108,
      "vin": 2109,
      "nam": 2110,
      "inju": 2111,
      "myself": 2112,
      "fol": 2113,
      "sch": 2114,
      "whore": 2115,
      "ik": 2116,
      "sus": 2117,
      "three": 2118,
      "exual": 2119,
      "crazy": 2120,
      "force": 2121,
      "injured": 2122,
      "asians": 2123,
      "bout": 2124,
      "tic": 2125,
      "gang": 2126,
      "thinking": 2127,
      "bru": 2128,
      "learn": 2129,
      "san": 2130,
      "army": 2131,
      "prof": 2132,
      "room": 2133,
      "bul": 2134,
      "case": 2135,
      "ref": 2136,
      "stem": 2137,
      "wer": 2138,
      "goes": 2139,
      "pur": 2140,
      "ues": 2141,
      "conf": 2142,
      "joy": 2143,
      "24": 2144,
      "cuck": 2145,
      "128557": 2146,
      "tors": 2147,
      "pho": 2148,
      "pick": 2149,
      "destroyed": 2150,
      "town": 2151,
      "rent": 2152,
      "soon": 2153,
      "main": 2154,
      "bis": 2155,
      "tax": 2156,
      "words": 2157,
      "ping": 2158,
      "expect": 2159,
      "test": 2160,
      "rep": 2161,
      "behind": 2162,
      "ention": 2163,
      "terrorism": 2164,
      "cially": 2165,
      "murdered": 2166,
      "business": 2167,
      "ken": 2168,
      "deep": 2169,
      "exist": 2170,
      "tonight": 2171,
      "brain": 2172,
      "amaz": 2173,
      "society": 2174,
      "almost": 2175,
      "started": 2176,
      "heard": 2177,
      "honest": 2178,
      "wood": 2179,
      "cow": 2180,
      "dat": 2181,
      "experi": 2182,
      "save": 2183,
      "oss": 2184,
      "div": 2185,
      "ls": 2186,
      "ense": 2187,
      "favor": 2188,
      "gro": 2189,
      "grow": 2190,
      "morning": 2191,
      "consider": 2192,
      "college": 2193,
      "2021": 2194,
      "course": 2195,
      "thous": 2196,
      "espe": 2197,
      "includ": 2198,
      "date": 2199,
      "fall": 2200,
      "nd": 2201,
      "squ": 2202,
      "small": 2203,
      "sports": 2204,
      "cen": 2205,
      "wed": 2206,
      "ze": 2207,
      "icul": 2208,
      "entire": 2209,
      "males": 2210,
      "posed": 2211,
      "sec": 2212,
      "working": 2213,
      "geor": 2214,
      "ately": 2215,
      "order": 2216,
      "priv": 2217,
      "flo": 2218,
      "beli": 2219,
      "lin": 2220,
      "rom": 2221,
      "dir": 2222,
      "champ": 2223,
      "arrest": 2224,
      "aged": 2225,
      "political": 2226,
      "bunch": 2227,
      "fit": 2228,
      "fut": 2229,
      "ese": 2230,
      "strong": 2231,
      "stor": 2232,
      "plac": 2233,
      "question": 2234,
      "ged": 2235,
      "ders": 2236,
      "ga": 2237,
      "anim": 2238,
      "anger": 2239,
      "leader": 2240,
      "kk": 2241,
      "mr": 2242,
      "cool": 2243,
      "past": 2244,
      "giving": 2245,
      "sum": 2246,
      "kick": 2247,
      "ible": 2248,
      "system": 2249,
      "ran": 2250,
      "walk": 2251,
      "food": 2252,
      "band": 2253,
      "armen": 2254,
      "exc": 2255,
      "speech": 2256,
      "sn": 2257,
      "cha": 2258,
      "especially": 2259,
      "ney": 2260,
      "canad": 2261,
      "fail": 2262,
      "imagine": 2263,
      "birth": 2264,
      "whats": 2265,
      "minister": 2266,
      "drop": 2267,
      "english": 2268,
      "song": 2269,
      "faith": 2270,
      "important": 2271,
      "short": 2272,
      "okay": 2273,
      "democrats": 2274,
      "ale": 2275,
      "close": 2276,
      "assault": 2277,
      "fans": 2278,
      "iers": 2279,
      "homosexual": 2280,
      "hill": 2281,
      "shar": 2282,
      "ben": 2283,
      "ward": 2284,
      "vious": 2285,
      "cil": 2286,
      "germany": 2287,
      "jihad": 2288,
      "esday": 2289,
      "tit": 2290,
      "former": 2291,
      "shole": 2292,
      "fiel": 2293,
      "relation": 2294,
      "versity": 2295,
      "bol": 2296,
      "asshole": 2297,
      "bisexual": 2298,
      "fill": 2299,
      "ino": 2300,
      "obama": 2301,
      "moslem": 2302,
      "29": 2303,
      "rather": 2304,
      "cup": 2305,
      "deserve": 2306,
      "esh": 2307,
      "ends": 2308,
      "hour": 2309,
      "ignor": 2310,
      "atic": 2311,
      "aughter": 2312,
      "fool": 2313,
      "tration": 2314,
      "due": 2315,
      "ior": 2316,
      "mm": 2317,
      "wow": 2318,
      "spread": 2319,
      "push": 2320,
      "cuz": 2321,
      "xx": 2322,
      "fair": 2323,
      "alone": 2324,
      "seems": 2325,
      "iting": 2326,
      "trust": 2327,
      "pose": 2328,
      "dark": 2329,
      "bang": 2330,
      "block": 2331,
      "organ": 2332,
      "odu": 2333,
      "exact": 2334,
      "kar": 2335,
      "crit": 2336,
      "appe": 2337,
      "islamic": 2338,
      "wall": 2339,
      "secur": 2340,
      "bless": 2341,
      "prison": 2342,
      "flag": 2343,
      "cute": 2344,
      "holy": 2345,
      "photo": 2346,
      "load": 2347,
      "ross": 2348,
      "earth": 2349,
      "ja": 2350,
      "ky": 2351,
      "lions": 2352,
      "wouldnt": 2353,
      "glo": 2354,
      "arabs": 2355,
      "terrorists": 2356,
      "donaldtrump": 2357,
      "stuff": 2358,
      "ming": 2359,
      "ott": 2360,
      "abort": 2361,
      "players": 2362,
      "itut": 2363,
      "23": 2364,
      "gave": 2365,
      "games": 2366,
      "ira": 2367,
      "relationship": 2368,
      "jack": 2369,
      "ker": 2370,
      "pull": 2371,
      "ology": 2372,
      "88": 2373,
      "knew": 2374,
      "round": 2375,
      "idea": 2376,
      "water": 2377,
      "online": 2378,
      "future": 2379,
      "poin": 2380,
      "court": 2381,
      "gop": 2382,
      "const": 2383,
      "telling": 2384,
      "freed": 2385,
      "ground": 2386,
      "crimes": 2387,
      "laugh": 2388,
      "level": 2389,
      "safe": 2390,
      "asy": 2391,
      "player": 2392,
      "whate": 2393,
      "mix": 2394,
      "lord": 2395,
      "40": 2396,
      "train": 2397,
      "blue": 2398,
      "ides": 2399,
      "gov": 2400,
      "ify": 2401,
      "nobody": 2402,
      "club": 2403,
      "hil": 2404,
      "ka": 2405,
      "whatever": 2406,
      "cold": 2407,
      "chang": 2408,
      "lm": 2409,
      "ws": 2410,
      "africans": 2411,
      "fighting": 2412,
      "bow": 2413,
      "type": 2414,
      "mp": 2415,
      "rev": 2416,
      "minut": 2417,
      "000": 2418,
      "jail": 2419,
      "ony": 2420,
      "arr": 2421,
      "oles": 2422,
      "given": 2423,
      "hat": 2424,
      "along": 2425,
      "liver": 2426,
      "shows": 2427,
      "27": 2428,
      "bed": 2429,
      "seeing": 2430,
      "lady": 2431,
      "security": 2432,
      "rele": 2433,
      "supremac": 2434,
      "bil": 2435,
      "chick": 2436,
      "ghan": 2437,
      "sense": 2438,
      "stat": 2439,
      "aul": 2440,
      "cry": 2441,
      "known": 2442,
      "members": 2443,
      "liberal": 2444,
      "weak": 2445,
      "hole": 2446,
      "four": 2447,
      "chines": 2448,
      "bel": 2449,
      "brother": 2450,
      "turkey": 2451,
      "knows": 2452,
      "bat": 2453,
      "gi": 2454,
      "lon": 2455,
      "ford": 2456,
      "myan": 2457,
      "conserv": 2458,
      "comment": 2459,
      "freedom": 2460,
      "bird": 2461,
      "nal": 2462,
      "sil": 2463,
      "attr": 2464,
      "realdonaldtrump": 2465,
      "itch": 2466,
      "worst": 2467,
      "ished": 2468,
      "luck": 2469,
      "welcome": 2470,
      "protest": 2471,
      "link": 2472,
      "tex": 2473,
      "bag": 2474,
      "imes": 2475,
      "aren": 2476,
      "mark": 2477,
      "including": 2478,
      "dirty": 2479,
      "hero": 2480,
      "angel": 2481,
      "dream": 2482,
      "ount": 2483,
      "12807": 2484,
      "surpr": 2485,
      "thousands": 2486,
      "opin": 2487,
      "cannot": 2488,
      "daily": 2489,
      "flu": 2490,
      "search": 2491,
      "neck": 2492,
      "ified": 2493,
      "myanmar": 2494,
      "wester": 2495,
      "doc": 2496,
      "worse": 2497,
      "possi": 2498,
      "definit": 2499,
      "cop": 2500,
      "fed": 2501,
      "mail": 2502,
      "ization": 2503,
      "wing": 2504,
      "ory": 2505,
      "dep": 2506,
      "fur": 2507,
      "yr": 2508,
      "drug": 2509,
      "allowed": 2510,
      "olution": 2511,
      "respons": 2512,
      "possible": 2513,
      "kash": 2514,
      "charac": 2515,
      "ening": 2516,
      "across": 2517,
      "fear": 2518,
      "anda": 2519,
      "tral": 2520,
      "movie": 2521,
      "retur": 2522,
      "invest": 2523,
      "suppor": 2524,
      "immigration": 2525,
      "soldiers": 2526,
      "bud": 2527,
      "rup": 2528,
      "sau": 2529,
      "suf": 2530,
      "gram": 2531,
      "bin": 2532,
      "itive": 2533,
      "cted": 2534,
      "final": 2535,
      "asked": 2536,
      "porn": 2537,
      "satan": 2538,
      "chinese": 2539,
      "lar": 2540,
      "eyes": 2541,
      "hop": 2542,
      "yor": 2543,
      "auth": 2544,
      "council": 2545,
      "believ": 2546,
      "issue": 2547,
      "rt": 2548,
      "forget": 2549,
      "enter": 2550,
      "pool": 2551,
      "muzz": 2552,
      "special": 2553,
      "western": 2554,
      "eu": 2555,
      "polic": 2556,
      "intel": 2557,
      "mart": 2558,
      "tried": 2559,
      "gry": 2560,
      "finally": 2561,
      "buy": 2562,
      "palest": 2563,
      "definitely": 2564,
      "22": 2565,
      "conom": 2566,
      "200": 2567,
      "famil": 2568,
      "politics": 2569,
      "niger": 2570,
      "neigh": 2571,
      "cording": 2572,
      "yanke": 2573,
      "enjoy": 2574,
      "lee": 2575,
      "wasnt": 2576,
      "trumps": 2577,
      "north": 2578,
      "current": 2579,
      "crack": 2580,
      "econom": 2581,
      "spo": 2582,
      "inno": 2583,
      "uses": 2584,
      "hands": 2585,
      "continue": 2586,
      "remind": 2587,
      "gas": 2588,
      "nas": 2589,
      "pand": 2590,
      "yal": 2591,
      "bey": 2592,
      "host": 2593,
      "certain": 2594,
      "general": 2595,
      "couple": 2596,
      "reas": 2597,
      "stick": 2598,
      "happened": 2599,
      "bot": 2600,
      "jer": 2601,
      "ply": 2602,
      "ane": 2603,
      "istic": 2604,
      "inside": 2605,
      "burn": 2606,
      "sleep": 2607,
      "vaccine": 2608,
      "ore": 2609,
      "attacks": 2610,
      "prim": 2611,
      "offici": 2612,
      "39": 2613,
      "pas": 2614,
      "ided": 2615,
      "weird": 2616,
      "mental": 2617,
      "nah": 2618,
      "bes": 2619,
      "cis": 2620,
      "cing": 2621,
      "recent": 2622,
      "absolutely": 2623,
      "kashmir": 2624,
      "ences": 2625,
      "nazis": 2626,
      "issues": 2627,
      "kur": 2628,
      "ole": 2629,
      "concer": 2630,
      "surv": 2631,
      "piss": 2632,
      "ances": 2633,
      "gab": 2634,
      "sol": 2635,
      "liam": 2636,
      "outside": 2637,
      "citizens": 2638,
      "athe": 2639,
      "match": 2640,
      "wil": 2641,
      "attention": 2642,
      "somet": 2643,
      "target": 2644,
      "produ": 2645,
      "rock": 2646,
      "joke": 2647,
      "suffer": 2648,
      "nast": 2649,
      "cross": 2650,
      "played": 2651,
      "racial": 2652,
      "amazing": 2653,
      "among": 2654,
      "iraq": 2655,
      "iest": 2656,
      "forced": 2657,
      "goal": 2658,
      "spec": 2659,
      "rul": 2660,
      "yy": 2661,
      "legal": 2662,
      "breaking": 2663,
      "eless": 2664,
      "regard": 2665,
      "running": 2666,
      "early": 2667,
      "wearing": 2668,
      "fine": 2669,
      "blame": 2670,
      "artic": 2671,
      "exactly": 2672,
      "cuss": 2673,
      "whe": 2674,
      "negro": 2675,
      "nie": 2676,
      "tin": 2677,
      "uck": 2678,
      "sty": 2679,
      "according": 2680,
      "himself": 2681,
      "tired": 2682,
      "taken": 2683,
      "45": 2684,
      "represent": 2685,
      "shooting": 2686,
      "sounds": 2687,
      "dress": 2688,
      "ging": 2689,
      "gra": 2690,
      "heav": 2691,
      "thinks": 2692,
      "26": 2693,
      "urs": 2694,
      "unk": 2695,
      "field": 2696,
      "iq": 2697,
      "van": 2698,
      "rew": 2699,
      "activ": 2700,
      "lmfa": 2701,
      "ibut": 2702,
      "exe": 2703,
      "except": 2704,
      "drink": 2705,
      "huge": 2706,
      "ures": 2707,
      "explain": 2708,
      "coach": 2709,
      "none": 2710,
      "smo": 2711,
      "lif": 2712,
      "suc": 2713,
      "fig": 2714,
      "thetic": 2715,
      "rece": 2716,
      "stri": 2717,
      "127": 2718,
      "box": 2719,
      "2019": 2720,
      "izing": 2721,
      "smh": 2722,
      "bai": 2723,
      "mexico": 2724,
      "favorite": 2725,
      "till": 2726,
      "congress": 2727,
      "babies": 2728,
      "election": 2729,
      "seriously": 2730,
      "population": 2731,
      "area": 2732,
      "exam": 2733,
      "teen": 2734,
      "dav": 2735,
      "tion": 2736,
      "eter": 2737,
      "local": 2738,
      "80": 2739,
      "nut": 2740,
      "wi": 2741,
      "azer": 2742,
      "dit": 2743,
      "mine": 2744,
      "account": 2745,
      "ury": 2746,
      "rain": 2747,
      "obvious": 2748,
      "cam": 2749,
      "hus": 2750,
      "sci": 2751,
      "fant": 2752,
      "pig": 2753,
      "calls": 2754,
      "folks": 2755,
      "honestly": 2756,
      "rip": 2757,
      "shame": 2758,
      "likely": 2759,
      "morrow": 2760,
      "phone": 2761,
      "beliefs": 2762,
      "kin": 2763,
      "ral": 2764,
      "share": 2765,
      "rible": 2766,
      "33": 2767,
      "doll": 2768,
      "trad": 2769,
      "perfect": 2770,
      "official": 2771,
      "innocent": 2772,
      "sometimes": 2773,
      "late": 2774,
      "acting": 2775,
      "normal": 2776,
      "british": 2777,
      "tomorrow": 2778,
      "imp": 2779,
      "lose": 2780,
      "majority": 2781,
      "eli": 2782,
      "hang": 2783,
      "sco": 2784,
      "za": 2785,
      "ani": 2786,
      "trave": 2787,
      "homophobic": 2788,
      "experience": 2789,
      "dc": 2790,
      "va": 2791,
      "verse": 2792,
      "turk": 2793,
      "clean": 2794,
      "takes": 2795,
      "victims": 2796,
      "secret": 2797,
      "european": 2798,
      "90": 2799,
      "gold": 2800,
      "ival": 2801,
      "office": 2802,
      "rench": 2803,
      "washing": 2804,
      "ient": 2805,
      "pregn": 2806,
      "complet": 2807,
      "broke": 2808,
      "groups": 2809,
      "message": 2810,
      "citizen": 2811,
      "aign": 2812,
      "kel": 2813,
      "forces": 2814,
      "leaders": 2815,
      "60": 2816,
      "sever": 2817,
      "points": 2818,
      "york": 2819,
      "ges": 2820,
      "ples": 2821,
      "glad": 2822,
      "nasty": 2823,
      "card": 2824,
      "ired": 2825,
      "ered": 2826,
      "blow": 2827,
      "comple": 2828,
      "aff": 2829,
      "ibility": 2830,
      "biggest": 2831,
      "millions": 2832,
      "wake": 2833,
      "fel": 2834,
      "ived": 2835,
      "jour": 2836,
      "rat": 2837,
      "vill": 2838,
      "orities": 2839,
      "works": 2840,
      "christianity": 2841,
      "later": 2842,
      "roll": 2843,
      "brut": 2844,
      "reading": 2845,
      "tures": 2846,
      "laws": 2847,
      "easy": 2848,
      "service": 2849,
      "sunday": 2850,
      "itor": 2851,
      "tech": 2852,
      "guns": 2853,
      "pathetic": 2854,
      "1st": 2855,
      "ahead": 2856,
      "violent": 2857,
      "campaign": 2858,
      "orig": 2859,
      "ilt": 2860,
      "discrimin": 2861,
      "128553": 2862,
      "cand": 2863,
      "jay": 2864,
      "chance": 2865,
      "worship": 2866,
      "politic": 2867,
      "azerbai": 2868,
      "sam": 2869,
      "premi": 2870,
      "months": 2871,
      "ners": 2872,
      "cel": 2873,
      "trip": 2874,
      "towards": 2875,
      "fal": 2876,
      "yellow": 2877,
      "ision": 2878,
      "filth": 2879,
      "ouch": 2880,
      "ades": 2881,
      "oper": 2882,
      "12817": 2883,
      "mention": 2884,
      "rand": 2885,
      "females": 2886,
      "event": 2887,
      "green": 2888,
      "equality": 2889,
      "fox": 2890,
      "percent": 2891,
      "cord": 2892,
      "happens": 2893,
      "international": 2894,
      "following": 2895,
      "families": 2896,
      "cc": 2897,
      "mel": 2898,
      "identity": 2899,
      "ake": 2900,
      "idence": 2901,
      "demon": 2902,
      "canada": 2903,
      "azerbaijan": 2904,
      "mult": 2905,
      "abo": 2906,
      "turned": 2907,
      "extrem": 2908,
      "patri": 2909,
      "spirit": 2910,
      "cat": 2911,
      "harass": 2912,
      "truly": 2913,
      "stream": 2914,
      "antly": 2915,
      "fast": 2916,
      "devil": 2917,
      "answer": 2918,
      "tour": 2919,
      "active": 2920,
      "anyway": 2921,
      "balls": 2922,
      "discuss": 2923,
      "charlie": 2924,
      "hurt": 2925,
      "neighbor": 2926,
      "ery": 2927,
      "ency": 2928,
      "tot": 2929,
      "ased": 2930,
      "drag": 2931,
      "fas": 2932,
      "ric": 2933,
      "ising": 2934,
      "ima": 2935,
      "putin": 2936,
      "hours": 2937,
      "yankees": 2938,
      "article": 2939,
      "nel": 2940,
      "alleg": 2941,
      "dyke": 2942,
      "64": 2943,
      "ude": 2944,
      "los": 2945,
      "everybody": 2946,
      "quick": 2947,
      "moment": 2948,
      "batt": 2949,
      "hs": 2950,
      "judge": 2951,
      "langu": 2952,
      "thread": 2953,
      "direct": 2954,
      "schools": 2955,
      "ener": 2956,
      "pract": 2957,
      "fellow": 2958,
      "pain": 2959,
      "womens": 2960,
      "global": 2961,
      "adminis": 2962,
      "invol": 2963,
      "icide": 2964,
      "create": 2965,
      "ston": 2966,
      "thern": 2967,
      "scum": 2968,
      "respon": 2969,
      "married": 2970,
      "cnn": 2971,
      "danger": 2972,
      "ager": 2973,
      "weap": 2974,
      "emp": 2975,
      "ocaust": 2976,
      "position": 2977,
      "proper": 2978,
      "eye": 2979,
      "fli": 2980,
      "native": 2981,
      "psy": 2982,
      "belong": 2983,
      "moder": 2984,
      "brought": 2985,
      "catch": 2986,
      "scr": 2987,
      "youth": 2988,
      "ung": 2989,
      "term": 2990,
      "preci": 2991,
      "phil": 2992,
      "holocaust": 2993,
      "cases": 2994,
      "ored": 2995,
      "sli": 2996,
      "seem": 2997,
      "breed": 2998,
      "completely": 2999,
      "origin": 3000,
      "common": 3001,
      "niggah": 3002,
      "typ": 3003,
      "writ": 3004,
      "attem": 3005,
      "decl": 3006,
      "explo": 3007,
      "anymore": 3008,
      "distr": 3009,
      "maga": 3010,
      "major": 3011,
      "ari": 3012,
      "condem": 3013,
      "jobs": 3014,
      "bbc": 3015,
      "arsen": 3016,
      "capit": 3017,
      "loved": 3018,
      "door": 3019,
      "actual": 3020,
      "fix": 3021,
      "arrested": 3022,
      "french": 3023,
      "hr": 3024,
      "jap": 3025,
      "swear": 3026,
      "homophobia": 3027,
      "premier": 3028,
      "ination": 3029,
      "lect": 3030,
      "officers": 3031,
      "pedop": 3032,
      "ai": 3033,
      "loves": 3034,
      "speaking": 3035,
      "carol": 3036,
      "easter": 3037,
      "johnson": 3038,
      "28": 3039,
      "ange": 3040,
      "chester": 3041,
      "often": 3042,
      "program": 3043,
      "problems": 3044,
      "satur": 3045,
      "george": 3046,
      "armenian": 3047,
      "uation": 3048,
      "thro": 3049,
      "space": 3050,
      "england": 3051,
      "pap": 3052,
      "zer": 3053,
      "boo": 3054,
      "ference": 3055,
      "hindus": 3056,
      "hen": 3057,
      "ering": 3058,
      "asking": 3059,
      "yester": 3060,
      "steal": 3061,
      "investig": 3062,
      "ring": 3063,
      "tryna": 3064,
      "supporting": 3065,
      "cruel": 3066,
      "voice": 3067,
      "soul": 3068,
      "ana": 3069,
      "unless": 3070,
      "supporters": 3071,
      "alex": 3072,
      "emic": 3073,
      "defend": 3074,
      "cali": 3075,
      "republicans": 3076,
      "opinion": 3077,
      "arsenal": 3078,
      "gor": 3079,
      "insu": 3080,
      "reach": 3081,
      "virgin": 3082,
      "panic": 3083,
      "james": 3084,
      "wol": 3085,
      "third": 3086,
      "memor": 3087,
      "hosp": 3088,
      "smart": 3089,
      "phys": 3090,
      "gives": 3091,
      "omg": 3092,
      "oppress": 3093,
      "cks": 3094,
      "convers": 3095,
      "appro": 3096,
      "medi": 3097,
      "worry": 3098,
      "facebook": 3099,
      "simply": 3100,
      "education": 3101,
      "afghan": 3102,
      "gods": 3103,
      "liberals": 3104,
      "period": 3105,
      "arm": 3106,
      "congr": 3107,
      "internet": 3108,
      "amed": 3109,
      "igno": 3110,
      "troops": 3111,
      "compet": 3112,
      "eating": 3113,
      "mul": 3114,
      "inj": 3115,
      "board": 3116,
      "weeks": 3117,
      "rd": 3118,
      "touch": 3119,
      "total": 3120,
      "ices": 3121,
      "shir": 3122,
      "nations": 3123,
      "personal": 3124,
      "ignorant": 3125,
      "pack": 3126,
      "uary": 3127,
      "wet": 3128,
      "wise": 3129,
      "sole": 3130,
      "confir": 3131,
      "center": 3132,
      "128175": 3133,
      "dut": 3134,
      "iff": 3135,
      "feat": 3136,
      "ensive": 3137,
      "sexuality": 3138,
      "reported": 3139,
      "sister": 3140,
      "washington": 3141,
      "yesterday": 3142,
      "sour": 3143,
      "mos": 3144,
      "cops": 3145,
      "kno": 3146,
      "success": 3147,
      "sweet": 3148,
      "wild": 3149,
      "chall": 3150,
      "basically": 3151,
      "difference": 3152,
      "picture": 3153,
      "republican": 3154,
      "cities": 3155,
      "brothers": 3156,
      "histor": 3157,
      "****": 3158,
      "idiots": 3159,
      "intellig": 3160,
      "ax": 3161,
      "daughter": 3162,
      "mexican": 3163,
      "administration": 3164,
      "kiss": 3165,
      "sucking": 3166,
      "ded": 3167,
      "tits": 3168,
      "alive": 3169,
      "une": 3170,
      "cost": 3171,
      "tural": 3172,
      "held": 3173,
      "apparent": 3174,
      "swed": 3175,
      "70": 3176,
      "cket": 3177,
      "ators": 3178,
      "conne": 3179,
      "kinda": 3180,
      "animals": 3181,
      "bast": 3182,
      "armed": 3183,
      "dear": 3184,
      "ethnic": 3185,
      "character": 3186,
      "ked": 3187,
      "estic": 3188,
      "comments": 3189,
      "realize": 3190,
      "starting": 3191,
      "regul": 3192,
      "aware": 3193,
      "suspect": 3194,
      "texas": 3195,
      "pred": 3196,
      "crisis": 3197,
      "heads": 3198,
      "lab": 3199,
      "ctions": 3200,
      "corrup": 3201,
      "saudi": 3202,
      "sed": 3203,
      "aming": 3204,
      "correct": 3205,
      "camps": 3206,
      "dar": 3207,
      "lack": 3208,
      "pin": 3209,
      "angry": 3210,
      "ented": 3211,
      "defense": 3212,
      "lesbians": 3213,
      "lor": 3214,
      "nia": 3215,
      "reco": 3216,
      "itions": 3217,
      "youll": 3218,
      "lied": 3219,
      "ability": 3220,
      "iving": 3221,
      "chris": 3222,
      "movement": 3223,
      "mber": 3224,
      "log": 3225,
      "tuesday": 3226,
      "formation": 3227,
      "999": 3228,
      "champion": 3229,
      "depend": 3230,
      "turkish": 3231,
      "false": 3232,
      "wind": 3233,
      "reve": 3234,
      "begin": 3235,
      "within": 3236,
      "diversity": 3237,
      "announ": 3238,
      "ural": 3239,
      "fran": 3240,
      "shock": 3241,
      "latest": 3242,
      "austral": 3243,
      "created": 3244,
      "capitol": 3245,
      "chief": 3246,
      "couldnt": 3247,
      "books": 3248,
      "propag": 3249,
      "virus": 3250,
      "students": 3251,
      "clearly": 3252,
      "minutes": 3253,
      "fing": 3254,
      "jump": 3255,
      "chill": 3256,
      "road": 3257,
      "8217": 3258,
      "supposed": 3259,
      "ried": 3260,
      "doesn": 3261,
      "planet": 3262,
      "views": 3263,
      "hypo": 3264,
      "moved": 3265,
      "acts": 3266,
      "voted": 3267,
      "weekend": 3268,
      "claims": 3269,
      "banglad": 3270,
      "liverpool": 3271,
      "idk": 3272,
      "crow": 3273,
      "project": 3274,
      "queen": 3275,
      "strug": 3276,
      "execut": 3277,
      "totally": 3278,
      "language": 3279,
      "japan": 3280,
      "zion": 3281,
      "manchester": 3282,
      "feed": 3283,
      "comfort": 3284,
      "drive": 3285,
      "slow": 3286,
      "invad": 3287,
      "film": 3288,
      "palestin": 3289,
      "saturday": 3290,
      "cir": 3291,
      "grap": 3292,
      "ona": 3293,
      "mentally": 3294,
      "incel": 3295,
      "criminal": 3296,
      "marriage": 3297,
      "david": 3298,
      "apparently": 3299,
      "inate": 3300,
      "aud": 3301,
      "counter": 3302,
      "emot": 3303,
      "putting": 3304,
      "demand": 3305,
      "dump": 3306,
      "domestic": 3307,
      "ruin": 3308,
      "dist": 3309,
      "dred": 3310,
      "paid": 3311,
      "central": 3312,
      "fare": 3313,
      "iel": 3314,
      "complain": 3315,
      "uh": 3316,
      "reven": 3317,
      "adam": 3318,
      "bruh": 3319,
      "officials": 3320,
      "forward": 3321,
      "irish": 3322,
      "aging": 3323,
      "however": 3324,
      "desp": 3325,
      "tweets": 3326,
      "abortion": 3327,
      "pregnant": 3328,
      "ez": 3329,
      "oid": 3330,
      "anno": 3331,
      "oty": 3332,
      "aught": 3333,
      "rob": 3334,
      "role": 3335,
      "emplo": 3336,
      "birds": 3337,
      "hundred": 3338,
      "supremacist": 3339,
      "primary": 3340,
      "five": 3341,
      "ida": 3342,
      "deb": 3343,
      "grace": 3344,
      "scream": 3345,
      "series": 3346,
      "choice": 3347,
      "conservative": 3348,
      "650": 3349,
      "hating": 3350,
      "lick": 3351,
      "nick": 3352,
      "killer": 3353,
      "monkey": 3354,
      "illegals": 3355,
      "waiting": 3356,
      "simple": 3357,
      "ville": 3358,
      "several": 3359,
      "ron": 3360,
      "anal": 3361,
      "chic": 3362,
      "devel": 3363,
      "minority": 3364,
      "carry": 3365,
      "visit": 3366,
      "fucks": 3367,
      "plic": 3368,
      "cares": 3369,
      "longer": 3370,
      "cell": 3371,
      "unity": 3372,
      "agend": 3373,
      "saf": 3374,
      "votes": 3375,
      "temple": 3376,
      "slave": 3377,
      "mask": 3378,
      "spr": 3379,
      "sey": 3380,
      "shith": 3381,
      "vert": 3382,
      "poss": 3383,
      "region": 3384,
      "winning": 3385,
      "followers": 3386,
      "65039": 3387,
      "coll": 3388,
      "ander": 3389,
      "loving": 3390,
      "raised": 3391,
      "feeling": 3392,
      "bigot": 3393,
      "ladies": 3394,
      "voting": 3395,
      "profess": 3396,
      "fly": 3397,
      "mf": 3398,
      "uu": 3399,
      "bean": 3400,
      "usive": 3401,
      "frid": 3402,
      "didn": 3403,
      "igray": 3404,
      "colored": 3405,
      "ffs": 3406,
      "places": 3407,
      "london": 3408,
      "response": 3409,
      "35": 3410,
      "jok": 3411,
      "mut": 3412,
      "record": 3413,
      "chelse": 3414,
      "crying": 3415,
      "acted": 3416,
      "sav": 3417,
      "county": 3418,
      "facts": 3419,
      "pandemic": 3420,
      "husband": 3421,
      "mot": 3422,
      "cher": 3423,
      "bye": 3424,
      "actions": 3425,
      "sell": 3426,
      "reality": 3427,
      "example": 3428,
      "carolina": 3429,
      "califor": 3430,
      "36": 3431,
      "sar": 3432,
      "sort": 3433,
      "beha": 3434,
      "sha": 3435,
      "reddit": 3436,
      "needed": 3437,
      "mud": 3438,
      "ooo": 3439,
      "stru": 3440,
      "situation": 3441,
      "kers": 3442,
      "mans": 3443,
      "banned": 3444,
      "humanity": 3445,
      "mission": 3446,
      "honor": 3447,
      "aj": 3448,
      "aver": 3449,
      "likes": 3450,
      "shouldnt": 3451,
      "teams": 3452,
      "hitler": 3453,
      "jim": 3454,
      "apart": 3455,
      "appreci": 3456,
      "progress": 3457,
      "democratic": 3458,
      "garb": 3459,
      "chael": 3460,
      "rick": 3461,
      "eral": 3462,
      "assh": 3463,
      "loyal": 3464,
      "128530": 3465,
      "building": 3466,
      "hates": 3467,
      "dudes": 3468,
      "massive": 3469,
      "gate": 3470,
      "vol": 3471,
      "reme": 3472,
      "mostly": 3473,
      "humans": 3474,
      "criminals": 3475,
      "double": 3476,
      "streets": 3477,
      "cun": 3478,
      "ku": 3479,
      "astr": 3480,
      "shop": 3481,
      "shitty": 3482,
      "quite": 3483,
      "ift": 3484,
      "brand": 3485,
      "borders": 3486,
      "promot": 3487,
      "stories": 3488,
      "birthday": 3489,
      "lmfao": 3490,
      "hous": 3491,
      "sof": 3492,
      "somebody": 3493,
      "willing": 3494,
      "yea": 3495,
      "prevent": 3496,
      "ogy": 3497,
      "daddy": 3498,
      "filled": 3499,
      "cli": 3500,
      "dies": 3501,
      "arian": 3502,
      "illy": 3503,
      "monday": 3504,
      "regime": 3505,
      "radical": 3506,
      "return": 3507,
      "develop": 3508,
      "swe": 3509,
      "atives": 3510,
      "forgot": 3511,
      "ently": 3512,
      "havent": 3513,
      "lots": 3514,
      "interesting": 3515,
      "critic": 3516,
      "fest": 3517,
      "esome": 3518,
      "ential": 3519,
      "france": 3520,
      "river": 3521,
      "racists": 3522,
      "mike": 3523,
      "covid19": 3524,
      "doubt": 3525,
      "wedn": 3526,
      "whether": 3527,
      "84": 3528,
      "prove": 3529,
      "guard": 3530,
      "dire": 3531,
      "scre": 3532,
      "scared": 3533,
      "reports": 3534,
      "billion": 3535,
      "kurd": 3536,
      "express": 3537,
      "michael": 3538,
      "sky": 3539,
      "travel": 3540,
      "quit": 3541,
      "migrants": 3542,
      "videos": 3543,
      "dating": 3544,
      "wat": 3545,
      "wide": 3546,
      "became": 3547,
      "kets": 3548,
      "ifa": 3549,
      "brief": 3550,
      "aka": 3551,
      "sexy": 3552,
      "built": 3553,
      "park": 3554,
      "kore": 3555,
      "propaganda": 3556,
      "agenda": 3557,
      "bum": 3558,
      "information": 3559,
      "asses": 3560,
      "suicide": 3561,
      "fasc": 3562,
      "bangladesh": 3563,
      "friday": 3564,
      "behavi": 3565,
      "garbage": 3566,
      "site": 3567,
      "mob": 3568,
      "standing": 3569,
      "fresh": 3570,
      "harassment": 3571,
      "bay": 3572,
      "wins": 3573,
      "shall": 3574,
      "indians": 3575,
      "israeli": 3576,
      "committed": 3577,
      "beyond": 3578,
      "california": 3579,
      "bon": 3580,
      "bing": 3581,
      "ias": 3582,
      "mist": 3583,
      "rr": 3584,
      "stone": 3585,
      "assum": 3586,
      "looked": 3587,
      "forever": 3588,
      "aving": 3589,
      "equal": 3590,
      "66": 3591,
      "paul": 3592,
      "influ": 3593,
      "meant": 3594,
      "design": 3595,
      "showing": 3596,
      "walking": 3597,
      "crap": 3598,
      "kne": 3599,
      "lay": 3600,
      "peoples": 3601,
      "mach": 3602,
      "span": 3603,
      "posts": 3604,
      "excuse": 3605,
      "wednesday": 3606,
      "pod": 3607,
      "ties": 3608,
      "requ": 3609,
      "upon": 3610,
      "massac": 3611,
      "responsible": 3612,
      "journal": 3613,
      "bak": 3614,
      "ctor": 3615,
      "sac": 3616,
      "tast": 3617,
      "troll": 3618,
      "priest": 3619,
      "butt": 3620,
      "confl": 3621,
      "caught": 3622,
      "fags": 3623,
      "slaves": 3624,
      "felt": 3625,
      "random": 3626,
      "revenge": 3627,
      "bene": 3628,
      "ml": 3629,
      "loc": 3630,
      "ireland": 3631,
      "moron": 3632,
      "statement": 3633,
      "celebrate": 3634,
      "argum": 3635,
      "battle": 3636,
      "docum": 3637,
      "cook": 3638,
      "everywhere": 3639,
      "retweet": 3640,
      "prefer": 3641,
      "thoughts": 3642,
      "voters": 3643,
      "refer": 3644,
      "boss": 3645,
      "knowing": 3646,
      "tells": 3647,
      "summer": 3648,
      "policy": 3649,
      "complete": 3650,
      "bh": 3651,
      "tigray": 3652,
      "dece": 3653,
      "plus": 3654,
      "chelsea": 3655,
      "jam": 3656,
      "lou": 3657,
      "thug": 3658,
      "admit": 3659,
      "fucker": 3660,
      "ults": 3661,
      "happening": 3662,
      "throat": 3663,
      "apr": 3664,
      "fish": 3665,
      "gal": 3666,
      "page": 3667,
      "phob": 3668,
      "sem": 3669,
      "slap": 3670,
      "jr": 3671,
      "tan": 3672,
      "research": 3673,
      "union": 3674,
      "degener": 3675,
      "indiv": 3676,
      "christmas": 3677,
      "filthy": 3678,
      "boun": 3679,
      "cred": 3680,
      "nes": 3681,
      "rif": 3682,
      "moving": 3683,
      "girlfriend": 3684,
      "feels": 3685,
      "nationalist": 3686,
      "aliens": 3687,
      "69": 3688,
      "iop": 3689,
      "youve": 3690,
      "max": 3691,
      "basic": 3692,
      "university": 3693,
      "recogn": 3694,
      "sugg": 3695,
      "berg": 3696,
      "slavery": 3697,
      "obviously": 3698,
      "daw": 3699,
      "independ": 3700,
      "soc": 3701,
      "akes": 3702,
      "spot": 3703,
      "afraid": 3704,
      "charge": 3705,
      "modern": 3706,
      "despite": 3707,
      "individ": 3708,
      "2nd": 3709,
      "lum": 3710,
      "names": 3711,
      "pac": 3712,
      "repe": 3713,
      "redneck": 3714,
      "democracy": 3715,
      "rule": 3716,
      "suggest": 3717,
      "encour": 3718,
      "stfu": 3719,
      "track": 3720,
      "kills": 3721,
      "rit": 3722,
      "ets": 3723,
      "flor": 3724,
      "choose": 3725,
      "capital": 3726,
      "58": 3727,
      "outr": 3728,
      "ises": 3729,
      "ened": 3730,
      "lier": 3731,
      "loser": 3732,
      "prime": 3733,
      "whos": 3734,
      "seless": 3735,
      "descr": 3736,
      "homes": 3737,
      "decided": 3738,
      "storm": 3739,
      "psych": 3740,
      "shithole": 3741,
      "iding": 3742,
      "qual": 3743,
      "surprised": 3744,
      "elim": 3745,
      "quality": 3746,
      "barr": 3747,
      "january": 3748,
      "pakistani": 3749,
      "dangerous": 3750,
      "individual": 3751,
      "yours": 3752,
      "cos": 3753,
      "cure": 3754,
      "generation": 3755,
      "address": 3756,
      "mic": 3757,
      "py": 3758,
      "opport": 3759,
      "watched": 3760,
      "104": 3761,
      "six": 3762,
      "heaven": 3763,
      "hospital": 3764,
      "dm": 3765,
      "nbc": 3766,
      "bert": 3767,
      "positive": 3768,
      "mexicans": 3769,
      "effect": 3770,
      "fantasy": 3771,
      "iam": 3772,
      "sj": 3773,
      "shout": 3774,
      "outta": 3775,
      "lyn": 3776,
      "plat": 3777,
      "sue": 3778,
      "bernie": 3779,
      "ips": 3780,
      "disrespect": 3781,
      "0000": 3782,
      "colon": 3783,
      "write": 3784,
      "dykes": 3785,
      "covered": 3786,
      "energy": 3787,
      "attempt": 3788,
      "afghanistan": 3789,
      "pill": 3790,
      "text": 3791,
      "ads": 3792,
      "trigg": 3793,
      "mov": 3794,
      "whose": 3795,
      "mich": 3796,
      "bank": 3797,
      "officer": 3798,
      "ledge": 3799,
      "fortun": 3800,
      "risk": 3801,
      "deported": 3802,
      "georg": 3803,
      "further": 3804,
      "large": 3805,
      "nigeria": 3806,
      "dd": 3807,
      "mill": 3808,
      "rab": 3809,
      "tl": 3810,
      "usually": 3811,
      "goat": 3812,
      "poc": 3813,
      "epis": 3814,
      "mary": 3815,
      "pure": 3816,
      "powerful": 3817,
      "enemy": 3818,
      "dogs": 3819,
      "misogy": 3820,
      "involved": 3821,
      "44": 3822,
      "ially": 3823,
      "kn": 3824,
      "mand": 3825,
      "mac": 3826,
      "punch": 3827,
      "eds": 3828,
      "chat": 3829,
      "lib": 3830,
      "letting": 3831,
      "version": 3832,
      "sucks": 3833,
      "hahahaha": 3834,
      "treated": 3835,
      "ox": 3836,
      "pi": 3837,
      "tight": 3838,
      "thes": 3839,
      "arious": 3840,
      "immedi": 3841,
      "neg": 3842,
      "dev": 3843,
      "everyday": 3844,
      "numbers": 3845,
      "homo": 3846,
      "workers": 3847,
      "democrat": 3848,
      "mosque": 3849,
      "ode": 3850,
      "extra": 3851,
      "marry": 3852,
      "minorities": 3853,
      "partner": 3854,
      "accused": 3855,
      "feminist": 3856,
      "radio": 3857,
      "named": 3858,
      "mixed": 3859,
      "rules": 3860,
      "hypocr": 3861,
      "kim": 3862,
      "pon": 3863,
      "necess": 3864,
      "feet": 3865,
      "iple": 3866,
      "ilege": 3867,
      "discrimination": 3868,
      "65": 3869,
      "cash": 3870,
      "ibe": 3871,
      "reject": 3872,
      "usion": 3873,
      "agram": 3874,
      "queers": 3875,
      "ethiop": 3876,
      "britain": 3877,
      "title": 3878,
      "changed": 3879,
      "comfortable": 3880,
      "hack": 3881,
      "jp": 3882,
      "yd": 3883,
      "clown": 3884,
      "launch": 3885,
      "dicks": 3886,
      "posting": 3887,
      "helping": 3888,
      "charged": 3889,
      "iction": 3890,
      "privilege": 3891,
      "regardless": 3892,
      "97": 3893,
      "bun": 3894,
      "gs": 3895,
      "greg": 3896,
      "wis": 3897,
      "tha": 3898,
      "ala": 3899,
      "suit": 3900,
      "stopped": 3901,
      "posted": 3902,
      "dumbass": 3903,
      "company": 3904,
      "recently": 3905,
      "ather": 3906,
      "gain": 3907,
      "karen": 3908,
      "ches": 3909,
      "blind": 3910,
      "grad": 3911,
      "1918": 3912,
      "missing": 3913,
      "status": 3914,
      "candid": 3915,
      "len": 3916,
      "zo": 3917,
      "thir": 3918,
      "rey": 3919,
      "andlt": 3920,
      "kept": 3921,
      "medical": 3922,
      "religions": 3923,
      "communities": 3924,
      "apped": 3925,
      "1000": 3926,
      "educated": 3927,
      "absolute": 3928,
      "tradition": 3929,
      "zero": 3930,
      "chicago": 3931,
      "april": 3932,
      "movies": 3933,
      "rise": 3934,
      "heres": 3935,
      "anybody": 3936,
      "awesome": 3937,
      "access": 3938,
      "latin": 3939,
      "questions": 3940,
      "bringing": 3941,
      "deserves": 3942,
      "bigger": 3943,
      "regular": 3944,
      "fic": 3945,
      "loud": 3946,
      "taught": 3947,
      "thom": 3948,
      "omar": 3949,
      "shits": 3950,
      "raine": 3951,
      "focus": 3952,
      "nearly": 3953,
      "style": 3954,
      "shirt": 3955,
      "cunts": 3956,
      "remain": 3957,
      "arms": 3958,
      "separ": 3959,
      "ilar": 3960,
      "scott": 3961,
      "madrid": 3962,
      "preach": 3963,
      "wrote": 3964,
      "cultural": 3965,
      "failed": 3966,
      "reveal": 3967,
      "average": 3968,
      "assholes": 3969,
      "figh": 3970,
      "sir": 3971,
      "isn": 3972,
      "ica": 3973,
      "loss": 3974,
      "moham": 3975,
      "ctive": 3976,
      "izz": 3977,
      "twitch": 3978,
      "listening": 3979,
      "squad": 3980,
      "annoying": 3981,
      "soccer": 3982,
      "bby": 3983,
      "flee": 3984,
      "mn": 3985,
      "mol": 3986,
      "thick": 3987,
      "associ": 3988,
      "shoes": 3989,
      "moral": 3990,
      "incels": 3991,
      "ibly": 3992,
      "deaths": 3993,
      "valid": 3994,
      "supremacy": 3995,
      "icular": 3996,
      "67": 3997,
      "rot": 3998,
      "bell": 3999,
      "lived": 4000,
      "waste": 4001,
      "brok": 4002,
      "31march": 4003,
      "folk": 4004,
      "kay": 4005,
      "inated": 4006,
      "alp": 4007,
      "trou": 4008,
      "abl": 4009,
      "exp": 4010,
      "exper": 4011,
      "cancer": 4012,
      "feelings": 4013,
      "master": 4014,
      "traitor": 4015,
      "feminists": 4016,
      "bass": 4017,
      "kat": 4018,
      "ray": 4019,
      "alt": 4020,
      "ili": 4021,
      "apt": 4022,
      "boom": 4023,
      "viet": 4024,
      "purpose": 4025,
      "placed": 4026,
      "figure": 4027,
      "florida": 4028,
      "gent": 4029,
      "hide": 4030,
      "pink": 4031,
      "zam": 4032,
      "toxic": 4033,
      "haw": 4034,
      "proof": 4035,
      "process": 4036,
      "quar": 4037,
      "drunk": 4038,
      "slaughter": 4039,
      "boyfriend": 4040,
      "freak": 4041,
      "draw": 4042,
      "reasons": 4043,
      "above": 4044,
      "clim": 4045,
      "rag": 4046,
      "trade": 4047,
      "tured": 4048,
      "sym": 4049,
      "prep": 4050,
      "raping": 4051,
      "similar": 4052,
      "worthless": 4053,
      "hatred": 4054,
      "eastern": 4055,
      "championship": 4056,
      "fell": 4057,
      "nfl": 4058,
      "ses": 4059,
      "onto": 4060,
      "wars": 4061,
      "talks": 4062,
      "holes": 4063,
      "continues": 4064,
      "southern": 4065,
      "advoc": 4066,
      "written": 4067,
      "intelligence": 4068,
      "55": 4069,
      "nba": 4070,
      "era": 4071,
      "atul": 4072,
      "itself": 4073,
      "enced": 4074,
      "trail": 4075,
      "mock": 4076,
      "pussies": 4077,
      "ukraine": 4078,
      "turns": 4079,
      "training": 4080,
      "ignore": 4081,
      "safety": 4082,
      "ride": 4083,
      "zone": 4084,
      "formed": 4085,
      "losing": 4086,
      "apolog": 4087,
      "provid": 4088,
      "counts": 4089,
      "particular": 4090,
      "retards": 4091,
      "missed": 4092,
      "horrible": 4093,
      "popular": 4094,
      "weapons": 4095,
      "34": 4096,
      "din": 4097,
      "sens": 4098,
      "tall": 4099,
      "atl": 4100,
      "tran": 4101,
      "senate": 4102,
      "asylum": 4103,
      "citizenship": 4104,
      "typical": 4105,
      "hundreds": 4106,
      "ium": 4107,
      "lam": 4108,
      "rally": 4109,
      "thot": 4110,
      "stal": 4111,
      "manager": 4112,
      "evidence": 4113,
      "prayer": 4114,
      "instagram": 4115,
      "appear": 4116,
      "govt": 4117,
      "bottom": 4118,
      "spanish": 4119,
      "lines": 4120,
      "narr": 4121,
      "pics": 4122,
      "snow": 4123,
      "info": 4124,
      "ister": 4125,
      "upset": 4126,
      "antis": 4127,
      "note": 4128,
      "saved": 4129,
      "spent": 4130,
      "rapist": 4131,
      "parliam": 4132,
      "cult": 4133,
      "germans": 4134,
      "meaning": 4135,
      "greece": 4136,
      "constitut": 4137,
      "politicians": 4138,
      "strugg": 4139,
      "matt": 4140,
      "yer": 4141,
      "secut": 4142,
      "frank": 4143,
      "grade": 4144,
      "matters": 4145,
      "jihadi": 4146,
      "lucky": 4147,
      "hic": 4148,
      "lame": 4149,
      "shed": 4150,
      "haps": 4151,
      "result": 4152,
      "athlet": 4153,
      "greatest": 4154,
      "considered": 4155,
      "muzzie": 4156,
      "77": 4157,
      "dance": 4158,
      "ilhan": 4159,
      "fuckers": 4160,
      "hispanic": 4161,
      "boris": 4162,
      "harm": 4163,
      "values": 4164,
      "huh": 4165,
      "study": 4166,
      "muzzies": 4167,
      "congratul": 4168,
      "parliament": 4169,
      "ease": 4170,
      "het": 4171,
      "pow": 4172,
      "tough": 4173,
      "leaving": 4174,
      "amount": 4175,
      "lywood": 4176,
      "perhaps": 4177,
      "scot": 4178,
      "vision": 4179,
      "natural": 4180,
      "minute": 4181,
      "currently": 4182,
      "jac": 4183,
      "uel": 4184,
      "itude": 4185,
      "forum": 4186,
      "prin": 4187,
      "handle": 4188,
      "sisters": 4189,
      "champions": 4190,
      "atheist": 4191,
      "multiple": 4192,
      "32": 4193,
      "hig": 4194,
      "kh": 4195,
      "pting": 4196,
      "andal": 4197,
      "bear": 4198,
      "goog": 4199,
      "enders": 4200,
      "wanting": 4201,
      "finish": 4202,
      "revolution": 4203,
      "alleged": 4204,
      "vag": 4205,
      "enty": 4206,
      "dems": 4207,
      "wasn": 4208,
      "conference": 4209,
      "whoever": 4210,
      "embarr": 4211,
      "199": 4212,
      "smell": 4213,
      "decision": 4214,
      "civilians": 4215,
      "atory": 4216,
      "punish": 4217,
      "flood": 4218,
      "pedophil": 4219,
      "bare": 4220,
      "bred": 4221,
      "dest": 4222,
      "iron": 4223,
      "sud": 4224,
      "grab": 4225,
      "scene": 4226,
      "hello": 4227,
      "farm": 4228,
      "ministry": 4229,
      "nuclear": 4230,
      "faces": 4231,
      "supremacists": 4232,
      "broken": 4233,
      "nak": 4234,
      "tren": 4235,
      "enem": 4236,
      "aries": 4237,
      "icip": 4238,
      "terrible": 4239,
      "raise": 4240,
      "yemen": 4241,
      "avoid": 4242,
      "communist": 4243,
      "hopefully": 4244,
      "paying": 4245,
      "horny": 4246,
      "wonderful": 4247,
      "pictures": 4248,
      "drugs": 4249,
      "conflict": 4250,
      "3rd": 4251,
      "63": 4252,
      "eid": 4253,
      "gers": 4254,
      "hip": 4255,
      "ix": 4256,
      "jen": 4257,
      "kam": 4258,
      "forms": 4259,
      "soli": 4260,
      "resist": 4261,
      "blm": 4262,
      "legend": 4263,
      "interview": 4264,
      "defending": 4265,
      "broad": 4266,
      "passed": 4267,
      "detail": 4268,
      "potus": 4269,
      "foreigners": 4270,
      "william": 4271,
      "dare": 4272,
      "fault": 4273,
      "kr": 4274,
      "useless": 4275,
      "vy": 4276,
      "intr": 4277,
      "beating": 4278,
      "below": 4279,
      "ational": 4280,
      "comed": 4281,
      "otherwise": 4282,
      "spend": 4283,
      "interested": 4284,
      "arabia": 4285,
      "susp": 4286,
      "federal": 4287,
      "bount": 4288,
      "tt": 4289,
      "toler": 4290,
      "adop": 4291,
      "vile": 4292,
      "refuse": 4293,
      "economy": 4294,
      "38": 4295,
      "hall": 4296,
      "thin": 4297,
      "becoming": 4298,
      "fem": 4299,
      "esty": 4300,
      "128525": 4301,
      "nyc": 4302,
      "content": 4303,
      "elected": 4304,
      "woke": 4305,
      "growing": 4306,
      "yrs": 4307,
      "science": 4308,
      "embarrass": 4309,
      "enemies": 4310,
      "bounties": 4311,
      "ape": 4312,
      "eve": 4313,
      "mate": 4314,
      "nom": 4315,
      "enge": 4316,
      "ays": 4317,
      "indust": 4318,
      "spic": 4319,
      "accident": 4320,
      "channel": 4321,
      "store": 4322,
      "paper": 4323,
      "knock": 4324,
      "hits": 4325,
      "ara": 4326,
      "chin": 4327,
      "trial": 4328,
      "oppos": 4329,
      "owned": 4330,
      "achie": 4331,
      "sitting": 4332,
      "aids": 4333,
      "sharia": 4334,
      "economic": 4335,
      "jus": 4336,
      "ured": 4337,
      "ado": 4338,
      "goals": 4339,
      "wealth": 4340,
      "theyll": 4341,
      "brid": 4342,
      "crash": 4343,
      "transphob": 4344,
      "homeless": 4345,
      "century": 4346,
      "steve": 4347,
      "sending": 4348,
      "related": 4349,
      "learned": 4350,
      "feminism": 4351,
      "deter": 4352,
      "locked": 4353,
      "pastor": 4354,
      "dollars": 4355,
      "source": 4356,
      "december": 4357,
      "75": 4358,
      "coup": 4359,
      "fab": 4360,
      "fash": 4361,
      "jab": 4362,
      "ilty": 4363,
      "unfortun": 4364,
      "agre": 4365,
      "antifa": 4366,
      "concen": 4367,
      "assass": 4368,
      "bother": 4369,
      "market": 4370,
      "churches": 4371,
      "island": 4372,
      "europeans": 4373,
      "teacher": 4374,
      "district": 4375,
      "48": 4376,
      "bour": 4377,
      "btw": 4378,
      "rare": 4379,
      "rate": 4380,
      "dox": 4381,
      "pover": 4382,
      "cture": 4383,
      "click": 4384,
      "strict": 4385,
      "dying": 4386,
      "appening": 4387,
      "holding": 4388,
      "laughing": 4389,
      "ibute": 4390,
      "podcast": 4391,
      "episode": 4392,
      "google": 4393,
      "dj": 4394,
      "pit": 4395,
      "ching": 4396,
      "worried": 4397,
      "events": 4398,
      "helped": 4399,
      "boyc": 4400,
      "higher": 4401,
      "bath": 4402,
      "tat": 4403,
      "anni": 4404,
      "isa": 4405,
      "elle": 4406,
      "occup": 4407,
      "earlier": 4408,
      "welfare": 4409,
      "taste": 4410,
      "cous": 4411,
      "dig": 4412,
      "esp": 4413,
      "section": 4414,
      "destru": 4415,
      "scar": 4416,
      "smith": 4417,
      "career": 4418,
      "critical": 4419,
      "constantly": 4420,
      "corrupt": 4421,
      "australia": 4422,
      "tay": 4423,
      "neu": 4424,
      "whatsh": 4425,
      "spit": 4426,
      "personally": 4427,
      "subject": 4428,
      "washed": 4429,
      "reminder": 4430,
      "conversation": 4431,
      "sher": 4432,
      "ids": 4433,
      "ador": 4434,
      "plot": 4435,
      "astic": 4436,
      "plays": 4437,
      "avail": 4438,
      "mascul": 4439,
      "grew": 4440,
      "believes": 4441,
      "spring": 4442,
      "appreciate": 4443,
      "immediately": 4444,
      "bust": 4445,
      "egy": 4446,
      "email": 4447,
      "fet": 4448,
      "khan": 4449,
      "nell": 4450,
      "oil": 4451,
      "ami": 4452,
      "webs": 4453,
      "fraud": 4454,
      "somewhere": 4455,
      "desper": 4456,
      "norm": 4457,
      "ological": 4458,
      "massacre": 4459,
      "bounty": 4460,
      "sudden": 4461,
      "aus": 4462,
      "fle": 4463,
      "rod": 4464,
      "iced": 4465,
      "eland": 4466,
      "aggress": 4467,
      "auto": 4468,
      "cro": 4469,
      "guilty": 4470,
      "emer": 4471,
      "identify": 4472,
      "ridicul": 4473,
      "student": 4474,
      "duty": 4475,
      "camer": 4476,
      "gins": 4477,
      "heter": 4478,
      "mong": 4479,
      "inde": 4480,
      "insp": 4481,
      "update": 4482,
      "herit": 4483,
      "ession": 4484,
      "appoint": 4485,
      "keeps": 4486,
      "keeping": 4487,
      "somal": 4488,
      "whatshappening": 4489,
      "ey": 4490,
      "termin": 4491,
      "neither": 4492,
      "128128": 4493,
      "parts": 4494,
      "blog": 4495,
      "compan": 4496,
      "openly": 4497,
      "animal": 4498,
      "tiny": 4499,
      "practice": 4500,
      "physical": 4501,
      "300": 4502,
      "pound": 4503,
      "iter": 4504,
      "keys": 4505,
      "sper": 4506,
      "mens": 4507,
      "www": 4508,
      "celebrating": 4509,
      "xxx": 4510,
      "neighborhood": 4511,
      "mt": 4512,
      "terms": 4513,
      "deput": 4514,
      "quot": 4515,
      "worked": 4516,
      "bodies": 4517,
      "invas": 4518,
      "leading": 4519,
      "pressed": 4520,
      "nature": 4521,
      "author": 4522,
      "argument": 4523,
      "gur": 4524,
      "review": 4525,
      "outs": 4526,
      "meat": 4527,
      "modi": 4528,
      "myth": 4529,
      "notice": 4530,
      "herself": 4531,
      "riot": 4532,
      "playoff": 4533,
      "angers": 4534,
      "showed": 4535,
      "nicca": 4536,
      "blessed": 4537,
      "doctor": 4538,
      "soft": 4539,
      "eliminate": 4540,
      "egypt": 4541,
      "49": 4542,
      "pel": 4543,
      "solution": 4544,
      "trick": 4545,
      "abc": 4546,
      "weed": 4547,
      "model": 4548,
      "rocket": 4549,
      "turning": 4550,
      "shots": 4551,
      "incident": 4552,
      "increas": 4553,
      "opening": 4554,
      "vince": 4555,
      "sweden": 4556,
      "sons": 4557,
      "youd": 4558,
      "sequ": 4559,
      "older": 4560,
      "uncle": 4561,
      "qui": 4562,
      "poland": 4563,
      "famous": 4564,
      "starts": 4565,
      "private": 4566,
      "available": 4567,
      "hab": 4568,
      "jones": 4569,
      "asure": 4570,
      "semit": 4571,
      "imma": 4572,
      "princ": 4573,
      "justin": 4574,
      "plans": 4575,
      "somehow": 4576,
      "writing": 4577,
      "refere": 4578,
      "debate": 4579,
      "gut": 4580,
      "kan": 4581,
      "yell": 4582,
      "itarian": 4583,
      "bles": 4584,
      "2000": 4585,
      "races": 4586,
      "genu": 4587,
      "visibility": 4588,
      "conservatives": 4589,
      "score": 4590,
      "original": 4591,
      "dict": 4592,
      "fought": 4593,
      "larg": 4594,
      "obs": 4595,
      "silly": 4596,
      "table": 4597,
      "stab": 4598,
      "stren": 4599,
      "mozam": 4600,
      "pra": 4601,
      "doz": 4602,
      "subs": 4603,
      "barbar": 4604,
      "easier": 4605,
      "nik": 4606,
      "penis": 4607,
      "smoke": 4608,
      "japanese": 4609,
      "emotional": 4610,
      "cens": 4611,
      "fb": 4612,
      "pup": 4613,
      "rn": 4614,
      "sea": 4615,
      "ares": 4616,
      "weve": 4617,
      "whores": 4618,
      "excl": 4619,
      "grown": 4620,
      "clint": 4621,
      "serve": 4622,
      "clothes": 4623,
      "hile": 4624,
      "effort": 4625,
      "coward": 4626,
      "leadership": 4627,
      "pushing": 4628,
      "giants": 4629,
      "strike": 4630,
      "techn": 4631,
      "extremely": 4632,
      "insul": 4633,
      "challenge": 4634,
      "screen": 4635,
      "opportunity": 4636,
      "een": 4637,
      "jason": 4638,
      "ras": 4639,
      "vant": 4640,
      "ortho": 4641,
      "ils": 4642,
      "peach": 4643,
      "rah": 4644,
      "establ": 4645,
      "hoax": 4646,
      "cros": 4647,
      "insur": 4648,
      "decades": 4649,
      "voter": 4650,
      "claimed": 4651,
      "continu": 4652,
      "tranny": 4653,
      "fashion": 4654,
      "bapt": 4655,
      "fits": 4656,
      "jord": 4657,
      "ov": 4658,
      "iled": 4659,
      "traff": 4660,
      "uries": 4661,
      "ably": 4662,
      "rapp": 4663,
      "resour": 4664,
      "pls": 4665,
      "hook": 4666,
      "particip": 4667,
      "brave": 4668,
      "hahaha": 4669,
      "decide": 4670,
      "beaten": 4671,
      "pieces": 4672,
      "potential": 4673,
      "romans": 4674,
      "inity": 4675,
      "allies": 4676,
      "secure": 4677,
      "iah": 4678,
      "tee": 4679,
      "affect": 4680,
      "disease": 4681,
      "hateful": 4682,
      "hollywood": 4683,
      "eeee": 4684,
      "relationships": 4685,
      "attracted": 4686,
      "surviv": 4687,
      "narrative": 4688,
      "ridiculous": 4689,
      "orthodox": 4690,
      "vice": 4691,
      "depart": 4692,
      "raw": 4693,
      "poll": 4694,
      "legit": 4695,
      "strate": 4696,
      "fund": 4697,
      "hunter": 4698,
      "respond": 4699,
      "trait": 4700,
      "institut": 4701,
      "suffering": 4702,
      "confirmed": 4703,
      "motiv": 4704,
      "symbol": 4705,
      "streng": 4706,
      "ich": 4707,
      "pence": 4708,
      "sides": 4709,
      "tens": 4710,
      "wards": 4711,
      "shel": 4712,
      "tray": 4713,
      "kikes": 4714,
      "destroying": 4715,
      "domin": 4716,
      "lights": 4717,
      "italy": 4718,
      "peaceful": 4719,
      "tommy": 4720,
      "meeting": 4721,
      "nuts": 4722,
      "congratulations": 4723,
      "deputy": 4724,
      "85": 4725,
      "fs": 4726,
      "wound": 4727,
      "anci": 4728,
      "chair": 4729,
      "ows": 4730,
      "illness": 4731,
      "moon": 4732,
      "ideology": 4733,
      "offer": 4734,
      "josh": 4735,
      "attacking": 4736,
      "rapists": 4737,
      "friendly": 4738,
      "fired": 4739,
      "pression": 4740,
      "protes": 4741,
      "confused": 4742,
      "received": 4743,
      "degenerate": 4744,
      "climate": 4745,
      "ae": 4746,
      "dates": 4747,
      "fw": 4748,
      "lower": 4749,
      "pts": 4750,
      "stan": 4751,
      "youn": 4752,
      "beta": 4753,
      "2014": 4754,
      "offensive": 4755,
      "selling": 4756,
      "legisl": 4757,
      "mayor": 4758,
      "illegally": 4759,
      "hearing": 4760,
      "characters": 4761,
      "binary": 4762,
      "targeted": 4763,
      "finger": 4764,
      "bought": 4765,
      "gap": 4766,
      "nar": 4767,
      "rant": 4768,
      "remove": 4769,
      "caused": 4770,
      "senior": 4771,
      "propri": 4772,
      "plane": 4773,
      "stuck": 4774,
      "advice": 4775,
      "brutal": 4776,
      "spiritual": 4777,
      "jokes": 4778,
      "behavior": 4779,
      "alpha": 4780,
      "poverty": 4781,
      "aur": 4782,
      "mun": 4783,
      "path": 4784,
      "tbh": 4785,
      "yu": 4786,
      "inmyanmar": 4787,
      "replace": 4788,
      "argu": 4789,
      "beach": 4790,
      "shell": 4791,
      "warning": 4792,
      "attend": 4793,
      "jose": 4794,
      "disgrace": 4795,
      "muham": 4796,
      "legends": 4797,
      "todays": 4798,
      "cheat": 4799,
      "alien": 4800,
      "roman": 4801,
      "kicked": 4802,
      "bastard": 4803,
      "astraz": 4804,
      "concentration": 4805,
      "cs": 4806,
      "antic": 4807,
      "evangel": 4808,
      "boring": 4809,
      "morons": 4810,
      "moms": 4811,
      "governor": 4812,
      "italian": 4813,
      "witness": 4814,
      "throwing": 4815,
      "cuckold": 4816,
      "floyd": 4817,
      "attractive": 4818,
      "zionist": 4819,
      "invasion": 4820,
      "cia": 4821,
      "tend": 4822,
      "zi": 4823,
      "inbred": 4824,
      "asing": 4825,
      "audi": 4826,
      "blast": 4827,
      "assist": 4828,
      "2016": 4829,
      "twice": 4830,
      "versary": 4831,
      "incred": 4832,
      "humanrights": 4833,
      "mothers": 4834,
      "division": 4835,
      "policies": 4836,
      "certainly": 4837,
      "ancestors": 4838,
      "antisem": 4839,
      "95": 4840,
      "bts": 4841,
      "dun": 4842,
      "och": 4843,
      "tip": 4844,
      "iti": 4845,
      "whom": 4846,
      "seven": 4847,
      "shi": 4848,
      "trap": 4849,
      "imani": 4850,
      "dey": 4851,
      "ultim": 4852,
      "core": 4853,
      "anywhere": 4854,
      "anyways": 4855,
      "quote": 4856,
      "stein": 4857,
      "finding": 4858,
      "shootings": 4859,
      "vices": 4860,
      "victor": 4861,
      "mozambi": 4862,
      "astrazene": 4863,
      "bie": 4864,
      "cats": 4865,
      "hug": 4866,
      "iles": 4867,
      "lips": 4868,
      "deliver": 4869,
      "fron": 4870,
      "plenty": 4871,
      "hoo": 4872,
      "letter": 4873,
      "settle": 4874,
      "victory": 4875,
      "diffic": 4876,
      "hillary": 4877,
      "palestine": 4878,
      "condemn": 4879,
      "palestinian": 4880,
      "georgia": 4881,
      "necessary": 4882,
      "difficult": 4883,
      "86": 4884,
      "nc": 4885,
      "stage": 4886,
      "ota": 4887,
      "veter": 4888,
      "bling": 4889,
      "plant": 4890,
      "ideas": 4891,
      "provide": 4892,
      "warri": 4893,
      "seek": 4894,
      "islamophob": 4895,
      "lands": 4896,
      "although": 4897,
      "busy": 4898,
      "gging": 4899,
      "bombing": 4900,
      "drinking": 4901,
      "scient": 4902,
      "tournam": 4903,
      "insult": 4904,
      "udes": 4905,
      "assaul": 4906,
      "offended": 4907,
      "lah": 4908,
      "insane": 4909,
      "harris": 4910,
      "object": 4911,
      "controll": 4912,
      "easily": 4913,
      "crush": 4914,
      "accepted": 4915,
      "expected": 4916,
      "authorities": 4917,
      "pigs": 4918,
      "beginning": 4919,
      "heritage": 4920,
      "bjp": 4921,
      "cod": 4922,
      "ek": 4923,
      "nons": 4924,
      "leban": 4925,
      "sham": 4926,
      "ags": 4927,
      "weight": 4928,
      "ifying": 4929,
      "results": 4930,
      "arts": 4931,
      "appropri": 4932,
      "flow": 4933,
      "headed": 4934,
      "enews": 4935,
      "claiming": 4936,
      "homosexuality": 4937,
      "organization": 4938,
      "released": 4939,
      "director": 4940,
      "trouble": 4941,
      "unfortunately": 4942,
      "referee": 4943,
      "mozambique": 4944,
      "47": 4945,
      "knight": 4946,
      "nip": 4947,
      "tong": 4948,
      "stars": 4949,
      "febru": 4950,
      "grant": 4951,
      "knowledge": 4952,
      "thru": 4953,
      "learning": 4954,
      "teachers": 4955,
      "spreading": 4956,
      "relevant": 4957,
      "entertain": 4958,
      "scrip": 4959,
      "february": 4960,
      "wy": 4961,
      "edge": 4962,
      "exposed": 4963,
      "legs": 4964,
      "cheap": 4965,
      "prayers": 4966,
      "superior": 4967,
      "speaks": 4968,
      "treatment": 4969,
      "product": 4970,
      "rainbow": 4971,
      "employ": 4972,
      "destruction": 4973,
      "website": 4974,
      "jordan": 4975,
      "oz": 4976,
      "sne": 4977,
      "sins": 4978,
      "liked": 4979,
      "neo": 4980,
      "holi": 4981,
      "ained": 4982,
      "bright": 4983,
      "whenever": 4984,
      "lazy": 4985,
      "sexist": 4986,
      "excited": 4987,
      "songs": 4988,
      "surprise": 4989,
      "azerbaijanis": 4990,
      "boycott": 4991,
      "anniversary": 4992,
      "neutral": 4993,
      "52": 4994,
      "tre": 4995,
      "infr": 4996,
      "inte": 4997,
      "orange": 4998,
      "aster": 4999,
      "lem": 5000,
      "stitut": 5001,
      "beth": 5002,
      "image": 5003,
      "122": 5004,
      "12816": 5005,
      "grate": 5006,
      "choke": 5007,
      "milk": 5008,
      "strip": 5009,
      "billy": 5010,
      "henry": 5011,
      "outrage": 5012,
      "gol": 5013,
      "iban": 5014,
      "sab": 5015,
      "voc": 5016,
      "reck": 5017,
      "tool": 5018,
      "otic": 5019,
      "accounts": 5020,
      "aye": 5021,
      "seeking": 5022,
      "embr": 5023,
      "paki": 5024,
      "allowing": 5025,
      "healthy": 5026,
      "strikes": 5027,
      "weapon": 5028,
      "investigation": 5029,
      "credit": 5030,
      "candidate": 5031,
      "struggle": 5032,
      "ancient": 5033,
      "bish": 5034,
      "cot": 5035,
      "kir": 5036,
      "lic": 5037,
      "ugh": 5038,
      "alot": 5039,
      "arily": 5040,
      "bee": 5041,
      "beast": 5042,
      "acce": 5043,
      "artist": 5044,
      "attitude": 5045,
      "evening": 5046,
      "shove": 5047,
      "stands": 5048,
      "compared": 5049,
      "meanwhile": 5050,
      "value": 5051,
      "silent": 5052,
      "responsibility": 5053,
      "eventually": 5054,
      "clinton": 5055,
      "bah": 5056,
      "cab": 5057,
      "gard": 5058,
      "hone": 5059,
      "iy": 5060,
      "mum": 5061,
      "vation": 5062,
      "thurs": 5063,
      "icted": 5064,
      "areas": 5065,
      "blon": 5066,
      "rog": 5067,
      "rose": 5068,
      "marx": 5069,
      "medic": 5070,
      "smile": 5071,
      "northern": 5072,
      "leftist": 5073,
      "bombs": 5074,
      "hungry": 5075,
      "creep": 5076,
      "sanders": 5077,
      "threats": 5078,
      "definition": 5079,
      "hoping": 5080,
      "concerned": 5081,
      "approach": 5082,
      "kit": 5083,
      "kins": 5084,
      "pc": 5085,
      "asia": 5086,
      "lete": 5087,
      "staff": 5088,
      "usual": 5089,
      "cric": 5090,
      "sake": 5091,
      "spell": 5092,
      "robert": 5093,
      "pressure": 5094,
      "transl": 5095,
      "ships": 5096,
      "supports": 5097,
      "burg": 5098,
      "talked": 5099,
      "hearts": 5100,
      "wondering": 5101,
      "armenians": 5102,
      "quiet": 5103,
      "81": 5104,
      "bly": 5105,
      "hing": 5106,
      "rou": 5107,
      "iny": 5108,
      "beer": 5109,
      "vey": 5110,
      "eline": 5111,
      "ental": 5112,
      "abused": 5113,
      "sudan": 5114,
      "affir": 5115,
      "empower": 5116,
      "persecut": 5117,
      "symp": 5118,
      "passing": 5119,
      "beauty": 5120,
      "acceptable": 5121,
      "giant": 5122,
      "crowd": 5123,
      "trailer": 5124,
      "pil": 5125,
      "pitch": 5126,
      "rats": 5127,
      "infect": 5128,
      "eric": 5129,
      "alter": 5130,
      "illi": 5131,
      "agan": 5132,
      "concept": 5133,
      "fee": 5134,
      "booty": 5135,
      "taliban": 5136,
      "197": 5137,
      "smash": 5138,
      "toward": 5139,
      "cyber": 5140,
      "captain": 5141,
      "stock": 5142,
      "promise": 5143,
      "sissy": 5144,
      "argue": 5145,
      "gangs": 5146,
      "protests": 5147,
      "soleimani": 5148,
      "announced": 5149,
      "industry": 5150,
      "inf": 5151,
      "ancy": 5152,
      "removed": 5153,
      "orient": 5154,
      "shad": 5155,
      "apol": 5156,
      "caucas": 5157,
      "jeff": 5158,
      "muz": 5159,
      "realized": 5160,
      "flat": 5161,
      "carl": 5162,
      "highest": 5163,
      "july": 5164,
      "praying": 5165,
      "mitch": 5166,
      "reply": 5167,
      "release": 5168,
      "logic": 5169,
      "37": 5170,
      "moun": 5171,
      "qur": 5172,
      "til": 5173,
      "thus": 5174,
      "thier": 5175,
      "stere": 5176,
      "idlib": 5177,
      "anta": 5178,
      "pron": 5179,
      "nose": 5180,
      "compl": 5181,
      "bros": 5182,
      "supreme": 5183,
      "dram": 5184,
      "services": 5185,
      "ensla": 5186,
      "transition": 5187,
      "register": 5188,
      "bidens": 5189,
      "checks": 5190,
      "promote": 5191,
      "fathers": 5192,
      "penal": 5193,
      "taxes": 5194,
      "sharing": 5195,
      "blocked": 5196,
      "chicken": 5197,
      "128079": 5198,
      "pedophile": 5199,
      "wolf": 5200,
      "connect": 5201,
      "tournament": 5202,
      "56": 5203,
      "aves": 5204,
      "bound": 5205,
      "dh": 5206,
      "ires": 5207,
      "mam": 5208,
      "olly": 5209,
      "cker": 5210,
      "code": 5211,
      "polls": 5212,
      "sexually": 5213,
      "pair": 5214,
      "slide": 5215,
      "assume": 5216,
      "louis": 5217,
      "whatshappeninginmyanmar": 5218,
      "companies": 5219,
      "astrazeneca": 5220,
      "gf": 5221,
      "pd": 5222,
      "rug": 5223,
      "ched": 5224,
      "ilities": 5225,
      "amy": 5226,
      "poison": 5227,
      "akh": 5228,
      "coon": 5229,
      "parade": 5230,
      "harry": 5231,
      "closed": 5232,
      "draft": 5233,
      "existence": 5234,
      "kkk": 5235,
      "challeng": 5236,
      "palestinians": 5237,
      "houses": 5238,
      "thomas": 5239,
      "04": 5240,
      "bash": 5241,
      "sight": 5242,
      "ato": 5243,
      "becomes": 5244,
      "amid": 5245,
      "impeach": 5246,
      "ute": 5247,
      "crip": 5248,
      "roy": 5249,
      "ashamed": 5250,
      "twist": 5251,
      "athy": 5252,
      "corpor": 5253,
      "thrown": 5254,
      "network": 5255,
      "wedding": 5256,
      "silence": 5257,
      "dreams": 5258,
      "misogyn": 5259,
      "details": 5260,
      "43": 5261,
      "jah": 5262,
      "kent": 5263,
      "inely": 5264,
      "stad": 5265,
      "icy": 5266,
      "icon": 5267,
      "trib": 5268,
      "forcing": 5269,
      "entit": 5270,
      "decent": 5271,
      "ains": 5272,
      "tea": 5273,
      "ously": 5274,
      "afford": 5275,
      "royal": 5276,
      "therefore": 5277,
      "izes": 5278,
      "driving": 5279,
      "mont": 5280,
      "legally": 5281,
      "cular": 5282,
      "murdering": 5283,
      "prophet": 5284,
      "include": 5285,
      "orders": 5286,
      "aaaa": 5287,
      "sentence": 5288,
      "ification": 5289,
      "representation": 5290,
      "korea": 5291,
      "younger": 5292,
      "muhammad": 5293,
      "12288": 5294,
      "fbi": 5295,
      "jun": 5296,
      "tie": 5297,
      "tree": 5298,
      "ined": 5299,
      "reaction": 5300,
      "defe": 5301,
      "sover": 5302,
      "noon": 5303,
      "conspir": 5304,
      "compar": 5305,
      "gross": 5306,
      "torture": 5307,
      "perfor": 5308,
      "drama": 5309,
      "sinners": 5310,
      "merkel": 5311,
      "indeed": 5312,
      "resources": 5313,
      "cd": 5314,
      "cream": 5315,
      "gul": 5316,
      "lover": 5317,
      "dones": 5318,
      "128564": 5319,
      "finna": 5320,
      "funding": 5321,
      "findom": 5322,
      "gym": 5323,
      "mighty": 5324,
      "understanding": 5325,
      "soldier": 5326,
      "punk": 5327,
      "gather": 5328,
      "excell": 5329,
      "impact": 5330,
      "negative": 5331,
      "jon": 5332,
      "spl": 5333,
      "inspir": 5334,
      "ert": 5335,
      "astru": 5336,
      "uma": 5337,
      "conv": 5338,
      "condom": 5339,
      "disagree": 5340,
      "previous": 5341,
      "fled": 5342,
      "speed": 5343,
      "finan": 5344,
      "awful": 5345,
      "opened": 5346,
      "minds": 5347,
      "changing": 5348,
      "opinions": 5349,
      "supporter": 5350,
      "1278": 5351,
      "machine": 5352,
      "independent": 5353,
      "infrastru": 5354,
      "accepting": 5355,
      "cies": 5356,
      "nag": 5357,
      "pants": 5358,
      "rific": 5359,
      "secon": 5360,
      "essed": 5361,
      "ively": 5362,
      "ivity": 5363,
      "laid": 5364,
      "twat": 5365,
      "topic": 5366,
      "personality": 5367,
      "closet": 5368,
      "horse": 5369,
      "craft": 5370,
      "corona": 5371,
      "niccas": 5372,
      "data": 5373,
      "virginia": 5374,
      "successful": 5375,
      "achieve": 5376,
      "nonsense": 5377,
      "stereoty": 5378,
      "400": 5379,
      "apo": 5380,
      "aoc": 5381,
      "rough": 5382,
      "tes": 5383,
      "background": 5384,
      "download": 5385,
      "bush": 5386,
      "custo": 5387,
      "advant": 5388,
      "cowards": 5389,
      "changes": 5390,
      "officially": 5391,
      "wipe": 5392,
      "losers": 5393,
      "traditional": 5394,
      "constitution": 5395,
      "protesters": 5396,
      "grateful": 5397,
      "41": 5398,
      "911": 5399,
      "dor": 5400,
      "driver": 5401,
      "gift": 5402,
      "ius": 5403,
      "vp": 5404,
      "ining": 5405,
      "whit": 5406,
      "adult": 5407,
      "abt": 5408,
      "meth": 5409,
      "theyve": 5410,
      "heal": 5411,
      "ustr": 5412,
      "resign": 5413,
      "12812": 5414,
      "twink": 5415,
      "ission": 5416,
      "miles": 5417,
      "kidn": 5418,
      "mater": 5419,
      "award": 5420,
      "109": 5421,
      "charges": 5422,
      "courage": 5423,
      "catholics": 5424,
      "civilization": 5425,
      "teaching": 5426,
      "creating": 5427,
      "facing": 5428,
      "werent": 5429,
      "canadian": 5430,
      "dropped": 5431,
      "regarding": 5432,
      "village": 5433,
      "screaming": 5434,
      "possibly": 5435,
      "kurdistan": 5436,
      "thursday": 5437,
      "infrastructure": 5438,
      "rus": 5439,
      "rhe": 5440,
      "rash": 5441,
      "wrest": 5442,
      "thy": 5443,
      "theory": 5444,
      "anders": 5445,
      "sees": 5446,
      "ada": 5447,
      "convic": 5448,
      "ours": 5449,
      "boi": 5450,
      "root": 5451,
      "scary": 5452,
      "supported": 5453,
      "tony": 5454,
      "contact": 5455,
      "extreme": 5456,
      "faced": 5457,
      "rising": 5458,
      "doctors": 5459,
      "survive": 5460,
      "pissed": 5461,
      "operation": 5462,
      "stealing": 5463,
      "sjw": 5464,
      "dated": 5465,
      "fla": 5466,
      "qa": 5467,
      "rank": 5468,
      "winter": 5469,
      "anth": 5470,
      "recru": 5471,
      "oul": 5472,
      "alous": 5473,
      "sters": 5474,
      "stress": 5475,
      "beard": 5476,
      "actors": 5477,
      "shark": 5478,
      "illa": 5479,
      "therap": 5480,
      "consequ": 5481,
      "standards": 5482,
      "wave": 5483,
      "shooter": 5484,
      "followed": 5485,
      "brook": 5486,
      "contribut": 5487,
      "decade": 5488,
      "stole": 5489,
      "hhh": 5490,
      "jackson": 5491,
      "strength": 5492,
      "blonde": 5493,
      "seconds": 5494,
      "dess": 5495,
      "dip": 5496,
      "gif": 5497,
      "mama": 5498,
      "nur": 5499,
      "paint": 5500,
      "rig": 5501,
      "‍‍": 5502,
      "opposition": 5503,
      "finished": 5504,
      "pton": 5505,
      "cape": 5506,
      "context": 5507,
      "livesmatter": 5508,
      "oppressed": 5509,
      "injury": 5510,
      "invaders": 5511,
      "sweat": 5512,
      "kurdish": 5513,
      "antisemit": 5514,
      "tongue": 5515,
      "gam": 5516,
      "iority": 5517,
      "nis": 5518,
      "pump": 5519,
      "rection": 5520,
      "chant": 5521,
      "lift": 5522,
      "agon": 5523,
      "resident": 5524,
      "cancel": 5525,
      "gotten": 5526,
      "tele": 5527,
      "warm": 5528,
      "roast": 5529,
      "dry": 5530,
      "buying": 5531,
      "smack": 5532,
      "cultures": 5533,
      "helps": 5534,
      "burning": 5535,
      "bae": 5536,
      "apping": 5537,
      "propos": 5538,
      "feminine": 5539,
      "believer": 5540,
      "hilarious": 5541,
      "congrats": 5542,
      "individuals": 5543,
      "platform": 5544,
      "opposite": 5545,
      "42": 5546,
      "cate": 5547,
      "jere": 5548,
      "june": 5549,
      "mes": 5550,
      "tack": 5551,
      "rease": 5552,
      "org": 5553,
      "chuck": 5554,
      "icated": 5555,
      "shah": 5556,
      "iro": 5557,
      "utter": 5558,
      "weather": 5559,
      "128527": 5560,
      "marks": 5561,
      "signed": 5562,
      "protection": 5563,
      "richard": 5564,
      "oooooooo": 5565,
      "thousand": 5566,
      "included": 5567,
      "snap": 5568,
      "bowl": 5569,
      "specific": 5570,
      "kelly": 5571,
      "complex": 5572,
      "property": 5573,
      "integr": 5574,
      "pronoun": 5575,
      "performan": 5576,
      "hated": 5577,
      "sack": 5578,
      "ule": 5579,
      "indones": 5580,
      "restrict": 5581,
      "amen": 5582,
      "liz": 5583,
      "unlike": 5584,
      "agency": 5585,
      "petr": 5586,
      "defeat": 5587,
      "goy": 5588,
      "constru": 5589,
      "yep": 5590,
      "backs": 5591,
      "polish": 5592,
      "scor": 5593,
      "served": 5594,
      "flash": 5595,
      "azi": 5596,
      "viron": 5597,
      "peter": 5598,
      "daniel": 5599,
      "floor": 5600,
      "photos": 5601,
      "empire": 5602,
      "awareness": 5603,
      "slowly": 5604,
      "distur": 5605,
      "influence": 5606,
      "describ": 5607,
      "500": 5608,
      "bf": 5609,
      "dish": 5610,
      "hmm": 5611,
      "tam": 5612,
      "chink": 5613,
      "aman": 5614,
      "libt": 5615,
      "bern": 5616,
      "warren": 5617,
      "worlds": 5618,
      "russians": 5619,
      "buck": 5620,
      "magic": 5621,
      "skinny": 5622,
      "golden": 5623,
      "labor": 5624,
      "professional": 5625,
      "promoting": 5626,
      "benefit": 5627,
      "ethiopia": 5628,
      "quarter": 5629,
      "stadium": 5630,
      "convinc": 5631,
      "46": 5632,
      "genders": 5633,
      "lap": 5634,
      "size": 5635,
      "tas": 5636,
      "tag": 5637,
      "zil": 5638,
      "isy": 5639,
      "environ": 5640,
      "shaw": 5641,
      "ume": 5642,
      "myster": 5643,
      "price": 5644,
      "ansas": 5645,
      "2018": 5646,
      "saving": 5647,
      "hasnt": 5648,
      "jealous": 5649,
      "izations": 5650,
      "azz": 5651,
      "keeper": 5652,
      "engine": 5653,
      "mentioned": 5654,
      "bastards": 5655,
      "9996": 5656,
      "department": 5657,
      "gaf": 5658,
      "von": 5659,
      "recomm": 5660,
      "asp": 5661,
      "station": 5662,
      "liar": 5663,
      "shap": 5664,
      "elite": 5665,
      "gosp": 5666,
      "prostitut": 5667,
      "puts": 5668,
      "footballer": 5669,
      "barak": 5670,
      "ski": 5671,
      "caa": 5672,
      "bloody": 5673,
      "leads": 5674,
      "switch": 5675,
      "pretend": 5676,
      "added": 5677,
      "healthcare": 5678,
      "joined": 5679,
      "francis": 5680,
      "shocking": 5681,
      "fascist": 5682,
      "pedophiles": 5683,
      "kj": 5684,
      "repor": 5685,
      "album": 5686,
      "tok": 5687,
      "chi": 5688,
      "aces": 5689,
      "trop": 5690,
      "dod": 5691,
      "nove": 5692,
      "conver": 5693,
      "bob": 5694,
      "tears": 5695,
      "spin": 5696,
      "naw": 5697,
      "lookin": 5698,
      "gene": 5699,
      "msm": 5700,
      "slam": 5701,
      "syrians": 5702,
      "throughout": 5703,
      "reporting": 5704,
      "consist": 5705,
      "archy": 5706,
      "petition": 5707,
      "receive": 5708,
      "directly": 5709,
      "historical": 5710,
      "tattoo": 5711,
      "bart": 5712,
      "fg": 5713,
      "hunt": 5714,
      "nun": 5715,
      "wid": 5716,
      "inch": 5717,
      "relat": 5718,
      "isto": 5719,
      "ita": 5720,
      "abled": 5721,
      "sodom": 5722,
      "ifically": 5723,
      "acknow": 5724,
      "teeth": 5725,
      "iphone": 5726,
      "gency": 5727,
      "presidential": 5728,
      "cars": 5729,
      "nationalists": 5730,
      "surround": 5731,
      "filip": 5732,
      "masks": 5733,
      "threatened": 5734,
      "bills": 5735,
      "moslems": 5736,
      "amazon": 5737,
      "activist": 5738,
      "types": 5739,
      "wolves": 5740,
      "employe": 5741,
      "naked": 5742,
      "desperate": 5743,
      "inspired": 5744,
      "quran": 5745,
      "bread": 5746,
      "dere": 5747,
      "alab": 5748,
      "toi": 5749,
      "acon": 5750,
      "tribute": 5751,
      "convert": 5752,
      "math": 5753,
      "donate": 5754,
      "brad": 5755,
      "kings": 5756,
      "mates": 5757,
      "ademy": 5758,
      "planning": 5759,
      "abortions": 5760,
      "128076": 5761,
      "brutality": 5762,
      "breeding": 5763,
      "sarah": 5764,
      "thirsty": 5765,
      "scotland": 5766,
      "agreed": 5767,
      "somalia": 5768,
      "semitic": 5769,
      "dil": 5770,
      "dum": 5771,
      "fy": 5772,
      "kl": 5773,
      "pope": 5774,
      "iner": 5775,
      "anch": 5776,
      "stink": 5777,
      "beef": 5778,
      "idc": 5779,
      "igen": 5780,
      "mod": 5781,
      "mubarak": 5782,
      "serving": 5783,
      "deadly": 5784,
      "cake": 5785,
      "runs": 5786,
      "horror": 5787,
      "forming": 5788,
      "minded": 5789,
      "nato": 5790,
      "experiences": 5791,
      "besides": 5792,
      "savage": 5793,
      "triggered": 5794,
      "dozens": 5795,
      "dust": 5796,
      "isation": 5797,
      "asap": 5798,
      "academy": 5799,
      "forts": 5800,
      "agers": 5801,
      "loose": 5802,
      "print": 5803,
      "complic": 5804,
      "hispan": 5805,
      "icked": 5806,
      "owner": 5807,
      "ros": 5808,
      "lovely": 5809,
      "luke": 5810,
      "univers": 5811,
      "chicks": 5812,
      "flix": 5813,
      "labour": 5814,
      "cousin": 5815,
      "genuinely": 5816,
      "mountain": 5817,
      "penalty": 5818,
      "92": 5819,
      "bone": 5820,
      "mou": 5821,
      "nin": 5822,
      "ries": 5823,
      "rice": 5824,
      "uit": 5825,
      "xit": 5826,
      "itals": 5827,
      "andrew": 5828,
      "shown": 5829,
      "kevin": 5830,
      "oly": 5831,
      "connell": 5832,
      "manip": 5833,
      "boston": 5834,
      "robb": 5835,
      "lette": 5836,
      "kingdom": 5837,
      "scen": 5838,
      "afternoon": 5839,
      "osi": 5840,
      "parties": 5841,
      "aved": 5842,
      "slur": 5843,
      "bucks": 5844,
      "bloom": 5845,
      "harder": 5846,
      "apply": 5847,
      "freely": 5848,
      "pretending": 5849,
      "rude": 5850,
      "tweeting": 5851,
      "joebiden": 5852,
      "breaks": 5853,
      "mirror": 5854,
      "ignorance": 5855,
      "levels": 5856,
      "fighters": 5857,
      "fetish": 5858,
      "bishop": 5859,
      "gospel": 5860,
      "dna": 5861,
      "fck": 5862,
      "hid": 5863,
      "lun": 5864,
      "pes": 5865,
      "qas": 5866,
      "tig": 5867,
      "uy": 5868,
      "vene": 5869,
      "wack": 5870,
      "andro": 5871,
      "chose": 5872,
      "omo": 5873,
      "shy": 5874,
      "igan": 5875,
      "kee": 5876,
      "ionally": 5877,
      "meme": 5878,
      "height": 5879,
      "brian": 5880,
      "apple": 5881,
      "boot": 5882,
      "foc": 5883,
      "grind": 5884,
      "cler": 5885,
      "tear": 5886,
      "shep": 5887,
      "commission": 5888,
      "standard": 5889,
      "skins": 5890,
      "talkin": 5891,
      "planned": 5892,
      "tier": 5893,
      "covering": 5894,
      "nudes": 5895,
      "lockdown": 5896,
      "nigerian": 5897,
      "kurds": 5898,
      "discussion": 5899,
      "housing": 5900,
      "document": 5901,
      "prince": 5902,
      "suddenly": 5903,
      "baptist": 5904,
      "entitled": 5905,
      "rhetor": 5906,
      "beng": 5907,
      "sf": 5908,
      "saint": 5909,
      "tact": 5910,
      "wigg": 5911,
      "threw": 5912,
      "alright": 5913,
      "chain": 5914,
      "leaves": 5915,
      "tric": 5916,
      "prior": 5917,
      "yourselves": 5918,
      "blaming": 5919,
      "exists": 5920,
      "extermin": 5921,
      "12813": 5922,
      "2015": 5923,
      "icking": 5924,
      "scale": 5925,
      "scandal": 5926,
      "atchet": 5927,
      "corner": 5928,
      "stupidity": 5929,
      "gling": 5930,
      "regional": 5931,
      "appy": 5932,
      "leftists": 5933,
      "nationalism": 5934,
      "deny": 5935,
      "relate": 5936,
      "tik": 5937,
      "hung": 5938,
      "netflix": 5939,
      "jerk": 5940,
      "kashmiri": 5941,
      "gorge": 5942,
      "128129": 5943,
      "bug": 5944,
      "cof": 5945,
      "dur": 5946,
      "dia": 5947,
      "egg": 5948,
      "fred": 5949,
      "hiding": 5950,
      "jk": 5951,
      "tions": 5952,
      "wc": 5953,
      "yard": 5954,
      "combat": 5955,
      "berlin": 5956,
      "redu": 5957,
      "genet": 5958,
      "hella": 5959,
      "elections": 5960,
      "rush": 5961,
      "generally": 5962,
      "sadly": 5963,
      "classic": 5964,
      "nuke": 5965,
      "mcconnell": 5966,
      "steps": 5967,
      "divor": 5968,
      "considering": 5969,
      "walked": 5970,
      "cracker": 5971,
      "specifically": 5972,
      "activists": 5973,
      "thugs": 5974,
      "traitors": 5975,
      "hispanics": 5976,
      "87": 5977,
      "avi": 5978,
      "bd": 5979,
      "cart": 5980,
      "eh": 5981,
      "pse": 5982,
      "pier": 5983,
      "vest": 5984,
      "xo": 5985,
      "alli": 5986,
      "secular": 5987,
      "amn": 5988,
      "amber": 5989,
      "elder": 5990,
      "urge": 5991,
      "utd": 5992,
      "condu": 5993,
      "ourselves": 5994,
      "suppose": 5995,
      "desc": 5996,
      "muse": 5997,
      "minim": 5998,
      "msnbc": 5999,
      "increase": 6000,
      "ohio": 6001,
      "euro": 6002,
      "cocks": 6003,
      "sluts": 6004,
      "ieffer": 6005,
      "clubs": 6006,
      "metal": 6007,
      "karma": 6008,
      "oppression": 6009,
      "window": 6010,
      "31marchgenocide": 6011,
      "ilhanmn": 6012,
      "establish": 6013,
      "sneak": 6014,
      "november": 6015,
      "gorgeous": 6016,
      "4th": 6017,
      "59": 6018,
      "cards": 6019,
      "kieffer": 6020,
      "lind": 6021,
      "mg": 6022,
      "mort": 6023,
      "tank": 6024,
      "inary": 6025,
      "chap": 6026,
      "chase": 6027,
      "allas": 6028,
      "tri": 6029,
      "abag": 6030,
      "noticed": 6031,
      "august": 6032,
      "gettin": 6033,
      "dayof": 6034,
      "iven": 6035,
      "presents": 6036,
      "strange": 6037,
      "function": 6038,
      "greater": 6039,
      "murderer": 6040,
      "finds": 6041,
      "bury": 6042,
      "pati": 6043,
      "andgtandgt": 6044,
      "sanct": 6045,
      "jihadis": 6046,
      "martin": 6047,
      "10412": 6048,
      "vagina": 6049,
      "barely": 6050,
      "taylor": 6051,
      "heterosexual": 6052,
      "cricket": 6053,
      "anthony": 6054,
      "bble": 6055,
      "eag": 6056,
      "nope": 6057,
      "request": 6058,
      "enforce": 6059,
      "chop": 6060,
      "stig": 6061,
      "whip": 6062,
      "vet": 6063,
      "advis": 6064,
      "deau": 6065,
      "pressing": 6066,
      "muh": 6067,
      "ache": 6068,
      "osen": 6069,
      "firm": 6070,
      "ryan": 6071,
      "turks": 6072,
      "basis": 6073,
      "mercy": 6074,
      "senator": 6075,
      "highly": 6076,
      "elect": 6077,
      "aughters": 6078,
      "passion": 6079,
      "hotel": 6080,
      "cucks": 6081,
      "quickly": 6082,
      "physically": 6083,
      "intelligent": 6084,
      "bigotry": 6085,
      "mlb": 6086,
      "exclusive": 6087,
      "aside": 6088,
      "arant": 6089,
      "loot": 6090,
      "mosqu": 6091,
      "heat": 6092,
      "dogan": 6093,
      "apes": 6094,
      "coal": 6095,
      "rohing": 6096,
      "tyler": 6097,
      "limited": 6098,
      "agement": 6099,
      "embass": 6100,
      "persons": 6101,
      "homeland": 6102,
      "cheating": 6103,
      "damage": 6104,
      "burned": 6105,
      "elec": 6106,
      "governments": 6107,
      "lilnas": 6108,
      "brownies": 6109,
      "aaa": 6110,
      "photograp": 6111,
      "pointing": 6112,
      "ghana": 6113,
      "buddy": 6114,
      "spoke": 6115,
      "solve": 6116,
      "mulan": 6117,
      "9995": 6118,
      "fleeing": 6119,
      "powers": 6120,
      "comedy": 6121,
      "appointed": 6122,
      "largest": 6123,
      "gaz": 6124,
      "ratchet": 6125,
      "tac": 6126,
      "tab": 6127,
      "intim": 6128,
      "inating": 6129,
      "imate": 6130,
      "agen": 6131,
      "moves": 6132,
      "justify": 6133,
      "brings": 6134,
      "nigguh": 6135,
      "owners": 6136,
      "sheep": 6137,
      "128588": 6138,
      "guarant": 6139,
      "occur": 6140,
      "glory": 6141,
      "surely": 6142,
      "truck": 6143,
      "latino": 6144,
      "hibit": 6145,
      "efforts": 6146,
      "sched": 6147,
      "schol": 6148,
      "doctr": 6149,
      "copy": 6150,
      "concern": 6151,
      "hanging": 6152,
      "secretary": 6153,
      "fabric": 6154,
      "islamophobia": 6155,
      "conspiracy": 6156,
      "54": 6157,
      "eb": 6158,
      "gag": 6159,
      "lers": 6160,
      "ost": 6161,
      "sop": 6162,
      "xi": 6163,
      "anne": 6164,
      "leeds": 6165,
      "stun": 6166,
      "ican": 6167,
      "amend": 6168,
      "idel": 6169,
      "agent": 6170,
      "ette": 6171,
      "updates": 6172,
      "sox": 6173,
      "soy": 6174,
      "raid": 6175,
      "herd": 6176,
      "boat": 6177,
      "presid": 6178,
      "backed": 6179,
      "rivers": 6180,
      "mins": 6181,
      "migrant": 6182,
      "heading": 6183,
      "cheese": 6184,
      "humanitarian": 6185,
      "ukrain": 6186,
      "believed": 6187,
      "memorial": 6188,
      "execution": 6189,
      "executive": 6190,
      "progressive": 6191,
      "knees": 6192,
      "fighter": 6193,
      "restrictions": 6194,
      "rhetoric": 6195,
      "72": 6196,
      "bia": 6197,
      "bans": 6198,
      "ghost": 6199,
      "hay": 6200,
      "sr": 6201,
      "tun": 6202,
      "various": 6203,
      "thail": 6204,
      "isions": 6205,
      "ature": 6206,
      "asks": 6207,
      "chu": 6208,
      "icts": 6209,
      "beg": 6210,
      "sean": 6211,
      "seas": 6212,
      "actor": 6213,
      "usal": 6214,
      "irans": 6215,
      "teabag": 6216,
      "selfish": 6217,
      "invented": 6218,
      "swag": 6219,
      "brains": 6220,
      "threatening": 6221,
      "refused": 6222,
      "reflect": 6223,
      "authority": 6224,
      "species": 6225,
      "required": 6226,
      "pelosi": 6227,
      "alabama": 6228,
      "dayofvisibility": 6229,
      "lilnasx": 6230,
      "thailand": 6231,
      "2k": 6232,
      "dim": 6233,
      "dope": 6234,
      "daughters": 6235,
      "ileg": 6236,
      "roles": 6237,
      "sd": 6238,
      "erad": 6239,
      "alco": 6240,
      "eda": 6241,
      "stance": 6242,
      "begging": 6243,
      "accompl": 6244,
      "trum": 6245,
      "unders": 6246,
      "ups": 6247,
      "odi": 6248,
      "indigen": 6249,
      "coons": 6250,
      "tail": 6251,
      "matic": 6252,
      "trudeau": 6253,
      "winner": 6254,
      "socialist": 6255,
      "greed": 6256,
      "voices": 6257,
      "128064": 6258,
      "grandma": 6259,
      "picked": 6260,
      "privileg": 6261,
      "sleeping": 6262,
      "graham": 6263,
      "brutally": 6264,
      "empty": 6265,
      "explos": 6266,
      "darity": 6267,
      "ruined": 6268,
      "priests": 6269,
      "dawg": 6270,
      "manipul": 6271,
      "89": 6272,
      "vac": 6273,
      "yah": 6274,
      "infer": 6275,
      "thew": 6276,
      "tober": 6277,
      "icals": 6278,
      "ola": 6279,
      "user": 6280,
      "ura": 6281,
      "und": 6282,
      "uno": 6283,
      "outbreak": 6284,
      "goo": 6285,
      "bitter": 6286,
      "brilli": 6287,
      "womans": 6288,
      "coast": 6289,
      "clar": 6290,
      "preh": 6291,
      "migration": 6292,
      "intent": 6293,
      "cuh": 6294,
      "iranians": 6295,
      "160": 6296,
      "studies": 6297,
      "foreigner": 6298,
      "failure": 6299,
      "linked": 6300,
      "ucky": 6301,
      "injuries": 6302,
      "savages": 6303,
      "mistake": 6304,
      "31march1918": 6305,
      "solidarity": 6306,
      "introdu": 6307,
      "crossing": 6308,
      "excellent": 6309,
      "6th": 6310,
      "aire": 6311,
      "rates": 6312,
      "sny": 6313,
      "treason": 6314,
      "ware": 6315,
      "andy": 6316,
      "began": 6317,
      "shared": 6318,
      "abad": 6319,
      "abra": 6320,
      "mosc": 6321,
      "mah": 6322,
      "killers": 6323,
      "wouldve": 6324,
      "beings": 6325,
      "riots": 6326,
      "command": 6327,
      "bio": 6328,
      "mormon": 6329,
      "humili": 6330,
      "glor": 6331,
      "juli": 6332,
      "***": 6333,
      "generations": 6334,
      "advance": 6335,
      "protected": 6336,
      "hillbilly": 6337,
      "demonstr": 6338,
      "allegations": 6339,
      "properly": 6340,
      "australian": 6341,
      "dinner": 6342,
      "sensitive": 6343,
      "bridge": 6344,
      "consequences": 6345,
      "performance": 6346,
      "derek": 6347,
      "indigenous": 6348,
      "dro": 6349,
      "emo": 6350,
      "skills": 6351,
      "vul": 6352,
      "wu": 6353,
      "zar": 6354,
      "aly": 6355,
      "andon": 6356,
      "lean": 6357,
      "icate": 6358,
      "sets": 6359,
      "adults": 6360,
      "pee": 6361,
      "doors": 6362,
      "plom": 6363,
      "map": 6364,
      "combin": 6365,
      "ieg": 6366,
      "128109": 6367,
      "icks": 6368,
      "disney": 6369,
      "syl": 6370,
      "murders": 6371,
      "causing": 6372,
      "sett": 6373,
      "houston": 6374,
      "brazil": 6375,
      "valley": 6376,
      "virtu": 6377,
      "signs": 6378,
      "homophobes": 6379,
      "celebration": 6380,
      "confidence": 6381,
      "ignoring": 6382,
      "heavy": 6383,
      "declared": 6384,
      "carrying": 6385,
      "beaner": 6386,
      "journalist": 6387,
      "sacrif": 6388,
      "suspended": 6389,
      "roulette": 6390,
      "museum": 6391,
      "74": 6392,
      "83": 6393,
      "dallas": 6394,
      "mall": 6395,
      "mour": 6396,
      "mous": 6397,
      "pant": 6398,
      "rout": 6399,
      "rum": 6400,
      "anon": 6401,
      "itre": 6402,
      "alo": 6403,
      "ora": 6404,
      "accur": 6405,
      "lip": 6406,
      "idal": 6407,
      "novel": 6408,
      "oduc": 6409,
      "mains": 6410,
      "sued": 6411,
      "clin": 6412,
      "offered": 6413,
      "roots": 6414,
      "attle": 6415,
      "scam": 6416,
      "tale": 6417,
      "legacy": 6418,
      "goddess": 6419,
      "transdayofvisibility": 6420,
      "lesson": 6421,
      "worker": 6422,
      "mature": 6423,
      "barack": 6424,
      "barcel": 6425,
      "invited": 6426,
      "patient": 6427,
      "signific": 6428,
      "ww2": 6429,
      "delus": 6430,
      "profile": 6431,
      "businesses": 6432,
      "brainwashed": 6433,
      "square": 6434,
      "heroes": 6435,
      "satanic": 6436,
      "smoking": 6437,
      "neighbors": 6438,
      "ignored": 6439,
      "recognize": 6440,
      "puppet": 6441,
      "advantage": 6442,
      "sacrifice": 6443,
      "ckey": 6444,
      "hiv": 6445,
      "lau": 6446,
      "thur": 6447,
      "ini": 6448,
      "infl": 6449,
      "asf": 6450,
      "chau": 6451,
      "unte": 6452,
      "web": 6453,
      "conqu": 6454,
      "blah": 6455,
      "actress": 6456,
      "grim": 6457,
      "mentality": 6458,
      "128526": 6459,
      "tortured": 6460,
      "epic": 6461,
      "pleasure": 6462,
      "queens": 6463,
      "brexit": 6464,
      "memes": 6465,
      "singing": 6466,
      "publicly": 6467,
      "defence": 6468,
      "airport": 6469,
      "equally": 6470,
      "profit": 6471,
      "romance": 6472,
      "homosexuals": 6473,
      "iraqi": 6474,
      "1279": 6475,
      "dollar": 6476,
      "memory": 6477,
      "shocked": 6478,
      "circum": 6479,
      "complaining": 6480,
      "volunte": 6481,
      "baku": 6482,
      "documented": 6483,
      "transphobic": 6484,
      "camera": 6485,
      "praise": 6486,
      "arguing": 6487,
      "alcohol": 6488,
      "barcelona": 6489,
      "57": 6490,
      "bip": 6491,
      "bald": 6492,
      "cages": 6493,
      "jess": 6494,
      "kab": 6495,
      "rison": 6496,
      "anime": 6497,
      "ern": 6498,
      "relie": 6499,
      "chad": 6500,
      "leak": 6501,
      "bels": 6502,
      "otd": 6503,
      "opath": 6504,
      "option": 6505,
      "uneducated": 6506,
      "abandon": 6507,
      "haven": 6508,
      "deut": 6509,
      "theyd": 6510,
      "ceed": 6511,
      "concl": 6512,
      "2017": 6513,
      "cole": 6514,
      "cles": 6515,
      "eva": 6516,
      "mini": 6517,
      "occas": 6518,
      "niggaz": 6519,
      "perspect": 6520,
      "positions": 6521,
      "fundam": 6522,
      "bars": 6523,
      "charity": 6524,
      "basement": 6525,
      "rub": 6526,
      "riding": 6527,
      "condition": 6528,
      "dealing": 6529,
      "interests": 6530,
      "kenya": 6531,
      "appears": 6532,
      "lonely": 6533,
      "scored": 6534,
      "flip": 6535,
      "boost": 6536,
      "confirm": 6537,
      "korean": 6538,
      "knee": 6539,
      "require": 6540,
      "michelle": 6541,
      "punishment": 6542,
      "masculine": 6543,
      "cere": 6544,
      "nine": 6545,
      "pom": 6546,
      "rage": 6547,
      "ramp": 6548,
      "tx": 6549,
      "uber": 6550,
      "xen": 6551,
      "eritre": 6552,
      "lection": 6553,
      "seed": 6554,
      "advert": 6555,
      "iment": 6556,
      "oppon": 6557,
      "tery": 6558,
      "dos": 6559,
      "raising": 6560,
      "hobe": 6561,
      "exit": 6562,
      "americas": 6563,
      "lake": 6564,
      "syn": 6565,
      "worldwide": 6566,
      "intention": 6567,
      "posing": 6568,
      "chee": 6569,
      "mative": 6570,
      "earn": 6571,
      "closer": 6572,
      "150": 6573,
      "satis": 6574,
      "deserved": 6575,
      "gtfo": 6576,
      "annual": 6577,
      "bullying": 6578,
      "fools": 6579,
      "jersey": 6580,
      "explains": 6581,
      "patriots": 6582,
      "sources": 6583,
      "announce": 6584,
      "festival": 6585,
      "independence": 6586,
      "michigan": 6587,
      "misogyny": 6588,
      "bloomberg": 6589,
      "moscow": 6590,
      "flying": 6591,
      "slight": 6592,
      "vars": 6593,
      "aya": 6594,
      "ela": 6595,
      "elo": 6596,
      "unite": 6597,
      "entially": 6598,
      "moore": 6599,
      "istics": 6600,
      "rach": 6601,
      "guilt": 6602,
      "diplom": 6603,
      "goddamn": 6604,
      "commie": 6605,
      "bias": 6606,
      "inciting": 6607,
      "hari": 6608,
      "haram": 6609,
      "duck": 6610,
      "yahoo": 6611,
      "denied": 6612,
      "autistic": 6613,
      "greeks": 6614,
      "slutty": 6615,
      "universe": 6616,
      "produce": 6617,
      "graphic": 6618,
      "repeat": 6619,
      "hypocrisy": 6620,
      "experts": 6621,
      "prepared": 6622,
      "espn": 6623,
      "emergency": 6624,
      "princess": 6625,
      "survivors": 6626,
      "strategy": 6627,
      "legislation": 6628,
      "veterans": 6629,
      "embassy": 6630,
      "presidency": 6631,
      "brilliant": 6632,
      "51": 6633,
      "bend": 6634,
      "cbs": 6635,
      "dul": 6636,
      "oth": 6637,
      "wiz": 6638,
      "thor": 6639,
      "rebel": 6640,
      "arrog": 6641,
      "chip": 6642,
      "iling": 6643,
      "users": 6644,
      "elly": 6645,
      "ague": 6646,
      "aine": 6647,
      "whitey": 6648,
      "oked": 6649,
      "gee": 6650,
      "128563": 6651,
      "disabled": 6652,
      "perman": 6653,
      "gery": 6654,
      "spect": 6655,
      "shoe": 6656,
      "inson": 6657,
      "carried": 6658,
      "published": 6659,
      "causes": 6660,
      "consci": 6661,
      "checked": 6662,
      "magaz": 6663,
      "hhhh": 6664,
      "range": 6665,
      "pulled": 6666,
      "haters": 6667,
      "negroes": 6668,
      "journey": 6669,
      "historic": 6670,
      "benefits": 6671,
      "mohammed": 6672,
      "athletes": 6673,
      "determin": 6674,
      "orientation": 6675,
      "kentucky": 6676,
      "dol": 6677,
      "hm": 6678,
      "jama": 6679,
      "khal": 6680,
      "rol": 6681,
      "rangers": 6682,
      "wip": 6683,
      "yung": 6684,
      "erdogan": 6685,
      "tood": 6686,
      "escape": 6687,
      "impossible": 6688,
      "degree": 6689,
      "assad": 6690,
      "wayne": 6691,
      "proves": 6692,
      "province": 6693,
      "preser": 6694,
      "minor": 6695,
      "presidents": 6696,
      "ogue": 6697,
      "invade": 6698,
      "visa": 6699,
      "sale": 6700,
      "hurts": 6701,
      "armenia": 6702,
      "revol": 6703,
      "spoken": 6704,
      "suffered": 6705,
      "perfectly": 6706,
      "multicul": 6707,
      "dutch": 6708,
      "knife": 6709,
      "particularly": 6710,
      "ultimate": 6711,
      "thierry": 6712,
      "convinced": 6713,
      "amendment": 6714,
      "96": 6715,
      "98": 6716,
      "dot": 6717,
      "hallow": 6718,
      "jj": 6719,
      "piz": 6720,
      "tue": 6721,
      "ero": 6722,
      "lex": 6723,
      "stated": 6724,
      "omin": 6725,
      "whil": 6726,
      "lime": 6727,
      "vegas": 6728,
      "tril": 6729,
      "anton": 6730,
      "conce": 6731,
      "fears": 6732,
      "glass": 6733,
      "swing": 6734,
      "lmaoooo": 6735,
      "stayed": 6736,
      "stolen": 6737,
      "celebrated": 6738,
      "protecting": 6739,
      "pundit": 6740,
      "taxpay": 6741,
      "falls": 6742,
      "titties": 6743,
      "pulling": 6744,
      "yankee": 6745,
      "crackers": 6746,
      "fantastic": 6747,
      "swedish": 6748,
      "ethnicity": 6749,
      "mfs": 6750,
      "development": 6751,
      "williams": 6752,
      "embarrassing": 6753,
      "controlled": 6754,
      "financial": 6755,
      "relief": 6756,
      "76": 6757,
      "bands": 6758,
      "gb": 6759,
      "sink": 6760,
      "vari": 6761,
      "wif": 6762,
      "zim": 6763,
      "thai": 6764,
      "inct": 6765,
      "inner": 6766,
      "incompet": 6767,
      "ania": 6768,
      "rec": 6769,
      "remains": 6770,
      "toy": 6771,
      "icing": 6772,
      "acity": 6773,
      "trag": 6774,
      "iring": 6775,
      "tered": 6776,
      "soviet": 6777,
      "crist": 6778,
      "proven": 6779,
      "torn": 6780,
      "affair": 6781,
      "izer": 6782,
      "muds": 6783,
      "perpetr": 6784,
      "mony": 6785,
      "flesh": 6786,
      "leagues": 6787,
      "october": 6788,
      "cleans": 6789,
      "cuts": 6790,
      "compass": 6791,
      "handed": 6792,
      "restaur": 6793,
      "juice": 6794,
      "stood": 6795,
      "addition": 6796,
      "hairy": 6797,
      "sanctions": 6798,
      "bags": 6799,
      "neighbour": 6800,
      "80s": 6801,
      "villa": 6802,
      "belongs": 6803,
      "boobs": 6804,
      "aggressive": 6805,
      "censor": 6806,
      "coffee": 6807,
      "delusional": 6808,
      "71": 6809,
      "naren": 6810,
      "tied": 6811,
      "arse": 6812,
      "chosen": 6813,
      "seat": 6814,
      "aced": 6815,
      "shr": 6816,
      "shake": 6817,
      "opposed": 6818,
      "hai": 6819,
      "reser": 6820,
      "resur": 6821,
      "brag": 6822,
      "navy": 6823,
      "discovered": 6824,
      "diverse": 6825,
      "scare": 6826,
      "identified": 6827,
      "serial": 6828,
      "commer": 6829,
      "pardon": 6830,
      "obam": 6831,
      "curious": 6832,
      "lawsuit": 6833,
      "setting": 6834,
      "hijab": 6835,
      "allows": 6836,
      "virgins": 6837,
      "literal": 6838,
      "bombers": 6839,
      "includes": 6840,
      "conditions": 6841,
      "lebron": 6842,
      "coverage": 6843,
      "austin": 6844,
      "arrived": 6845,
      "execute": 6846,
      "corruption": 6847,
      "demanding": 6848,
      "separate": 6849,
      "incredible": 6850,
      "mosques": 6851,
      "varsity": 6852,
      "5th": 6853,
      "800": 6854,
      "biz": 6855,
      "hire": 6856,
      "iate": 6857,
      "kal": 6858,
      "lash": 6859,
      "lunch": 6860,
      "ncaa": 6861,
      "rw": 6862,
      "ua": 6863,
      "vit": 6864,
      "infest": 6865,
      "enjo": 6866,
      "aring": 6867,
      "steven": 6868,
      "imper": 6869,
      "improve": 6870,
      "fucc": 6871,
      "moan": 6872,
      "butch": 6873,
      "blink": 6874,
      "clots": 6875,
      "savi": 6876,
      "proved": 6877,
      "scumb": 6878,
      "rapper": 6879,
      "happiness": 6880,
      "puer": 6881,
      "poster": 6882,
      "parad": 6883,
      "continent": 6884,
      "pete": 6885,
      "miser": 6886,
      "dancing": 6887,
      "couples": 6888,
      "picking": 6889,
      "constant": 6890,
      "figures": 6891,
      "patriot": 6892,
      "philip": 6893,
      "connection": 6894,
      "analys": 6895,
      "guardian": 6896,
      "ethiopian": 6897,
      "wisdom": 6898,
      "vietnam": 6899,
      "raghead": 6900,
      "trending": 6901,
      "masculinity": 6902,
      "assaulted": 6903,
      "therapy": 6904,
      "alliance": 6905,
      "whilst": 6906,
      "ew": 6907,
      "flight": 6908,
      "fiction": 6909,
      "karab": 6910,
      "nj": 6911,
      "rl": 6912,
      "sb": 6913,
      "sain": 6914,
      "yt": 6915,
      "ena": 6916,
      "belt": 6917,
      "haz": 6918,
      "terr": 6919,
      "gook": 6920,
      "ifies": 6921,
      "plug": 6922,
      "api": 6923,
      "128536": 6924,
      "ports": 6925,
      "screw": 6926,
      "rapes": 6927,
      "columb": 6928,
      "insan": 6929,
      "internal": 6930,
      "writes": 6931,
      "miami": 6932,
      "bigots": 6933,
      "awards": 6934,
      "charlot": 6935,
      "compli": 6936,
      "momma": 6937,
      "pedo": 6938,
      "hitting": 6939,
      "ministers": 6940,
      "tempor": 6941,
      "temples": 6942,
      "treating": 6943,
      "iii": 6944,
      "falling": 6945,
      "organizations": 6946,
      "loads": 6947,
      "surprising": 6948,
      "declare": 6949,
      "reportedly": 6950,
      "mudshark": 6951,
      "stormfront": 6952,
      "transphobia": 6953,
      "obsessed": 6954,
      "wounded": 6955,
      "joseph": 6956,
      "holiday": 6957,
      "environment": 6958,
      "ukrainian": 6959,
      "fau": 6960,
      "hed": 6961,
      "las": 6962,
      "mount": 6963,
      "pau": 6964,
      "spray": 6965,
      "var": 6966,
      "wers": 6967,
      "wage": 6968,
      "wives": 6969,
      "beats": 6970,
      "idol": 6971,
      "adm": 6972,
      "unbeliev": 6973,
      "prolly": 6974,
      "doom": 6975,
      "blat": 6976,
      "hoops": 6977,
      "suing": 6978,
      "bored": 6979,
      "spending": 6980,
      "guise": 6981,
      "lax": 6982,
      "scprimary": 6983,
      "makeup": 6984,
      "genes": 6985,
      "chocol": 6986,
      "breath": 6987,
      "funded": 6988,
      "glas": 6989,
      "lmaoo": 6990,
      "denial": 6991,
      "craw": 6992,
      "desert": 6993,
      "speaker": 6994,
      "educate": 6995,
      "delhi": 6996,
      "castle": 6997,
      "repent": 6998,
      "entirely": 6999,
      "ordered": 7000,
      "pushed": 7001,
      "oreo": 7002,
      "invaded": 7003,
      "circle": 7004,
      "professor": 7005,
      "repeated": 7006,
      "persecution": 7007,
      "toilet": 7008,
      "uygh": 7009,
      "halloween": 7010,
      "dic": 7011,
      "eight": 7012,
      "jar": 7013,
      "mers": 7014,
      "rh": 7015,
      "ال": 7016,
      "ongoing": 7017,
      "encounter": 7018,
      "chem": 7019,
      "sta": 7020,
      "abusive": 7021,
      "fuel": 7022,
      "delete": 7023,
      "frustr": 7024,
      "pole": 7025,
      "essions": 7026,
      "artists": 7027,
      "timeline": 7028,
      "thereal": 7029,
      "marie": 7030,
      "mug": 7031,
      "badly": 7032,
      "invite": 7033,
      "holds": 7034,
      "cuses": 7035,
      "dete": 7036,
      "penn": 7037,
      "confident": 7038,
      "deeply": 7039,
      "gabfam": 7040,
      "boxing": 7041,
      "programs": 7042,
      "colonial": 7043,
      "launched": 7044,
      "allegedly": 7045,
      "farmers": 7046,
      "bold": 7047,
      "ego": 7048,
      "ffin": 7049,
      "fener": 7050,
      "hatt": 7051,
      "kil": 7052,
      "nan": 7053,
      "oli": 7054,
      "slo": 7055,
      "vig": 7056,
      "wn": 7057,
      "wreck": 7058,
      "zom": 7059,
      "zuel": 7060,
      "inn": 7061,
      "enger": 7062,
      "andor": 7063,
      "chong": 7064,
      "accent": 7065,
      "trated": 7066,
      "imprison": 7067,
      "plor": 7068,
      "maint": 7069,
      "makers": 7070,
      "comput": 7071,
      "subt": 7072,
      "uls": 7073,
      "bobby": 7074,
      "12814": 7075,
      "diseas": 7076,
      "disaster": 7077,
      "monster": 7078,
      "useful": 7079,
      "slurs": 7080,
      "homop": 7081,
      "homie": 7082,
      "shower": 7083,
      "aze": 7084,
      "regret": 7085,
      "paras": 7086,
      "inval": 7087,
      "sucked": 7088,
      "nerve": 7089,
      "controver": 7090,
      "horia": 7091,
      "motherfucker": 7092,
      "consent": 7093,
      "socialism": 7094,
      "inclusive": 7095,
      "bullet": 7096,
      "appeal": 7097,
      "flags": 7098,
      "goalkeeper": 7099,
      "azerbaijani": 7100,
      "briefed": 7101,
      "referring": 7102,
      "encourage": 7103,
      "increasing": 7104,
      "material": 7105,
      "filipino": 7106,
      "venezuel": 7107,
      "amnesty": 7108,
      "rohingya": 7109,
      "perspective": 7110,
      "pizza": 7111,
      "fenerbah": 7112,
      "01": 7113,
      "bump": 7114,
      "fist": 7115,
      "gass": 7116,
      "iac": 7117,
      "pity": 7118,
      "inher": 7119,
      "insecure": 7120,
      "initi": 7121,
      "isol": 7122,
      "ati": 7123,
      "tore": 7124,
      "stim": 7125,
      "stats": 7126,
      "wher": 7127,
      "ication": 7128,
      "owe": 7129,
      "forbid": 7130,
      "urban": 7131,
      "detro": 7132,
      "notes": 7133,
      "nock": 7134,
      "conven": 7135,
      "inder": 7136,
      "discourse": 7137,
      "syd": 7138,
      "partners": 7139,
      "interracial": 7140,
      "thrill": 7141,
      "pretext": 7142,
      "decisions": 7143,
      "walks": 7144,
      "lux": 7145,
      "pridemonth": 7146,
      "ramad": 7147,
      "committing": 7148,
      "247": 7149,
      "believing": 7150,
      "nigerians": 7151,
      "wheel": 7152,
      "grave": 7153,
      "receiving": 7154,
      "eternal": 7155,
      "devils": 7156,
      "conversion": 7157,
      "wetback": 7158,
      "fingers": 7159,
      "criticism": 7160,
      "gradu": 7161,
      "mohammad": 7162,
      "advocate": 7163,
      "occupied": 7164,
      "technology": 7165,
      "lebanon": 7166,
      "appropriate": 7167,
      "eagles": 7168,
      "03": 7169,
      "94": 7170,
      "cm": 7171,
      "honey": 7172,
      "nand": 7173,
      "pent": 7174,
      "pper": 7175,
      "wicked": 7176,
      "income": 7177,
      "ensure": 7178,
      "todd": 7179,
      "lef": 7180,
      "stret": 7181,
      "stamp": 7182,
      "acle": 7183,
      "agents": 7184,
      "etz": 7185,
      "meas": 7186,
      "hem": 7187,
      "odd": 7188,
      "comb": 7189,
      "sugar": 7190,
      "prosper": 7191,
      "desire": 7192,
      "aryan": 7193,
      "prepar": 7194,
      "humor": 7195,
      "cheer": 7196,
      "murderers": 7197,
      "duke": 7198,
      "sucker": 7199,
      "burnt": 7200,
      "towel": 7201,
      "lmaooo": 7202,
      "calm": 7203,
      "relations": 7204,
      "virtue": 7205,
      "remembered": 7206,
      "johnny": 7207,
      "trauma": 7208,
      "collect": 7209,
      "hurting": 7210,
      "committee": 7211,
      "testing": 7212,
      "chaos": 7213,
      "angeles": 7214,
      "scores": 7215,
      "multi": 7216,
      "reveals": 7217,
      "beaners": 7218,
      "clip": 7219,
      "arguments": 7220,
      "molest": 7221,
      "bathroom": 7222,
      "dictator": 7223,
      "barbaric": 7224,
      "granted": 7225,
      "recommend": 7226,
      "kjv": 7227,
      "understood": 7228,
      "puerto": 7229,
      "chocolate": 7230,
      "bies": 7231,
      "cz": 7232,
      "fold": 7233,
      "nity": 7234,
      "oom": 7235,
      "vandal": 7236,
      "enn": 7237,
      "andre": 7238,
      "edgy": 7239,
      "ila": 7240,
      "vehic": 7241,
      "owa": 7242,
      "olo": 7243,
      "imo": 7244,
      "ody": 7245,
      "managed": 7246,
      "pled": 7247,
      "indu": 7248,
      "bron": 7249,
      "oko": 7250,
      "clit": 7251,
      "evol": 7252,
      "proving": 7253,
      "affil": 7254,
      "rober": 7255,
      "tape": 7256,
      "ahmed": 7257,
      "diam": 7258,
      "syri": 7259,
      "corn": 7260,
      "matthew": 7261,
      "islamist": 7262,
      "contest": 7263,
      "accus": 7264,
      "chances": 7265,
      "surgery": 7266,
      "walmart": 7267,
      "masters": 7268,
      "messages": 7269,
      "juda": 7270,
      "worthy": 7271,
      "grandfather": 7272,
      "faithful": 7273,
      "links": 7274,
      "128074": 7275,
      "budget": 7276,
      "dressed": 7277,
      "figured": 7278,
      "60s": 7279,
      "percentage": 7280,
      "extremist": 7281,
      "collap": 7282,
      "adopted": 7283,
      "infected": 7284,
      "muzrat": 7285,
      "believers": 7286,
      "sanctuary": 7287,
      "abraham": 7288,
      "oducing": 7289,
      "analysis": 7290,
      "cue": 7291,
      "dash": 7292,
      "eg": 7293,
      "ij": 7294,
      "kd": 7295,
      "mb": 7296,
      "oce": 7297,
      "ria": 7298,
      "rie": 7299,
      "tum": 7300,
      "ano": 7301,
      "atro": 7302,
      "alert": 7303,
      "allen": 7304,
      "idgaf": 7305,
      "kels": 7306,
      "pear": 7307,
      "lovers": 7308,
      "debt": 7309,
      "someones": 7310,
      "ulus": 7311,
      "warned": 7312,
      "overall": 7313,
      "paris": 7314,
      "societ": 7315,
      "babe": 7316,
      "fires": 7317,
      "films": 7318,
      "bully": 7319,
      "expecting": 7320,
      "protesting": 7321,
      "angela": 7322,
      "reminds": 7323,
      "concerns": 7324,
      "survival": 7325,
      "ruling": 7326,
      "camel": 7327,
      "candy": 7328,
      "shape": 7329,
      "rejected": 7330,
      "gentle": 7331,
      "resistance": 7332,
      "marxist": 7333,
      "istol": 7334,
      "chauvin": 7335,
      "61": 7336,
      "62": 7337,
      "cort": 7338,
      "fak": 7339,
      "gir": 7340,
      "hl": 7341,
      "thots": 7342,
      "ata": 7343,
      "eder": 7344,
      "leap": 7345,
      "beloved": 7346,
      "tribe": 7347,
      "forgive": 7348,
      "oppose": 7349,
      "uters": 7350,
      "goin": 7351,
      "soil": 7352,
      "bite": 7353,
      "convince": 7354,
      "mann": 7355,
      "crib": 7356,
      "bos": 7357,
      "grass": 7358,
      "teens": 7359,
      "128515": 7360,
      "everytime": 7361,
      "afc": 7362,
      "roof": 7363,
      "ension": 7364,
      "bibl": 7365,
      "couldn": 7366,
      "buff": 7367,
      "charles": 7368,
      "steel": 7369,
      "compare": 7370,
      "lately": 7371,
      "pakis": 7372,
      "liberty": 7373,
      "campus": 7374,
      "cruz": 7375,
      "natives": 7376,
      "deportation": 7377,
      "throws": 7378,
      "acceptance": 7379,
      "bbing": 7380,
      "vaccines": 7381,
      "dirt": 7382,
      "systems": 7383,
      "fields": 7384,
      "billions": 7385,
      "matches": 7386,
      "amongst": 7387,
      "accountable": 7388,
      "triple": 7389,
      "foxnews": 7390,
      "extremists": 7391,
      "lords": 7392,
      "franco": 7393,
      "journalists": 7394,
      "dawn": 7395,
      "devast": 7396,
      "latinos": 7397,
      "solid": 7398,
      "estyle": 7399,
      "warriors": 7400,
      "convicted": 7401,
      "residents": 7402,
      "googl": 7403,
      "multicultural": 7404,
      "detroit": 7405,
      "73": 7406,
      "bach": 7407,
      "dak": 7408,
      "gie": 7409,
      "jor": 7410,
      "lak": 7411,
      "oak": 7412,
      "sid": 7413,
      "vine": 7414,
      "infil": 7415,
      "erc": 7416,
      "rell": 7417,
      "eness": 7418,
      "encing": 7419,
      "escal": 7420,
      "aspor": 7421,
      "ario": 7422,
      "ofthe": 7423,
      "urb": 7424,
      "fuk": 7425,
      "delet": 7426,
      "blunt": 7427,
      "mainst": 7428,
      "maker": 7429,
      "assim": 7430,
      "2013": 7431,
      "tryn": 7432,
      "blackhistory": 7433,
      "supply": 7434,
      "bleed": 7435,
      "bile": 7436,
      "slay": 7437,
      "slop": 7438,
      "funeral": 7439,
      "singer": 7440,
      "latina": 7441,
      "honour": 7442,
      "passes": 7443,
      "crew": 7444,
      "creation": 7445,
      "creator": 7446,
      "douche": 7447,
      "custom": 7448,
      "souls": 7449,
      "zeal": 7450,
      "hopes": 7451,
      "targeting": 7452,
      "wich": 7453,
      "invading": 7454,
      "jimmy": 7455,
      "brandon": 7456,
      "behaviour": 7457,
      "disrespectful": 7458,
      "gregation": 7459,
      "scottish": 7460,
      "revealed": 7461,
      "assassin": 7462,
      "condoms": 7463,
      "disturbing": 7464,
      "elderly": 7465,
      "miserable": 7466,
      "invalid": 7467,
      "mainstream": 7468,
      "53": 7469,
      "91": 7470,
      "aha": 7471,
      "eff": 7472,
      "gall": 7473,
      "hors": 7474,
      "lfc": 7475,
      "nab": 7476,
      "sche": 7477,
      "tul": 7478,
      "vast": 7479,
      "wrap": 7480,
      "yup": 7481,
      "thal": 7482,
      "reuters": 7483,
      "almighty": 7484,
      "edit": 7485,
      "edition": 7486,
      "chest": 7487,
      "begins": 7488,
      "betray": 7489,
      "advent": 7490,
      "elli": 7491,
      "unit": 7492,
      "unemploy": 7493,
      "aga": 7494,
      "oking": 7495,
      "teh": 7496,
      "spon": 7497,
      "righte": 7498,
      "monkeys": 7499,
      "wherever": 7500,
      "choos": 7501,
      "kidding": 7502,
      "caring": 7503,
      "communism": 7504,
      "mommy": 7505,
      "swim": 7506,
      "foundation": 7507,
      "stephen": 7508,
      "mets": 7509,
      "silver": 7510,
      "jerusal": 7511,
      "villages": 7512,
      "directed": 7513,
      "direction": 7514,
      "trigger": 7515,
      "association": 7516,
      "kanye": 7517,
      "warrior": 7518,
      "embrace": 7519,
      "method": 7520,
      "magazine": 7521,
      "saints": 7522,
      "jerusalem": 7523,
      "aar": 7524,
      "aunt": 7525,
      "bren": 7526,
      "eed": 7527,
      "fif": 7528,
      "foul": 7529,
      "hb": 7530,
      "ien": 7531,
      "juni": 7532,
      "pir": 7533,
      "wine": 7534,
      "repar": 7535,
      "reform": 7536,
      "isha": 7537,
      "itz": 7538,
      "aspect": 7539,
      "ariz": 7540,
      "sep": 7541,
      "acing": 7542,
      "liby": 7543,
      "liking": 7544,
      "prick": 7545,
      "excuses": 7546,
      "boon": 7547,
      "aston": 7548,
      "newsp": 7549,
      "presence": 7550,
      "mufc": 7551,
      "perpet": 7552,
      "forest": 7553,
      "intoler": 7554,
      "funds": 7555,
      "careful": 7556,
      "dumbest": 7557,
      "europ": 7558,
      "wore": 7559,
      "casual": 7560,
      "drake": 7561,
      "purple": 7562,
      "woods": 7563,
      "groom": 7564,
      "entering": 7565,
      "hospitals": 7566,
      "kissing": 7567,
      "forgotten": 7568,
      "trend": 7569,
      "yelling": 7570,
      "continued": 7571,
      "rugby": 7572,
      "defeated": 7573,
      "pronouns": 7574,
      "indonesia": 7575,
      "acknowledge": 7576,
      "privileged": 7577,
      "accurate": 7578,
      "compassion": 7579,
      "wheres": 7580,
      "bn": 7581,
      "dadd": 7582,
      "fm": 7583,
      "jung": 7584,
      "nite": 7585,
      "purch": 7586,
      "xon": 7587,
      "inal": 7588,
      "informed": 7589,
      "toll": 7590,
      "ases": 7591,
      "semi": 7592,
      "undocumented": 7593,
      "abu": 7594,
      "blan": 7595,
      "compreh": 7596,
      "poop": 7597,
      "boots": 7598,
      "hasht": 7599,
      "ishing": 7600,
      "spy": 7601,
      "wouldn": 7602,
      "roe": 7603,
      "roach": 7604,
      "anged": 7605,
      "talent": 7606,
      "malays": 7607,
      "cords": 7608,
      "colors": 7609,
      "hara": 7610,
      "lawyer": 7611,
      "bait": 7612,
      "highlight": 7613,
      "missiles": 7614,
      "visiting": 7615,
      "hunting": 7616,
      "staying": 7617,
      "equival": 7618,
      "huff": 7619,
      "collective": 7620,
      "skinned": 7621,
      "somali": 7622,
      "tests": 7623,
      "bola": 7624,
      "loaded": 7625,
      "kyle": 7626,
      "returned": 7627,
      "paso": 7628,
      "precious": 7629,
      "reached": 7630,
      "shirts": 7631,
      "predict": 7632,
      "dumpster": 7633,
      "expert": 7634,
      "provided": 7635,
      "atlanta": 7636,
      "tolerance": 7637,
      "medicine": 7638,
      "karabakh": 7639,
      "05": 7640,
      "cig": 7641,
      "digg": 7642,
      "dave": 7643,
      "holl": 7644,
      "ios": 7645,
      "oscar": 7646,
      "sites": 7647,
      "wart": 7648,
      "yid": 7649,
      "anced": 7650,
      "entry": 7651,
      "libr": 7652,
      "shill": 7653,
      "opp": 7654,
      "unfollow": 7655,
      "umer": 7656,
      "fruit": 7657,
      "docher": 7658,
      "butter": 7659,
      "hockey": 7660,
      "coz": 7661,
      "clue": 7662,
      "sayin": 7663,
      "warns": 7664,
      "dislike": 7665,
      "minnes": 7666,
      "pping": 7667,
      "coln": 7668,
      "poses": 7669,
      "101": 7670,
      "banning": 7671,
      "fights": 7672,
      "witch": 7673,
      "judging": 7674,
      "creatures": 7675,
      "fairy": 7676,
      "intellect": 7677,
      "ruled": 7678,
      "condemned": 7679,
      "dedicated": 7680,
      "zionists": 7681,
      "gateway": 7682,
      "assuming": 7683,
      "designed": 7684,
      "hypocrite": 7685,
      "associated": 7686,
      "apologize": 7687,
      "trafficking": 7688,
      "reporter": 7689,
      "android": 7690,
      "descend": 7691,
      "fenerbahce": 7692,
      "righteous": 7693,
      "docherty": 7694,
      "299": 7695,
      "dread": 7696,
      "ike": 7697,
      "kor": 7698,
      "mast": 7699,
      "rian": 7700,
      "smar": 7701,
      "sque": 7702,
      "tune": 7703,
      "vint": 7704,
      "wire": 7705,
      "zack": 7706,
      "thou": 7707,
      "rein": 7708,
      "revel": 7709,
      "whis": 7710,
      "traged": 7711,
      "forgiven": 7712,
      "irrelevant": 7713,
      "una": 7714,
      "dee": 7715,
      "upper": 7716,
      "doe": 7717,
      "erson": 7718,
      "manner": 7719,
      "apar": 7720,
      "shevi": 7721,
      "prover": 7722,
      "128520": 7723,
      "olds": 7724,
      "shouldve": 7725,
      "driven": 7726,
      "tucker": 7727,
      "racially": 7728,
      "genius": 7729,
      "choices": 7730,
      "morals": 7731,
      "skip": 7732,
      "hardly": 7733,
      "contain": 7734,
      "ghettos": 7735,
      "contract": 7736,
      "horrific": 7737,
      "midnight": 7738,
      "valu": 7739,
      "grey": 7740,
      "engage": 7741,
      "ika": 7742,
      "divide": 7743,
      "placing": 7744,
      "mixing": 7745,
      "trained": 7746,
      "politician": 7747,
      "actively": 7748,
      "struggling": 7749,
      "admitted": 7750,
      "describe": 7751,
      "boomer": 7752,
      "pedophilia": 7753,
      "broadcast": 7754,
      "playoffs": 7755,
      "survivor": 7756,
      "golf": 7757,
      "kirk": 7758,
      "corporate": 7759,
      "goyim": 7760,
      "shepherd": 7761,
      "documentary": 7762,
      "divorce": 7763,
      "conduct": 7764,
      "minimum": 7765,
      "unbelievable": 7766,
      "stimulus": 7767,
      "2a": 7768,
      "bm": 7769,
      "drew": 7770,
      "fh": 7771,
      "gc": 7772,
      "gus": 7773,
      "jas": 7774,
      "jig": 7775,
      "jaw": 7776,
      "lis": 7777,
      "mack": 7778,
      "pad": 7779,
      "rational": 7780,
      "sas": 7781,
      "sust": 7782,
      "tn": 7783,
      "wen": 7784,
      "anna": 7785,
      "replaced": 7786,
      "represents": 7787,
      "onic": 7788,
      "asexual": 7789,
      "whist": 7790,
      "shine": 7791,
      "impress": 7792,
      "unknown": 7793,
      "frag": 7794,
      "nothin": 7795,
      "manif": 7796,
      "poli": 7797,
      "2012": 7798,
      "offense": 7799,
      "128540": 7800,
      "disci": 7801,
      "render": 7802,
      "pub": 7803,
      "childish": 7804,
      "finals": 7805,
      "matically": 7806,
      "duh": 7807,
      "highlights": 7808,
      "shoots": 7809,
      "cycle": 7810,
      "sends": 7811,
      "tempt": 7812,
      "signal": 7813,
      "sales": 7814,
      "wwii": 7815,
      "punished": 7816,
      "lane": 7817,
      "mainly": 7818,
      "lincoln": 7819,
      "yyyy": 7820,
      "dragon": 7821,
      "gordon": 7822,
      "developed": 7823,
      "location": 7824,
      "quotes": 7825,
      "rappers": 7826,
      "motivation": 7827,
      "audience": 7828,
      "qaeda": 7829,
      "antisemitism": 7830,
      "1041204": 7831,
      "deutsch": 7832,
      "fundamental": 7833,
      "trillion": 7834,
      "ramadan": 7835,
      "judaism": 7836,
      "bott": 7837,
      "dign": 7838,
      "pg": 7839,
      "sna": 7840,
      "td": 7841,
      "yog": 7842,
      "indoctr": 7843,
      "atar": 7844,
      "itll": 7845,
      "chast": 7846,
      "sect": 7847,
      "uncomfortable": 7848,
      "depression": 7849,
      "bled": 7850,
      "plz": 7851,
      "maf": 7852,
      "cruc": 7853,
      "rett": 7854,
      "label": 7855,
      "dese": 7856,
      "drown": 7857,
      "prejud": 7858,
      "flappy": 7859,
      "transfer": 7860,
      "buzz": 7861,
      "carto": 7862,
      "incest": 7863,
      "cert": 7864,
      "earned": 7865,
      "towns": 7866,
      "hamas": 7867,
      "hammer": 7868,
      "luv": 7869,
      "thankful": 7870,
      "founded": 7871,
      "buildings": 7872,
      "factor": 7873,
      "detention": 7874,
      "potato": 7875,
      "stronger": 7876,
      "bolshevi": 7877,
      "organized": 7878,
      "rupt": 7879,
      "solved": 7880,
      "heavily": 7881,
      "teenage": 7882,
      "competition": 7883,
      "ield": 7884,
      "opportun": 7885,
      "attempted": 7886,
      "shitskin": 7887,
      "athletic": 7888,
      "ironic": 7889,
      "gaza": 7890,
      "guarantee": 7891,
      "fabricate": 7892,
      "vulner": 7893,
      "philipp": 7894,
      "googlenews": 7895,
      "bent": 7896,
      "das": 7897,
      "gaming": 7898,
      "jet": 7899,
      "kitch": 7900,
      "mps": 7901,
      "oy": 7902,
      "tips": 7903,
      "wah": 7904,
      "xy": 7905,
      "inqu": 7906,
      "thee": 7907,
      "theo": 7908,
      "itation": 7909,
      "alan": 7910,
      "lid": 7911,
      "owski": 7912,
      "imam": 7913,
      "unarmed": 7914,
      "lyr": 7915,
      "weir": 7916,
      "mee": 7917,
      "meh": 7918,
      "button": 7919,
      "maid": 7920,
      "cancell": 7921,
      "cloud": 7922,
      "spain": 7923,
      "spark": 7924,
      "newly": 7925,
      "seekers": 7926,
      "shouldn": 7927,
      "twer": 7928,
      "vibe": 7929,
      "drum": 7930,
      "realise": 7931,
      "biased": 7932,
      "breit": 7933,
      "dysp": 7934,
      "buried": 7935,
      "vicious": 7936,
      "element": 7937,
      "civilized": 7938,
      "heartless": 7939,
      "citing": 7940,
      "dads": 7941,
      "kobe": 7942,
      "targets": 7943,
      "drawing": 7944,
      "arabic": 7945,
      "ticket": 7946,
      "confeder": 7947,
      "bollah": 7948,
      "attraction": 7949,
      "lifestyle": 7950,
      "prevention": 7951,
      "candidates": 7952,
      "cousins": 7953,
      "automatically": 7954,
      "sperm": 7955,
      "increased": 7956,
      "insulting": 7957,
      "shelter": 7958,
      "evangelical": 7959,
      "lemme": 7960,
      "caucasians": 7961,
      "jeremy": 7962,
      "construction": 7963,
      "mystery": 7964,
      "enjoying": 7965,
      "assimil": 7966,
      "93": 7967,
      "bond": 7968,
      "mard": 7969,
      "wag": 7970,
      "yn": 7971,
      "yers": 7972,
      "——": 7973,
      "relax": 7974,
      "records": 7975,
      "stable": 7976,
      "icc": 7977,
      "acad": 7978,
      "shu": 7979,
      "trann": 7980,
      "irony": 7981,
      "agno": 7982,
      "etime": 7983,
      "illiter": 7984,
      "peak": 7985,
      "territ": 7986,
      "deli": 7987,
      "deem": 7988,
      "sored": 7989,
      "hez": 7990,
      "iang": 7991,
      "wasted": 7992,
      "feb": 7993,
      "plate": 7994,
      "worn": 7995,
      "aken": 7996,
      "uez": 7997,
      "gray": 7998,
      "clam": 7999,
      "killings": 8000,
      "tai": 8001,
      "retali": 8002,
      "blew": 8003,
      "betting": 8004,
      "rence": 8005,
      "biological": 8006,
      "persian": 8007,
      "morality": 8008,
      "mile": 8009,
      "curse": 8010,
      "tweeted": 8011,
      "patrick": 8012,
      "balance": 8013,
      "creative": 8014,
      "iktas": 8015,
      "experienced": 8016,
      "fluid": 8017,
      "returning": 8018,
      "besiktas": 8019,
      "zabeth": 8020,
      "90s": 8021,
      "patriarchy": 8022,
      "involve": 8023,
      "ricky": 8024,
      "kush": 8025,
      "prepare": 8026,
      "kamala": 8027,
      "dramodi": 8028,
      "enslaved": 8029,
      "surrounded": 8030,
      "hidden": 8031,
      "newspap": 8032,
      "smarter": 8033,
      "vintage": 8034,
      "territory": 8035,
      "eze": 8036,
      "gil": 8037,
      "lb": 8038,
      "patch": 8039,
      "rome": 8040,
      "vlad": 8041,
      "anthem": 8042,
      "admin": 8043,
      "trate": 8044,
      "rahim": 8045,
      "nowhere": 8046,
      "assign": 8047,
      "expose": 8048,
      "suic": 8049,
      "subur": 8050,
      "answers": 8051,
      "daylight": 8052,
      "prose": 8053,
      "redskins": 8054,
      "attach": 8055,
      "guest": 8056,
      "guide": 8057,
      "awk": 8058,
      "skull": 8059,
      "file": 8060,
      "captured": 8061,
      "submit": 8062,
      "10000": 8063,
      "militants": 8064,
      "anka": 8065,
      "wishing": 8066,
      "salv": 8067,
      "snip": 8068,
      "dropping": 8069,
      "karak": 8070,
      "lifes": 8071,
      "trolls": 8072,
      "hackers": 8073,
      "hawks": 8074,
      "accidentally": 8075,
      "digital": 8076,
      "flex": 8077,
      "mythology": 8078,
      "evangelicals": 8079,
      "cabin": 8080,
      "creepy": 8081,
      "translation": 8082,
      "misogynistic": 8083,
      "libtard": 8084,
      "inferior": 8085,
      "xenophob": 8086,
      "narendramodi": 8087,
      "arizona": 8088,
      "07": 8089,
      "68": 8090,
      "gory": 8091,
      "md": 8092,
      "mig": 8093,
      "mck": 8094,
      "pile": 8095,
      "tel": 8096,
      "tone": 8097,
      "wes": 8098,
      "zor": 8099,
      "aro": 8100,
      "strap": 8101,
      "icious": 8102,
      "ambass": 8103,
      "adding": 8104,
      "forth": 8105,
      "images": 8106,
      "unto": 8107,
      "negr": 8108,
      "goof": 8109,
      "blamed": 8110,
      "mane": 8111,
      "pocket": 8112,
      "canon": 8113,
      "nta": 8114,
      "mentions": 8115,
      "spons": 8116,
      "display": 8117,
      "margin": 8118,
      "limit": 8119,
      "perform": 8120,
      "mond": 8121,
      "preview": 8122,
      "lessly": 8123,
      "ograp": 8124,
      "defensive": 8125,
      "clothing": 8126,
      "swamp": 8127,
      "capable": 8128,
      "soros": 8129,
      "vention": 8130,
      "unique": 8131,
      "bullets": 8132,
      "divided": 8133,
      "jailed": 8134,
      "solo": 8135,
      "represented": 8136,
      "blowing": 8137,
      "suspected": 8138,
      "adams": 8139,
      "bigoted": 8140,
      "waters": 8141,
      "femdom": 8142,
      "knocked": 8143,
      "sheriff": 8144,
      "incredibly": 8145,
      "lebanese": 8146,
      "enforcement": 8147,
      "combined": 8148,
      "computer": 8149,
      "reparations": 8150,
      "equivalent": 8151,
      "minnesota": 8152,
      "breitbart": 8153,
      "hezbollah": 8154,
      "athing": 8155,
      "bally": 8156,
      "hd": 8157,
      "hut": 8158,
      "hong": 8159,
      "js": 8160,
      "rc": 8161,
      "rated": 8162,
      "uz": 8163,
      "vamp": 8164,
      "yas": 8165,
      "inning": 8166,
      "inhuman": 8167,
      "issa": 8168,
      "enom": 8169,
      "inge": 8170,
      "ington": 8171,
      "toe": 8172,
      "lew": 8173,
      "lected": 8174,
      "stro": 8175,
      "behalf": 8176,
      "acial": 8177,
      "liest": 8178,
      "liars": 8179,
      "shan": 8180,
      "iders": 8181,
      "agu": 8182,
      "abusing": 8183,
      "fuc": 8184,
      "loom": 8185,
      "iana": 8186,
      "iance": 8187,
      "exchange": 8188,
      "theirs": 8189,
      "berry": 8190,
      "clap": 8191,
      "offers": 8192,
      "newyear": 8193,
      "128545": 8194,
      "toronto": 8195,
      "inequality": 8196,
      "poly": 8197,
      "tops": 8198,
      "goodbye": 8199,
      "vibes": 8200,
      "monum": 8201,
      "numer": 8202,
      "uals": 8203,
      "commander": 8204,
      "osop": 8205,
      "insight": 8206,
      "morgan": 8207,
      "centers": 8208,
      "centuries": 8209,
      "trashy": 8210,
      "moments": 8211,
      "jude": 8212,
      "subhuman": 8213,
      "nike": 8214,
      "stomach": 8215,
      "classes": 8216,
      "lowest": 8217,
      "panther": 8218,
      "breakfast": 8219,
      "bombed": 8220,
      "sentenced": 8221,
      "failing": 8222,
      "jihadist": 8223,
      "blocking": 8224,
      "statistics": 8225,
      "fourth": 8226,
      "martial": 8227,
      "atheists": 8228,
      "activities": 8229,
      "lmfaoooo": 8230,
      "catching": 8231,
      "writer": 8232,
      "ruining": 8233,
      "joking": 8234,
      "effective": 8235,
      "appearance": 8236,
      "rarely": 8237,
      "census": 8238,
      "insurrection": 8239,
      "entertainment": 8240,
      "recruit": 8241,
      "television": 8242,
      "converted": 8243,
      "electric": 8244,
      "schedule": 8245,
      "affairs": 8246,
      "trynna": 8247,
      "hashtag": 8248,
      "masturb": 8249,
      "kitchen": 8250,
      "cci": 8251,
      "dms": 8252,
      "ebola": 8253,
      "foun": 8254,
      "gamer": 8255,
      "gary": 8256,
      "jets": 8257,
      "nap": 8258,
      "phe": 8259,
      "pul": 8260,
      "paw": 8261,
      "rud": 8262,
      "slit": 8263,
      "session": 8264,
      "tap": 8265,
      "yi": 8266,
      "inau": 8267,
      "anin": 8268,
      "theid": 8269,
      "theater": 8270,
      "isons": 8271,
      "tos": 8272,
      "andwith": 8273,
      "chen": 8274,
      "stain": 8275,
      "stev": 8276,
      "omination": 8277,
      "whel": 8278,
      "ico": 8279,
      "ilo": 8280,
      "shire": 8281,
      "imm": 8282,
      "urally": 8283,
      "abor": 8284,
      "frame": 8285,
      "mode": 8286,
      "mobile": 8287,
      "soo": 8288,
      "iano": 8289,
      "noise": 8290,
      "convo": 8291,
      "justified": 8292,
      "ouri": 8293,
      "sush": 8294,
      "suits": 8295,
      "128299": 8296,
      "ussie": 8297,
      "clot": 8298,
      "anytime": 8299,
      "offering": 8300,
      "torg": 8301,
      "marvel": 8302,
      "monitor": 8303,
      "talented": 8304,
      "fried": 8305,
      "pti": 8306,
      "interpret": 8307,
      "breathe": 8308,
      "sincer": 8309,
      "statements": 8310,
      "cutting": 8311,
      "portray": 8312,
      "missile": 8313,
      "kindle": 8314,
      "motherfuckers": 8315,
      "simp": 8316,
      "eee": 8317,
      "sickening": 8318,
      "questioning": 8319,
      "bench": 8320,
      "benue": 8321,
      "returns": 8322,
      "enjoyed": 8323,
      "concert": 8324,
      "dressing": 8325,
      "activity": 8326,
      "teenagers": 8327,
      "davis": 8328,
      "elizabeth": 8329,
      "rolling": 8330,
      "streaming": 8331,
      "rican": 8332,
      "approve": 8333,
      "executed": 8334,
      "briefing": 8335,
      "trolling": 8336,
      "rifying": 8337,
      "10433": 8338,
      "georgian": 8339,
      "providing": 8340,
      "agrees": 8341,
      "wrestling": 8342,
      "employee": 8343,
      "models": 8344,
      "tactics": 8345,
      "scholar": 8346,
      "explosion": 8347,
      "eritrean": 8348,
      "restaurant": 8349,
      "imperial": 8350,
      "temporary": 8351,
      "apartheid": 8352,
      "dysphoria": 8353,
      "cif": 8354,
      "cave": 8355,
      "hust": 8356,
      "kas": 8357,
      "nate": 8358,
      "ان": 8359,
      "atics": 8360,
      "ito": 8361,
      "icop": 8362,
      "acid": 8363,
      "motor": 8364,
      "prize": 8365,
      "bits": 8366,
      "fuckn": 8367,
      "ceo": 8368,
      "odds": 8369,
      "blu": 8370,
      "commemor": 8371,
      "exhibit": 8372,
      "coin": 8373,
      "reds": 8374,
      "joint": 8375,
      "jean": 8376,
      "displaced": 8377,
      "disappointed": 8378,
      "eps": 8379,
      "permission": 8380,
      "uded": 8381,
      "countrys": 8382,
      "intended": 8383,
      "childhood": 8384,
      "bubble": 8385,
      "breast": 8386,
      "parking": 8387,
      "banks": 8388,
      "hindi": 8389,
      "politically": 8390,
      "clock": 8391,
      "closing": 8392,
      "juicy": 8393,
      "sik": 8394,
      "subreddit": 8395,
      "airs": 8396,
      "asianhate": 8397,
      "listened": 8398,
      "promised": 8399,
      "streamer": 8400,
      "teaches": 8401,
      "engaged": 8402,
      "threaten": 8403,
      "celebrity": 8404,
      "drain": 8405,
      "joining": 8406,
      "bullied": 8407,
      "jake": 8408,
      "brotherhood": 8409,
      "bottle": 8410,
      "faster": 8411,
      "globalist": 8412,
      "psycho": 8413,
      "compete": 8414,
      "connected": 8415,
      "criticize": 8416,
      "expression": 8417,
      "wealthy": 8418,
      "insults": 8419,
      "victoria": 8420,
      "knights": 8421,
      "128166": 8422,
      "shadow": 8423,
      "junta": 8424,
      "universal": 8425,
      "patients": 8426,
      "snyder": 8427,
      "panties": 8428,
      "intentionally": 8429,
      "conscious": 8430,
      "homophobe": 8431,
      "sydney": 8432,
      "ocean": 8433,
      "tragedy": 8434,
      "opportunities": 8435,
      "cish": 8436,
      "dal": 8437,
      "hart": 8438,
      "iar": 8439,
      "pour": 8440,
      "pip": 8441,
      "pimp": 8442,
      "yed": 8443,
      "yang": 8444,
      "thet": 8445,
      "thent": 8446,
      "atleast": 8447,
      "lemon": 8448,
      "bears": 8449,
      "adays": 8450,
      "kell": 8451,
      "eling": 8452,
      "oped": 8453,
      "mood": 8454,
      "heck": 8455,
      "rav": 8456,
      "blown": 8457,
      "applic": 8458,
      "spaces": 8459,
      "naval": 8460,
      "prob": 8461,
      "jection": 8462,
      "ashed": 8463,
      "discover": 8464,
      "perver": 8465,
      "transport": 8466,
      "insist": 8467,
      "nytimes": 8468,
      "helicop": 8469,
      "carter": 8470,
      "cuff": 8471,
      "postpon": 8472,
      "supportive": 8473,
      "103": 8474,
      "singh": 8475,
      "courts": 8476,
      "frequ": 8477,
      "calip": 8478,
      "sikh": 8479,
      "israelis": 8480,
      "psal": 8481,
      "hyper": 8482,
      "patrol": 8483,
      "salute": 8484,
      "judges": 8485,
      "hinduism": 8486,
      "agreement": 8487,
      "fairly": 8488,
      "appeared": 8489,
      "wilson": 8490,
      "moderate": 8491,
      "philosop": 8492,
      "originally": 8493,
      "condemns": 8494,
      "psychopath": 8495,
      "adopt": 8496,
      "largely": 8497,
      "garden": 8498,
      "split": 8499,
      "category": 8500,
      "intimid": 8501,
      "satisf": 8502,
      "infested": 8503,
      "biblical": 8504,
      "discipl": 8505,
      "02": 8506,
      "bam": 8507,
      "bots": 8508,
      "fate": 8509,
      "gment": 8510,
      "ials": 8511,
      "jav": 8512,
      "kansas": 8513,
      "rural": 8514,
      "raging": 8515,
      "ths": 8516,
      "thed": 8517,
      "enix": 8518,
      "escap": 8519,
      "asar": 8520,
      "whine": 8521,
      "opens": 8522,
      "uter": 8523,
      "deliber": 8524,
      "upcoming": 8525,
      "ante": 8526,
      "priority": 8527,
      "ldr": 8528,
      "acks": 8529,
      "confront": 8530,
      "nowadays": 8531,
      "sul": 8532,
      "crown": 8533,
      "2010": 8534,
      "coc": 8535,
      "spurs": 8536,
      "128529": 8537,
      "warfare": 8538,
      "playin": 8539,
      "humble": 8540,
      "glasses": 8541,
      "burger": 8542,
      "nationality": 8543,
      "contrad": 8544,
      "tember": 8545,
      "arkansas": 8546,
      "patter": 8547,
      "wishes": 8548,
      "collection": 8549,
      "sandnigger": 8550,
      "idiotic": 8551,
      "existing": 8552,
      "cowor": 8553,
      "squir": 8554,
      "oreos": 8555,
      "crossed": 8556,
      "scratch": 8557,
      "attempting": 8558,
      "jumped": 8559,
      "robinson": 8560,
      "mutil": 8561,
      "watford": 8562,
      "tigraygenocide": 8563,
      "stormfron": 8564,
      "lynch": 8565,
      "rabbi": 8566,
      "constitutional": 8567,
      "struggles": 8568,
      "jacob": 8569,
      "legendary": 8570,
      "established": 8571,
      "veteran": 8572,
      "tribal": 8573,
      "francisco": 8574,
      "cleansing": 8575,
      "savior": 8576,
      "atrocities": 8577,
      "blackhistorymonth": 8578,
      "september": 8579,
      "libya": 8580,
      "gatewaypundit": 8581,
      "taiwan": 8582,
      "600": 8583,
      "dre": 8584,
      "dow": 8585,
      "drivers": 8586,
      "jared": 8587,
      "kong": 8588,
      "ln": 8589,
      "lac": 8590,
      "nz": 8591,
      "phas": 8592,
      "sial": 8593,
      "vatic": 8594,
      "injustice": 8595,
      "attor": 8596,
      "orn": 8597,
      "andom": 8598,
      "edi": 8599,
      "stic": 8600,
      "select": 8601,
      "amit": 8602,
      "liv": 8603,
      "ligh": 8604,
      "goats": 8605,
      "odes": 8606,
      "fection": 8607,
      "ula": 8608,
      "timore": 8609,
      "128524": 8610,
      "counting": 8611,
      "overwhel": 8612,
      "epide": 8613,
      "topics": 8614,
      "jewel": 8615,
      "sexism": 8616,
      "milf": 8617,
      "funni": 8618,
      "damas": 8619,
      "parish": 8620,
      "violation": 8621,
      "observ": 8622,
      "curry": 8623,
      "curren": 8624,
      "accusing": 8625,
      "shooters": 8626,
      "freaking": 8627,
      "defender": 8628,
      "nonbinary": 8629,
      "cycl": 8630,
      "ruth": 8631,
      "187": 8632,
      "passport": 8633,
      "gged": 8634,
      "hanna": 8635,
      "promises": 8636,
      "justicefor": 8637,
      "install": 8638,
      "tickets": 8639,
      "bruce": 8640,
      "cowboys": 8641,
      "growth": 8642,
      "romantic": 8643,
      "filling": 8644,
      "confirms": 8645,
      "capitalism": 8646,
      "hypocrites": 8647,
      "auspol": 8648,
      "stabbed": 8649,
      "settlement": 8650,
      "comparing": 8651,
      "riguez": 8652,
      "dildo": 8653,
      "olymp": 8654,
      "focused": 8655,
      "genetic": 8656,
      "slightly": 8657,
      "rachel": 8658,
      "maintain": 8659,
      "preparing": 8660,
      "accusations": 8661,
      "tehran": 8662,
      "lyrics": 8663,
      "vatican": 8664,
      "bree": 8665,
      "cpac": 8666,
      "fk": 8667,
      "gand": 8668,
      "gates": 8669,
      "hater": 8670,
      "jin": 8671,
      "junk": 8672,
      "kha": 8673,
      "lal": 8674,
      "nit": 8675,
      "oon": 8676,
      "patt": 8677,
      "task": 8678,
      "vard": 8679,
      "wp": 8680,
      "reward": 8681,
      "reagan": 8682,
      "alle": 8683,
      "seattle": 8684,
      "aca": 8685,
      "ament": 8686,
      "liqu": 8687,
      "adul": 8688,
      "loan": 8689,
      "nee": 8690,
      "dose": 8691,
      "wasting": 8692,
      "resort": 8693,
      "rescue": 8694,
      "plague": 8695,
      "explan": 8696,
      "suff": 8697,
      "bry": 8698,
      "whitehouse": 8699,
      "cried": 8700,
      "elled": 8701,
      "shitting": 8702,
      "nail": 8703,
      "128581": 8704,
      "roc": 8705,
      "backwards": 8706,
      "angle": 8707,
      "drone": 8708,
      "drip": 8709,
      "preference": 8710,
      "homies": 8711,
      "damned": 8712,
      "contribute": 8713,
      "kinds": 8714,
      "nights": 8715,
      "elev": 8716,
      "petty": 8717,
      "salty": 8718,
      "mouths": 8719,
      "marriages": 8720,
      "grandmother": 8721,
      "replies": 8722,
      "existed": 8723,
      "fallen": 8724,
      "shorts": 8725,
      "foolish": 8726,
      "mmm": 8727,
      "trusted": 8728,
      "spoil": 8729,
      "ancestry": 8730,
      "striker": 8731,
      "teenager": 8732,
      "traditions": 8733,
      "patriotic": 8734,
      "languages": 8735,
      "practices": 8736,
      "writers": 8737,
      "attempts": 8738,
      "feature": 8739,
      "distance": 8740,
      "buttig": 8741,
      "mlk": 8742,
      "locals": 8743,
      "encouraged": 8744,
      "wwwstormfron": 8745,
      "affirmative": 8746,
      "empowerment": 8747,
      "sympathy": 8748,
      "registered": 8749,
      "kidnapped": 8750,
      "described": 8751,
      "mgtow": 8752,
      "stigma": 8753,
      "tragic": 8754,
      "sloppy": 8755,
      "vulnerable": 8756,
      "torgforum": 8757,
      "wwwstormfrontorgforum": 8758,
      "ciss": 8759,
      "flaw": 8760,
      "gow": 8761,
      "hv": 8762,
      "obey": 8763,
      "tons": 8764,
      "vod": 8765,
      "wig": 8766,
      "zzy": 8767,
      "infin": 8768,
      "iser": 8769,
      "itu": 8770,
      "alb": 8771,
      "toms": 8772,
      "assem": 8773,
      "stones": 8774,
      "urges": 8775,
      "ophil": 8776,
      "unacceptable": 8777,
      "abilities": 8778,
      "hail": 8779,
      "haired": 8780,
      "outfit": 8781,
      "umn": 8782,
      "weare": 8783,
      "authent": 8784,
      "blake": 8785,
      "pless": 8786,
      "plastic": 8787,
      "123": 8788,
      "indic": 8789,
      "okla": 8790,
      "crus": 8791,
      "12829": 8792,
      "groc": 8793,
      "clark": 8794,
      "safc": 8795,
      "prov": 8796,
      "blacklivesmatter": 8797,
      "attended": 8798,
      "disguise": 8799,
      "preced": 8800,
      "stopping": 8801,
      "happily": 8802,
      "islamists": 8803,
      "verses": 8804,
      "ssss": 8805,
      "burden": 8806,
      "compens": 8807,
      "mississ": 8808,
      "ears": 8809,
      "pays": 8810,
      "lads": 8811,
      "demol": 8812,
      "mindset": 8813,
      "bomber": 8814,
      "greet": 8815,
      "salvation": 8816,
      "baltimore": 8817,
      "naturally": 8818,
      "instein": 8819,
      "colorado": 8820,
      "walls": 8821,
      "blessing": 8822,
      "spook": 8823,
      "pastors": 8824,
      "celtic": 8825,
      "plicit": 8826,
      "baker": 8827,
      "encouraging": 8828,
      "micro": 8829,
      "miller": 8830,
      "freaks": 8831,
      "chinaman": 8832,
      "normally": 8833,
      "affected": 8834,
      "scientists": 8835,
      "pilot": 8836,
      "alternative": 8837,
      "cdn": 8838,
      "healing": 8839,
      "antisemitic": 8840,
      "libtards": 8841,
      "tiktok": 8842,
      "conquer": 8843,
      "repeatedly": 8844,
      "controversial": 8845,
      "venezuela": 8846,
      "deleted": 8847,
      "confederate": 8848,
      "salvador": 8849,
      "postponed": 8850,
      "damascus": 8851,
      "700": 8852,
      "ao": 8853,
      "aqu": 8854,
      "fv": 8855,
      "hag": 8856,
      "hers": 8857,
      "kate": 8858,
      "kink": 8859,
      "lc": 8860,
      "nb": 8861,
      "nancy": 8862,
      "pagan": 8863,
      "ricul": 8864,
      "sme": 8865,
      "sie": 8866,
      "tm": 8867,
      "yg": 8868,
      "remark": 8869,
      "itable": 8870,
      "toss": 8871,
      "lia": 8872,
      "aden": 8873,
      "ables": 8874,
      "abroad": 8875,
      "deaf": 8876,
      "deals": 8877,
      "deplo": 8878,
      "depressed": 8879,
      "istandwith": 8880,
      "hebre": 8881,
      "doin": 8882,
      "doses": 8883,
      "endor": 8884,
      "endless": 8885,
      "maniac": 8886,
      "comic": 8887,
      "gucci": 8888,
      "marcus": 8889,
      "lahs": 8890,
      "angels": 8891,
      "scouts": 8892,
      "comeback": 8893,
      "madness": 8894,
      "enses": 8895,
      "footage": 8896,
      "homos": 8897,
      "posit": 8898,
      "ogs": 8899,
      "phr": 8900,
      "awak": 8901,
      "norway": 8902,
      "planes": 8903,
      "aimed": 8904,
      "hype": 8905,
      "speakfreely": 8906,
      "lowkey": 8907,
      "nukes": 8908,
      "commitment": 8909,
      "punjab": 8910,
      "strongly": 8911,
      "crystal": 8912,
      "productive": 8913,
      "lifting": 8914,
      "secretly": 8915,
      "painful": 8916,
      "features": 8917,
      "recovery": 8918,
      "chillin": 8919,
      "feeding": 8920,
      "uuuu": 8921,
      "struct": 8922,
      "necessarily": 8923,
      "franklin": 8924,
      "bothered": 8925,
      "mongol": 8926,
      "genuine": 8927,
      "legitimate": 8928,
      "sympath": 8929,
      "apolis": 8930,
      "impeachment": 8931,
      "gulf": 8932,
      "integration": 8933,
      "employees": 8934,
      "establishment": 8935,
      "stunning": 8936,
      "accomplish": 8937,
      "conclusion": 8938,
      "arrogant": 8939,
      "scumbag": 8940,
      "zealand": 8941,
      "daddys": 8942,
      "dignity": 8943,
      "awkward": 8944,
      "cabinet": 8945,
      "numerous": 8946,
      "sincerely": 8947,
      "182": 8948,
      "5000": 8949,
      "cb": 8950,
      "cav": 8951,
      "dw": 8952,
      "iat": 8953,
      "iowa": 8954,
      "kpop": 8955,
      "lamp": 8956,
      "mare": 8957,
      "nra": 8958,
      "nash": 8959,
      "vas": 8960,
      "vital": 8961,
      "yass": 8962,
      "zed": 8963,
      "zoo": 8964,
      "thie": 8965,
      "inas": 8966,
      "react": 8967,
      "encer": 8968,
      "beck": 8969,
      "libs": 8970,
      "shak": 8971,
      "trav": 8972,
      "imple": 8973,
      "aret": 8974,
      "pepper": 8975,
      "gos": 8976,
      "thisday": 8977,
      "updated": 8978,
      "fro": 8979,
      "sooo": 8980,
      "heels": 8981,
      "butcher": 8982,
      "blin": 8983,
      "manhatt": 8984,
      "byn": 8985,
      "expo": 8986,
      "clau": 8987,
      "ippi": 8988,
      "counted": 8989,
      "retire": 8990,
      "maria": 8991,
      "laura": 8992,
      "girlfriends": 8993,
      "liga": 8994,
      "dial": 8995,
      "drops": 8996,
      "scape": 8997,
      "athlete": 8998,
      "prev": 8999,
      "pushes": 9000,
      "phenom": 9001,
      "barri": 9002,
      "barry": 9003,
      "harsh": 9004,
      "accuses": 9005,
      "horn": 9006,
      "liberation": 9007,
      "reasonable": 9008,
      "demands": 9009,
      "militia": 9010,
      "nets": 9011,
      "palm": 9012,
      "theresa": 9013,
      "studi": 9014,
      "starbucks": 9015,
      "128080": 9016,
      "dealt": 9017,
      "vaccinated": 9018,
      "refuses": 9019,
      "canadians": 9020,
      "prisoners": 9021,
      "globe": 9022,
      "saudis": 9023,
      "kashmiris": 9024,
      "articles": 9025,
      "loses": 9026,
      "responding": 9027,
      "distribut": 9028,
      "cells": 9029,
      "galat": 9030,
      "rifle": 9031,
      "bunny": 9032,
      "remaining": 9033,
      "croat": 9034,
      "semitism": 9035,
      "dozen": 9036,
      "continuing": 9037,
      "shameless": 9038,
      "cotton": 9039,
      "twisted": 9040,
      "misogynist": 9041,
      "inspiring": 9042,
      "127814": 9043,
      "tackle": 9044,
      "seasons": 9045,
      "significant": 9046,
      "insanity": 9047,
      "diamond": 9048,
      "aaron": 9049,
      "junior": 9050,
      "library": 9051,
      "sustain": 9052,
      "whistle": 9053,
      "illiterate": 9054,
      "buttigieg": 9055,
      "oklahom": 9056,
      "3000": 9057,
      "79": 9058,
      "bac": 9059,
      "cass": 9060,
      "cdc": 9061,
      "git": 9062,
      "jug": 9063,
      "kah": 9064,
      "pf": 9065,
      "pto": 9066,
      "rival": 9067,
      "sv": 9068,
      "trev": 9069,
      "tcot": 9070,
      "ucl": 9071,
      "viv": 9072,
      "zach": 9073,
      "را": 9074,
      "anwar": 9075,
      "eration": 9076,
      "isan": 9077,
      "ales": 9078,
      "toes": 9079,
      "leon": 9080,
      "stank": 9081,
      "whiny": 9082,
      "whining": 9083,
      "icient": 9084,
      "amate": 9085,
      "shite": 9086,
      "shaming": 9087,
      "olit": 9088,
      "ione": 9089,
      "opt": 9090,
      "abol": 9091,
      "hein": 9092,
      "rail": 9093,
      "oda": 9094,
      "resolution": 9095,
      "este": 9096,
      "120": 9097,
      "poke": 9098,
      "cracy": 9099,
      "cribe": 9100,
      "akbar": 9101,
      "grip": 9102,
      "spar": 9103,
      "ipad": 9104,
      "quad": 9105,
      "warrant": 9106,
      "guards": 9107,
      "epstein": 9108,
      "descent": 9109,
      "talmud": 9110,
      "turing": 9111,
      "stops": 9112,
      "finance": 9113,
      "bucket": 9114,
      "smelly": 9115,
      "lessons": 9116,
      "phones": 9117,
      "nordic": 9118,
      "kik": 9119,
      "follows": 9120,
      "kindly": 9121,
      "filed": 9122,
      "tennes": 9123,
      "libertar": 9124,
      "airstrikes": 9125,
      "remembering": 9126,
      "messy": 9127,
      "browns": 9128,
      "signing": 9129,
      "salt": 9130,
      "disgusted": 9131,
      "grandparents": 9132,
      "delay": 9133,
      "gaetz": 9134,
      "kicking": 9135,
      "grounds": 9136,
      "batman": 9137,
      "sauce": 9138,
      "entered": 9139,
      "dresses": 9140,
      "cleaning": 9141,
      "demons": 9142,
      "scroll": 9143,
      "costs": 9144,
      "70s": 9145,
      "apartment": 9146,
      "promotes": 9147,
      "sweep": 9148,
      "rrrr": 9149,
      "qualify": 9150,
      "expensive": 9151,
      "embarrassment": 9152,
      "habit": 9153,
      "cowardly": 9154,
      "participate": 9155,
      "strateg": 9156,
      "audio": 9157,
      "challenges": 9158,
      "custody": 9159,
      "jerem": 9160,
      "scenes": 9161,
      "agencies": 9162,
      "wiped": 9163,
      "chastity": 9164,
      "stroke": 9165,
      "epidemic": 9166,
      "cough": 9167,
      "dale": 9168,
      "ec": 9169,
      "fis": 9170,
      "fame": 9171,
      "gaw": 9172,
      "jc": 9173,
      "jur": 9174,
      "pmo": 9175,
      "sri": 9176,
      "sword": 9177,
      "uous": 9178,
      "ugu": 9179,
      "zak": 9180,
      "thunder": 9181,
      "inent": 9182,
      "rever": 9183,
      "reverse": 9184,
      "bec": 9185,
      "belg": 9186,
      "alling": 9187,
      "unh": 9188,
      "uns": 9189,
      "dean": 9190,
      "memo": 9191,
      "resul": 9192,
      "restore": 9193,
      "hos": 9194,
      "exerc": 9195,
      "bruno": 9196,
      "essential": 9197,
      "cries": 9198,
      "ivan": 9199,
      "ivals": 9200,
      "spics": 9201,
      "warn": 9202,
      "tae": 9203,
      "perce": 9204,
      "muslimes": 9205,
      "diaspor": 9206,
      "pped": 9207,
      "server": 9208,
      "corny": 9209,
      "stopasianhate": 9210,
      "nyt": 9211,
      "cuomo": 9212,
      "cared": 9213,
      "murderous": 9214,
      "skir": 9215,
      "incite": 9216,
      "hindut": 9217,
      "obese": 9218,
      "lawyers": 9219,
      "accuse": 9220,
      "missouri": 9221,
      "juan": 9222,
      "swiss": 9223,
      "wales": 9224,
      "proport": 9225,
      "equip": 9226,
      "ordinary": 9227,
      "messi": 9228,
      "brownie": 9229,
      "welcoming": 9230,
      "traum": 9231,
      "palma": 9232,
      "danny": 9233,
      "nsfw": 9234,
      "detained": 9235,
      "vaccination": 9236,
      "suspic": 9237,
      "phoenix": 9238,
      "sooner": 9239,
      "keny": 9240,
      "kicks": 9241,
      "bisexuals": 9242,
      "aborted": 9243,
      "texting": 9244,
      "2009": 9245,
      "graves": 9246,
      "explained": 9247,
      "pregnancy": 9248,
      "discriminate": 9249,
      "trippin": 9250,
      "rico": 9251,
      "investigate": 9252,
      "conversations": 9253,
      "franch": 9254,
      "emotionally": 9255,
      "appreciated": 9256,
      "shouting": 9257,
      "regularly": 9258,
      "fellas": 9259,
      "aggression": 9260,
      "motivated": 9261,
      "ultimately": 9262,
      "scientist": 9263,
      "products": 9264,
      "enslave": 9265,
      "anderson": 9266,
      "brooklyn": 9267,
      "relatives": 9268,
      "tigers": 9269,
      "reduce": 9270,
      "chapter": 9271,
      "kabir": 9272,
      "opponent": 9273,
      "permanent": 9274,
      "commercial": 9275,
      "scprimary2020": 9276,
      "czech": 9277,
      "mafia": 9278,
      "cartoon": 9279,
      "cancelled": 9280,
      "ambassador": 9281,
      "marginal": 9282,
      "manhattan": 9283,
      "aer": 9284,
      "cage": 9285,
      "hud": 9286,
      "iu": 9287,
      "iation": 9288,
      "jis": 9289,
      "kon": 9290,
      "lent": 9291,
      "lust": 9292,
      "noun": 9293,
      "niv": 9294,
      "obt": 9295,
      "oreg": 9296,
      "rts": 9297,
      "woo": 9298,
      "xox": 9299,
      "yay": 9300,
      "thre": 9301,
      "inction": 9302,
      "erie": 9303,
      "reli": 9304,
      "isi": 9305,
      "toast": 9306,
      "edu": 9307,
      "chili": 9308,
      "chamber": 9309,
      "idels": 9310,
      "olol": 9311,
      "abdu": 9312,
      "absur": 9313,
      "negot": 9314,
      "measure": 9315,
      "notor": 9316,
      "estim": 9317,
      "expand": 9318,
      "poet": 9319,
      "appl": 9320,
      "2022": 9321,
      "coord": 9322,
      "gras": 9323,
      "howard": 9324,
      "nails": 9325,
      "mari": 9326,
      "izers": 9327,
      "ahmad": 9328,
      "monsters": 9329,
      "turd": 9330,
      "headline": 9331,
      "diego": 9332,
      "phy": 9333,
      "remlin": 9334,
      "handling": 9335,
      "define": 9336,
      "pointed": 9337,
      "valent": 9338,
      "civilian": 9339,
      "nigs": 9340,
      "populations": 9341,
      "presented": 9342,
      "locks": 9343,
      "argent": 9344,
      "walker": 9345,
      "fails": 9346,
      "closeted": 9347,
      "bagh": 9348,
      "furry": 9349,
      "hosting": 9350,
      "sticks": 9351,
      "gabri": 9352,
      "solar": 9353,
      "rocks": 9354,
      "ginger": 9355,
      "ripped": 9356,
      "traveling": 9357,
      "judgement": 9358,
      "painting": 9359,
      "smartnews": 9360,
      "moses": 9361,
      "collabor": 9362,
      "qualif": 9363,
      "qualified": 9364,
      "mandatory": 9365,
      "thirst": 9366,
      "preaching": 9367,
      "slaughtered": 9368,
      "atlantic": 9369,
      "occupation": 9370,
      "eyed": 9371,
      "insurance": 9372,
      "traffic": 9373,
      "assistance": 9374,
      "scripture": 9375,
      "caucasian": 9376,
      "carlson": 9377,
      "inspiration": 9378,
      "stereotypes": 9379,
      "rankhan": 9380,
      "anchor": 9381,
      "cheeks": 9382,
      "incompetent": 9383,
      "compliment": 9384,
      "devastating": 9385,
      "trannies": 9386,
      "vladim": 9387,
      "helicopter": 9388,
      "mississippi": 9389,
      "exposure": 9390,
      "absurd": 9391,
      "900": 9392,
      "bim": 9393,
      "cers": 9394,
      "gom": 9395,
      "jona": 9396,
      "kom": 9397,
      "mies": 9398,
      "mild": 9399,
      "nib": 9400,
      "vous": 9401,
      "init": 9402,
      "anxi": 9403,
      "err": 9404,
      "error": 9405,
      "rebuild": 9406,
      "reference": 9407,
      "itudes": 9408,
      "arre": 9409,
      "chess": 9410,
      "chasing": 9411,
      "behave": 9412,
      "sein": 9413,
      "otto": 9414,
      "shab": 9415,
      "ady": 9416,
      "adel": 9417,
      "keting": 9418,
      "imrankhan": 9419,
      "options": 9420,
      "unnecessary": 9421,
      "lobby": 9422,
      "ista": 9423,
      "blings": 9424,
      "blond": 9425,
      "comics": 9426,
      "donations": 9427,
      "exposing": 9428,
      "brow": 9429,
      "brits": 9430,
      "ella": 9431,
      "somewhat": 9432,
      "joins": 9433,
      "overcome": 9434,
      "izzy": 9435,
      "laib": 9436,
      "ahh": 9437,
      "reads": 9438,
      "bike": 9439,
      "friendship": 9440,
      "ighs": 9441,
      "morrison": 9442,
      "deadass": 9443,
      "carri": 9444,
      "cheated": 9445,
      "skank": 9446,
      "incidence": 9447,
      "gunmen": 9448,
      "survey": 9449,
      "swallow": 9450,
      "ception": 9451,
      "differences": 9452,
      "slept": 9453,
      "paed": 9454,
      "midfiel": 9455,
      "respected": 9456,
      "superman": 9457,
      "superiority": 9458,
      "catholicism": 9459,
      "issued": 9460,
      "sunni": 9461,
      "salah": 9462,
      "garian": 9463,
      "learngerman": 9464,
      "purge": 9465,
      "testim": 9466,
      "cowboy": 9467,
      "belly": 9468,
      "larger": 9469,
      "larry": 9470,
      "production": 9471,
      "spectrum": 9472,
      "yyy": 9473,
      "lifetime": 9474,
      "shameful": 9475,
      "harassed": 9476,
      "answered": 9477,
      "fixed": 9478,
      "featuring": 9479,
      "robber": 9480,
      "mute": 9481,
      "sacred": 9482,
      "harmful": 9483,
      "appointment": 9484,
      "guts": 9485,
[...]
